{
  "version": "1.0",
  "truncation": null,
  "padding": null,
  "added_tokens": [
    {
      "id": 0,
      "content": "<pad>",
      "single_word": false,
      "lstrip": false,
      "rstrip": false,
      "normalized": false,
      "special": true
    },
    {
      "id": 1,
      "content": "<s>",
      "single_word": false,
      "lstrip": false,
      "rstrip": false,
      "normalized": false,
      "special": true
    },
    {
      "id": 2,
      "content": "</s>",
      "single_word": false,
      "lstrip": false,
      "rstrip": false,
      "normalized": false,
      "special": true
    },
    {
      "id": 3,
      "content": "<unk>",
      "single_word": false,
      "lstrip": false,
      "rstrip": false,
      "normalized": false,
      "special": true
    },
    {
      "id": 4,
      "content": "<mask>",
      "single_word": false,
      "lstrip": false,
      "rstrip": false,
      "normalized": false,
      "special": true
    }
  ],
  "normalizer": null,
  "pre_tokenizer": {
    "type": "Whitespace"
  },
  "post_processor": null,
  "decoder": null,
  "model": {
    "type": "BPE",
    "dropout": null,
    "unk_token": null,
    "continuing_subword_prefix": null,
    "end_of_word_suffix": null,
    "fuse_unk": false,
    "byte_fallback": false,
    "vocab": {
      "<pad>": 0,
      "<s>": 1,
      "</s>": 2,
      "<unk>": 3,
      "<mask>": 4,
      "\u0000": 5,
      "\u0001": 6,
      "\u0002": 7,
      "\u0003": 8,
      "\u0004": 9,
      "\b": 10,
      "\u0010": 11,
      "\u0018": 12,
      "!": 13,
      "\"": 14,
      "%": 15,
      "'": 16,
      "(": 17,
      ")": 18,
      ",": 19,
      "-": 20,
      ".": 21,
      "0": 22,
      "1": 23,
      "2": 24,
      "3": 25,
      "4": 26,
      "5": 27,
      "6": 28,
      "7": 29,
      "8": 30,
      "9": 31,
      ":": 32,
      ";": 33,
      "?": 34,
      "@": 35,
      "B": 36,
      "D": 37,
      "E": 38,
      "S": 39,
      "[": 40,
      "]": 41,
      "`": 42,
      "a": 43,
      "b": 44,
      "c": 45,
      "d": 46,
      "e": 47,
      "f": 48,
      "g": 49,
      "h": 50,
      "i": 51,
      "j": 52,
      "k": 53,
      "l": 54,
      "m": 55,
      "n": 56,
      "o": 57,
      "p": 58,
      "q": 59,
      "r": 60,
      "s": 61,
      "t": 62,
      "u": 63,
      "v": 64,
      "w": 65,
      "x": 66,
      "y": 67,
      "z": 68,
      "{": 69,
      "}": 70,
      "€": 71,
      "th": 72,
      "in": 73,
      "the": 74,
      "on": 75,
      "an": 76,
      "re": 77,
      "at": 78,
      "er": 79,
      "is": 80,
      "or": 81,
      "ed": 82,
      "en": 83,
      "al": 84,
      "es": 85,
      "it": 86,
      "ar": 87,
      "to": 88,
      "as": 89,
      "of": 90,
      "ou": 91,
      "ing": 92,
      "ic": 93,
      "and": 94,
      "ion": 95,
      "le": 96,
      "st": 97,
      "om": 98,
      "se": 99,
      "ent": 100,
      "ac": 101,
      "be": 102,
      "de": 103,
      "ro": 104,
      "ly": 105,
      "no": 106,
      "for": 107,
      "ch": 108,
      "ve": 109,
      "wi": 110,
      "that": 111,
      "wh": 112,
      "ation": 113,
      "lo": 114,
      "am": 115,
      "us": 116,
      "ct": 117,
      "im": 118,
      "ad": 119,
      "su": 120,
      "ab": 121,
      "ag": 122,
      "ut": 123,
      "pro": 124,
      "ver": 125,
      "il": 126,
      "con": 127,
      "un": 128,
      "ce": 129,
      "com": 130,
      "ol": 131,
      "not": 132,
      "are": 133,
      "ig": 134,
      "if": 135,
      "ter": 136,
      "te": 137,
      "we": 138,
      "ap": 139,
      "mo": 140,
      "ist": 141,
      "ne": 142,
      "art": 143,
      "he": 144,
      "id": 145,
      "with": 146,
      "ay": 147,
      "ld": 148,
      "ir": 149,
      "ate": 150,
      "ment": 151,
      "pe": 152,
      "po": 153,
      "tr": 154,
      "this": 155,
      "ur": 156,
      "so": 157,
      "ul": 158,
      "pl": 159,
      "you": 160,
      "ex": 161,
      "ther": 162,
      "was": 163,
      "by": 164,
      "ers": 165,
      "res": 166,
      "qu": 167,
      "ha": 168,
      "ould": 169,
      "fr": 170,
      "do": 171,
      "me": 172,
      "ity": 173,
      "ke": 174,
      "li": 175,
      "ain": 176,
      "20": 177,
      "ess": 178,
      "one": 179,
      "fe": 180,
      "ll": 181,
      "sh": 182,
      "op": 183,
      "age": 184,
      "ge": 185,
      "all": 186,
      "ip": 187,
      "but": 188,
      "est": 189,
      "our": 190,
      "out": 191,
      "lin": 192,
      "act": 193,
      "can": 194,
      "red": 195,
      "artic": 196,
      "have": 197,
      "ies": 198,
      "ma": 199,
      "gr": 200,
      "ia": 201,
      "oun": 202,
      "ive": 203,
      "cl": 204,
      "wor": 205,
      "any": 206,
      "pr": 207,
      "from": 208,
      "co": 209,
      "ant": 210,
      "em": 211,
      "ally": 212,
      "bo": 213,
      "iv": 214,
      "ie": 215,
      "um": 216,
      "comp": 217,
      "igh": 218,
      "ome": 219,
      "per": 220,
      "ich": 221,
      "ort": 222,
      "form": 223,
      "dis": 224,
      "au": 225,
      "able": 226,
      "ren": 227,
      "other": 228,
      "ated": 229,
      "ho": 230,
      "ci": 231,
      "ions": 232,
      "edit": 233,
      "19": 234,
      "has": 235,
      "go": 236,
      "which": 237,
      "some": 238,
      "ts": 239,
      "ard": 240,
      "bl": 241,
      "ame": 242,
      "list": 243,
      "there": 244,
      "str": 245,
      "ber": 246,
      "gh": 247,
      "port": 248,
      "der": 249,
      "ack": 250,
      "ud": 251,
      "tim": 252,
      "ind": 253,
      "ary": 254,
      "ase": 255,
      "end": 256,
      "cr": 257,
      "they": 258,
      "up": 259,
      "link": 260,
      "si": 261,
      "ical": 262,
      "sy": 263,
      "would": 264,
      "wik": 265,
      "ite": 266,
      "br": 267,
      "also": 268,
      "low": 269,
      "work": 270,
      "now": 271,
      "ough": 272,
      "ans": 273,
      "article": 274,
      "ust": 275,
      "ction": 276,
      "cont": 277,
      "ish": 278,
      "ple": 279,
      "af": 280,
      "edia": 281,
      "arch": 282,
      "ations": 283,
      "ser": 284,
      "ous": 285,
      "ces": 286,
      "ight": 287,
      "ure": 288,
      "mon": 289,
      "ev": 290,
      "ach": 291,
      "more": 292,
      "its": 293,
      "iz": 294,
      "ence": 295,
      "cre": 296,
      "pos": 297,
      "ial": 298,
      "vers": 299,
      "new": 300,
      "ble": 301,
      "gu": 302,
      "je": 303,
      "pre": 304,
      "ill": 305,
      "page": 306,
      "od": 307,
      "du": 308,
      "ound": 309,
      "cess": 310,
      "ty": 311,
      "ory": 312,
      "fo": 313,
      "inter": 314,
      "vi": 315,
      "ass": 316,
      "ign": 317,
      "log": 318,
      "ine": 319,
      "ong": 320,
      "ire": 321,
      "201": 322,
      "ors": 323,
      "ok": 324,
      "sour": 325,
      "ck": 326,
      "about": 327,
      "tw": 328,
      "gen": 329,
      "spe": 330,
      "use": 331,
      "pres": 332,
      "cus": 333,
      "should": 334,
      "int": 335,
      "their": 336,
      "ear": 337,
      "his": 338,
      "av": 339,
      "been": 340,
      "les": 341,
      "des": 342,
      "sp": 343,
      "ree": 344,
      "ice": 345,
      "than": 346,
      "ta": 347,
      "dat": 348,
      "cor": 349,
      "such": 350,
      "like": 351,
      "ject": 352,
      "ast": 353,
      "feren": 354,
      "were": 355,
      "min": 356,
      "add": 357,
      "man": 358,
      "what": 359,
      "my": 360,
      "ace": 361,
      "will": 362,
      "ens": 363,
      "thing": 364,
      "whe": 365,
      "sub": 366,
      "cur": 367,
      "wikip": 368,
      "00": 369,
      "who": 370,
      "way": 371,
      "dif": 372,
      "mat": 373,
      "tion": 374,
      "may": 375,
      "stem": 376,
      "time": 377,
      ").": 378,
      "fir": 379,
      "ance": 380,
      "wn": 381,
      "used": 382,
      "comm": 383,
      "ph": 384,
      "pu": 385,
      "col": 386,
      "tal": 387,
      "ific": 388,
      "ted": 389,
      "wikipedia": 390,
      "system": 391,
      "incl": 392,
      "part": 393,
      "ition": 394,
      "ile": 395,
      "very": 396,
      "when": 397,
      "ments": 398,
      "know": 399,
      "vie": 400,
      "only": 401,
      "200": 402,
      "publ": 403,
      "ting": 404,
      "ian": 405,
      "chan": 406,
      "sion": 407,
      "el": 408,
      "ved": 409,
      "aw": 410,
      "cent": 411,
      "just": 412,
      "search": 413,
      "ics": 414,
      "these": 415,
      "coun": 416,
      "over": 417,
      "eng": 418,
      "then": 419,
      "ates": 420,
      "first": 421,
      "your": 422,
      "them": 423,
      "ced": 424,
      "most": 425,
      "view": 426,
      "uni": 427,
      "ased": 428,
      "king": 429,
      "read": 430,
      "bec": 431,
      "don": 432,
      "ob": 433,
      "inform": 434,
      "reg": 435,
      "pol": 436,
      "requ": 437,
      "off": 438,
      "lop": 439,
      "see": 440,
      "ational": 441,
      "had": 442,
      "ult": 443,
      "mar": 444,
      "dr": 445,
      "ied": 446,
      "sim": 447,
      "comput": 448,
      "ual": 449,
      "where": 450,
      "ms": 451,
      "does": 452,
      "fin": 453,
      "bet": 454,
      "ages": 455,
      "discus": 456,
      "ility": 457,
      "sup": 458,
      "ful": 459,
      "under": 460,
      "io": 461,
      "ause": 462,
      "cy": 463,
      "need": 464,
      "tem": 465,
      "num": 466,
      "),": 467,
      "talk": 468,
      "rel": 469,
      "data": 470,
      "wr": 471,
      "two": 472,
      "ating": 473,
      "information": 474,
      "lect": 475,
      "into": 476,
      "gener": 477,
      "inst": 478,
      "par": 479,
      "inte": 480,
      "many": 481,
      "articles": 482,
      "here": 483,
      "ef": 484,
      "ents": 485,
      "made": 486,
      "fa": 487,
      "user": 488,
      "cons": 489,
      "could": 490,
      "tech": 491,
      "how": 492,
      "ten": 493,
      "ide": 494,
      "univers": 495,
      "ink": 496,
      "ue": 497,
      "get": 498,
      "net": 499,
      "gram": 500,
      "et": 501,
      "fore": 502,
      "ople": 503,
      "pt": 504,
      "year": 505,
      "people": 506,
      "cer": 507,
      "trans": 508,
      "sci": 509,
      "stud": 510,
      "top": 511,
      "sch": 512,
      "cal": 513,
      "stand": 514,
      "ative": 515,
      "dele": 516,
      "because": 517,
      "includ": 518,
      "inv": 519,
      "ari": 520,
      "after": 521,
      "deve": 522,
      "ding": 523,
      "pers": 524,
      "aph": 525,
      "ular": 526,
      "ib": 527,
      "high": 528,
      "main": 529,
      "val": 530,
      "appro": 531,
      "sel": 532,
      "ep": 533,
      "well": 534,
      "develop": 535,
      "sho": 536,
      "put": 537,
      "fun": 538,
      "being": 539,
      "ra": 540,
      "using": 541,
      "ose": 542,
      "program": 543,
      "wp": 544,
      "though": 545,
      "sul": 546,
      "even": 547,
      "think": 548,
      "med": 549,
      "hel": 550,
      "tain": 551,
      "ited": 552,
      "ning": 553,
      "app": 554,
      "stru": 555,
      "sa": 556,
      "ident": 557,
      "sources": 558,
      "proble": 559,
      "research": 560,
      "fl": 561,
      "vis": 562,
      "university": 563,
      "her": 564,
      "cle": 565,
      "xt": 566,
      "exam": 567,
      "differen": 568,
      "ince": 569,
      "cial": 570,
      "irect": 571,
      "bu": 572,
      "ibut": 573,
      "ving": 574,
      "users": 575,
      "ak": 576,
      "ater": 577,
      "set": 578,
      "mem": 579,
      "graph": 580,
      "produ": 581,
      "line": 582,
      "sing": 583,
      "spec": 584,
      "state": 585,
      "play": 586,
      "ability": 587,
      "support": 588,
      "same": 589,
      "point": 590,
      "rough": 591,
      "istr": 592,
      "process": 593,
      "itor": 594,
      "logy": 595,
      "fact": 596,
      "att": 597,
      "ually": 598,
      "ys": 599,
      "national": 600,
      "plic": 601,
      "lock": 602,
      "found": 603,
      "\".": 604,
      "based": 605,
      "less": 606,
      "old": 607,
      "call": 608,
      "discussion": 609,
      "person": 610,
      "ities": 611,
      "ise": 612,
      "serv": 613,
      "back": 614,
      "issu": 615,
      "led": 616,
      "while": 617,
      "org": 618,
      "source": 619,
      "sign": 620,
      "since": 621,
      "make": 622,
      "lan": 623,
      "through": 624,
      "public": 625,
      "oper": 626,
      "ateg": 627,
      "howe": 628,
      "say": 629,
      "nor": 630,
      "war": 631,
      "however": 632,
      "day": 633,
      "commun": 634,
      "try": 635,
      "sof": 636,
      "cond": 637,
      "monitor": 638,
      "mis": 639,
      "del": 640,
      "number": 641,
      "pa": 642,
      "oc": 643,
      "side": 644,
      "lar": 645,
      "resul": 646,
      "contr": 647,
      "she": 648,
      "again": 649,
      "fect": 650,
      "help": 651,
      "mic": 652,
      "ason": 653,
      "each": 654,
      "ished": 655,
      "book": 656,
      "fil": 657,
      "dom": 658,
      "comple": 659,
      "please": 660,
      "ween": 661,
      "project": 662,
      "look": 663,
      "long": 664,
      "between": 665,
      "ith": 666,
      "pon": 667,
      "self": 668,
      "did": 669,
      "prov": 670,
      "those": 671,
      "different": 672,
      "mu": 673,
      "199": 674,
      "land": 675,
      "present": 676,
      "fic": 677,
      "fol": 678,
      "rele": 679,
      "mention": 680,
      "rest": 681,
      "both": 682,
      "ters": 683,
      "review": 684,
      "find": 685,
      "ade": 686,
      "ick": 687,
      "non": 688,
      "case": 689,
      "nal": 690,
      "sol": 691,
      "dep": 692,
      "hist": 693,
      "allow": 694,
      "ices": 695,
      "ds": 696,
      "nam": 697,
      "ically": 698,
      "web": 699,
      "ger": 700,
      "jo": 701,
      "pect": 702,
      "ict": 703,
      "vel": 704,
      "computer": 705,
      "ix": 706,
      "block": 707,
      "ures": 708,
      "gest": 709,
      "right": 710,
      "char": 711,
      "every": 712,
      "uring": 713,
      "fer": 714,
      "good": 715,
      "cour": 716,
      "18": 717,
      "ution": 718,
      "example": 719,
      "sur": 720,
      "langu": 721,
      "seem": 722,
      "10": 723,
      "want": 724,
      "oup": 725,
      "categ": 726,
      "ss": 727,
      "rent": 728,
      "sequ": 729,
      "direct": 730,
      "pri": 731,
      "partic": 732,
      "giv": 733,
      "ism": 734,
      "cap": 735,
      "possi": 736,
      "edits": 737,
      "sum": 738,
      "world": 739,
      "writ": 740,
      "ann": 741,
      "sm": 742,
      "amer": 743,
      "group": 744,
      "own": 745,
      "name": 746,
      "vide": 747,
      "much": 748,
      "editors": 749,
      "report": 750,
      "struct": 751,
      "appe": 752,
      "car": 753,
      "remo": 754,
      "text": 755,
      "gre": 756,
      "ases": 757,
      "admin": 758,
      "come": 759,
      "ks": 760,
      "ot": 761,
      "bro": 762,
      "ws": 763,
      "ress": 764,
      "reason": 765,
      "before": 766,
      "quest": 767,
      "respon": 768,
      "leg": 769,
      "clo": 770,
      "reli": 771,
      "ized": 772,
      "follow": 773,
      "vari": 774,
      "post": 775,
      "content": 776,
      "contro": 777,
      "ency": 778,
      "ude": 779,
      "la": 780,
      "fur": 781,
      "black": 782,
      "design": 783,
      "systems": 784,
      "start": 785,
      "aim": 786,
      "tur": 787,
      "cu": 788,
      "sure": 789,
      "let": 790,
      "prof": 791,
      "editor": 792,
      "chang": 793,
      "problem": 794,
      "provid": 795,
      "\",": 796,
      "polic": 797,
      "open": 798,
      "wer": 799,
      "mult": 800,
      "exper": 801,
      "ail": 802,
      "dec": 803,
      "ran": 804,
      "dy": 805,
      "cop": 806,
      "another": 807,
      "still": 808,
      "without": 809,
      "current": 810,
      "mentioned": 811,
      "cept": 812,
      "orig": 813,
      "including": 814,
      "access": 815,
      "second": 816,
      "techno": 817,
      "referen": 818,
      "model": 819,
      "origin": 820,
      "anal": 821,
      "bit": 822,
      "times": 823,
      "ards": 824,
      "known": 825,
      "him": 826,
      "vir": 827,
      "class": 828,
      "years": 829,
      "specific": 830,
      "further": 831,
      "tware": 832,
      "organ": 833,
      "clear": 834,
      "software": 835,
      "ry": 836,
      "real": 837,
      "ital": 838,
      "site": 839,
      "ator": 840,
      "ext": 841,
      "domain": 842,
      "white": 843,
      "os": 844,
      "place": 845,
      "ool": 846,
      "common": 847,
      "tern": 848,
      "pat": 849,
      "ists": 850,
      "buil": 851,
      "mer": 852,
      "win": 853,
      "ton": 854,
      "prote": 855,
      "science": 856,
      "che": 857,
      "defin": 858,
      "ization": 859,
      "school": 860,
      "pages": 861,
      "americ": 862,
      "gor": 863,
      "meth": 864,
      "depend": 865,
      "elect": 866,
      "might": 867,
      "sug": 868,
      "vo": 869,
      "ably": 870,
      "ield": 871,
      "ca": 872,
      "ired": 873,
      "during": 874,
      "mal": 875,
      "hum": 876,
      "run": 877,
      "states": 878,
      "network": 879,
      "change": 880,
      "libr": 881,
      "adv": 882,
      "gover": 883,
      "lead": 884,
      "contin": 885,
      "ient": 886,
      "exp": 887,
      "law": 888,
      "applic": 889,
      "ask": 890,
      "equ": 891,
      "order": 892,
      "why": 893,
      "suggest": 894,
      "ering": 895,
      "general": 896,
      "og": 897,
      "di": 898,
      "feat": 899,
      "por": 900,
      "loc": 901,
      "contribut": 902,
      "198": 903,
      "vious": 904,
      "bers": 905,
      "none": 906,
      "subject": 907,
      "sever": 908,
      "called": 909,
      "possible": 910,
      "down": 911,
      "auth": 912,
      "company": 913,
      "language": 914,
      "algor": 915,
      "test": 916,
      "als": 917,
      "algorith": 918,
      "deletion": 919,
      "bas": 920,
      "claim": 921,
      "ves": 922,
      "air": 923,
      "jour": 924,
      "bot": 925,
      "ship": 926,
      "crit": 927,
      "later": 928,
      "several": 929,
      "ither": 930,
      "level": 931,
      "ban": 932,
      "three": 933,
      "reliable": 934,
      "method": 935,
      "ily": 936,
      "interest": 937,
      "something": 938,
      "version": 939,
      "free": 940,
      "addition": 941,
      "appear": 942,
      "templ": 943,
      "lit": 944,
      "sen": 945,
      "engine": 946,
      "kes": 947,
      "vol": 948,
      "hand": 949,
      "lish": 950,
      "uc": 951,
      "descr": 952,
      "pur": 953,
      "section": 954,
      "take": 955,
      "category": 956,
      "code": 957,
      "avail": 958,
      "wiki": 959,
      "game": 960,
      "journal": 961,
      "links": 962,
      "given": 963,
      "ute": 964,
      "action": 965,
      "pop": 966,
      "field": 967,
      "bus": 968,
      "ived": 969,
      "appropri": 970,
      "ilar": 971,
      "import": 972,
      "mit": 973,
      "posed": 974,
      "history": 975,
      "similar": 976,
      "govern": 977,
      "ify": 978,
      "sit": 979,
      "pass": 980,
      "ious": 981,
      "said": 982,
      "sed": 983,
      "prob": 984,
      "include": 985,
      "effect": 986,
      "typ": 987,
      "gn": 988,
      "unt": 989,
      "function": 990,
      "large": 991,
      "lim": 992,
      "perform": 993,
      "az": 994,
      "appropriate": 995,
      "ality": 996,
      "turn": 997,
      "show": 998,
      "issue": 999,
      "space": 1000,
      "often": 1001,
      "argu": 1002,
      "soci": 1003,
      "eas": 1004,
      "ref": 1005,
      "exist": 1006,
      "12": 1007,
      "published": 1008,
      "aren": 1009,
      "policy": 1010,
      "fac": 1011,
      "ings": 1012,
      "ural": 1013,
      "particular": 1014,
      "colle": 1015,
      "datab": 1016,
      "ready": 1017,
      "ven": 1018,
      "doesn": 1019,
      "plan": 1020,
      "ele": 1021,
      "000": 1022,
      "auto": 1023,
      "prom": 1024,
      "available": 1025,
      "jor": 1026,
      "object": 1027,
      "mber": 1028,
      "technology": 1029,
      "small": 1030,
      "invol": 1031,
      "comments": 1032,
      "too": 1033,
      "someone": 1034,
      "head": 1035,
      "ified": 1036,
      "against": 1037,
      "ins": 1038,
      "bio": 1039,
      "impro": 1040,
      "har": 1041,
      "techn": 1042,
      "ways": 1043,
      "copy": 1044,
      "ron": 1045,
      "ply": 1046,
      "abo": 1047,
      "ines": 1048,
      "recor": 1049,
      "cam": 1050,
      "hard": 1051,
      "far": 1052,
      "prim": 1053,
      "going": 1054,
      "within": 1055,
      "ared": 1056,
      "ately": 1057,
      "lab": 1058,
      "ner": 1059,
      "tit": 1060,
      "question": 1061,
      "accoun": 1062,
      "inc": 1063,
      "row": 1064,
      "certain": 1065,
      "better": 1066,
      "uary": 1067,
      "mill": 1068,
      "15": 1069,
      "ivid": 1070,
      "request": 1071,
      "rect": 1072,
      "stat": 1073,
      "term": 1074,
      "ended": 1075,
      "mus": 1076,
      "ft": 1077,
      "result": 1078,
      "face": 1079,
      "incre": 1080,
      "mean": 1081,
      "plain": 1082,
      "fam": 1083,
      "development": 1084,
      "united": 1085,
      "seems": 1086,
      "rece": 1087,
      "blacklist": 1088,
      "eu": 1089,
      "vent": 1090,
      "ze": 1091,
      "emp": 1092,
      "cit": 1093,
      "must": 1094,
      "distr": 1095,
      "ier": 1096,
      "cover": 1097,
      "major": 1098,
      "rather": 1099,
      "either": 1100,
      "charac": 1101,
      "really": 1102,
      "beli": 1103,
      "few": 1104,
      "human": 1105,
      "ctions": 1106,
      "community": 1107,
      "keep": 1108,
      "whether": 1109,
      "due": 1110,
      "ensus": 1111,
      "above": 1112,
      "best": 1113,
      "media": 1114,
      "son": 1115,
      "contain": 1116,
      "instit": 1117,
      "bal": 1118,
      "bre": 1119,
      "iple": 1120,
      "associ": 1121,
      "ave": 1122,
      "que": 1123,
      "beg": 1124,
      "load": 1125,
      "16": 1126,
      "den": 1127,
      "tool": 1128,
      "modif": 1129,
      "check": 1130,
      "created": 1131,
      "bi": 1132,
      "profess": 1133,
      "whitelist": 1134,
      "secur": 1135,
      "related": 1136,
      "lot": 1137,
      "ken": 1138,
      "agree": 1139,
      "cho": 1140,
      "conne": 1141,
      "ize": 1142,
      "box": 1143,
      "21": 1144,
      "dig": 1145,
      "understand": 1146,
      "single": 1147,
      "na": 1148,
      "197": 1149,
      "product": 1150,
      "library": 1151,
      "happ": 1152,
      "already": 1153,
      "international": 1154,
      "others": 1155,
      "sequent": 1156,
      "lear": 1157,
      "image": 1158,
      "bar": 1159,
      "done": 1160,
      "author": 1161,
      "ded": 1162,
      "around": 1163,
      "17": 1164,
      "pose": 1165,
      "hy": 1166,
      "represent": 1167,
      "lif": 1168,
      "least": 1169,
      "dist": 1170,
      "control": 1171,
      "government": 1172,
      "american": 1173,
      "uses": 1174,
      "plement": 1175,
      "security": 1176,
      "ross": 1177,
      "tre": 1178,
      "key": 1179,
      "redlist": 1180,
      "mater": 1181,
      "ulation": 1182,
      "domainredlist": 1183,
      "editing": 1184,
      "correct": 1185,
      "ants": 1186,
      "monitorlist": 1187,
      "concer": 1188,
      "signific": 1189,
      "acy": 1190,
      "polit": 1191,
      "ives": 1192,
      "until": 1193,
      "nat": 1194,
      "iness": 1195,
      "care": 1196,
      "sto": 1197,
      "sk": 1198,
      "special": 1199,
      "ang": 1200,
      "ames": 1201,
      "type": 1202,
      "ub": 1203,
      "provide": 1204,
      "news": 1205,
      "micro": 1206,
      "plac": 1207,
      "estab": 1208,
      "original": 1209,
      "light": 1210,
      "ket": 1211,
      "last": 1212,
      "consid": 1213,
      "mach": 1214,
      "material": 1215,
      "consensus": 1216,
      "having": 1217,
      "scient": 1218,
      "ead": 1219,
      "proper": 1220,
      "making": 1221,
      "ible": 1222,
      "offic": 1223,
      "fix": 1224,
      "added": 1225,
      "tle": 1226,
      "individ": 1227,
      "aps": 1228,
      "sc": 1229,
      "ially": 1230,
      "ional": 1231,
      "ged": 1232,
      "things": 1233,
      "position": 1234,
      "implement": 1235,
      "never": 1236,
      "22": 1237,
      "ustr": 1238,
      "four": 1239,
      "enough": 1240,
      "cut": 1241,
      "ming": 1242,
      "power": 1243,
      "attack": 1244,
      "press": 1245,
      "idence": 1246,
      "ww": 1247,
      "important": 1248,
      "bin": 1249,
      "complete": 1250,
      "11": 1251,
      "ences": 1252,
      "ris": 1253,
      "ath": 1254,
      "template": 1255,
      "init": 1256,
      "continu": 1257,
      "acade": 1258,
      "ision": 1259,
      "educ": 1260,
      "pot": 1261,
      "notable": 1262,
      "ore": 1263,
      "address": 1264,
      "vert": 1265,
      "cell": 1266,
      "business": 1267,
      "standard": 1268,
      "windo": 1269,
      "following": 1270,
      "ash": 1271,
      "instead": 1272,
      "board": 1273,
      "30": 1274,
      "mess": 1275,
      "ral": 1276,
      "nom": 1277,
      "subsequent": 1278,
      "changes": 1279,
      "individual": 1280,
      "service": 1281,
      "alth": 1282,
      "create": 1283,
      "although": 1284,
      "actually": 1285,
      "sco": 1286,
      "50": 1287,
      "mark": 1288,
      "word": 1289,
      "tail": 1290,
      "analys": 1291,
      "comment": 1292,
      "ones": 1293,
      "docu": 1294,
      "recent": 1295,
      "jun": 1296,
      "ories": 1297,
      "ouse": 1298,
      "pract": 1299,
      "sou": 1300,
      "rad": 1301,
      "sem": 1302,
      "issues": 1303,
      "big": 1304,
      "written": 1305,
      "body": 1306,
      "lines": 1307,
      "pho": 1308,
      "significant": 1309,
      "14": 1310,
      "dev": 1311,
      "ively": 1312,
      "invest": 1313,
      "ised": 1314,
      "move": 1315,
      "activ": 1316,
      "early": 1317,
      "jan": 1318,
      "multiple": 1319,
      "guide": 1320,
      "communic": 1321,
      "ord": 1322,
      "phys": 1323,
      "english": 1324,
      "iety": 1325,
      "grad": 1326,
      "left": 1327,
      "likely": 1328,
      "tar": 1329,
      "crip": 1330,
      "inde": 1331,
      "cep": 1332,
      "wide": 1333,
      "area": 1334,
      "met": 1335,
      "local": 1336,
      "probably": 1337,
      "month": 1338,
      "accor": 1339,
      "social": 1340,
      "ju": 1341,
      "ators": 1342,
      "loy": 1343,
      "mag": 1344,
      "beha": 1345,
      "life": 1346,
      "dependent": 1347,
      "base": 1348,
      "note": 1349,
      "previous": 1350,
      "member": 1351,
      "196": 1352,
      "won": 1353,
      "suc": 1354,
      "bur": 1355,
      "short": 1356,
      "require": 1357,
      "team": 1358,
      "conf": 1359,
      "students": 1360,
      "ste": 1361,
      "cted": 1362,
      "cing": 1363,
      "termin": 1364,
      "logical": 1365,
      "intro": 1366,
      "anything": 1367,
      "euro": 1368,
      "ri": 1369,
      "ling": 1370,
      "analysis": 1371,
      "million": 1372,
      "value": 1373,
      "itions": 1374,
      "sent": 1375,
      "regard": 1376,
      "cogn": 1377,
      "behavi": 1378,
      "manage": 1379,
      "priv": 1380,
      "developed": 1381,
      "topic": 1382,
      "goog": 1383,
      "opin": 1384,
      "problems": 1385,
      "various": 1386,
      "themat": 1387,
      "else": 1388,
      "file": 1389,
      "ctor": 1390,
      "series": 1391,
      "city": 1392,
      "uk": 1393,
      "ples": 1394,
      "tom": 1395,
      "ness": 1396,
      "isn": 1397,
      "ird": 1398,
      "pap": 1399,
      "xim": 1400,
      "concern": 1401,
      "necess": 1402,
      "modify": 1403,
      "mathemat": 1404,
      "gy": 1405,
      "became": 1406,
      "tra": 1407,
      "administr": 1408,
      "ben": 1409,
      "introdu": 1410,
      "remain": 1411,
      "full": 1412,
      "personal": 1413,
      "date": 1414,
      "ric": 1415,
      "wee": 1416,
      "google": 1417,
      "study": 1418,
      "und": 1419,
      "anyone": 1420,
      "ward": 1421,
      "according": 1422,
      "sw": 1423,
      "focus": 1424,
      "works": 1425,
      "depart": 1426,
      "event": 1427,
      "services": 1428,
      "internet": 1429,
      "ification": 1430,
      "ild": 1431,
      "def": 1432,
      "theory": 1433,
      "cir": 1434,
      "ential": 1435,
      "err": 1436,
      "hn": 1437,
      "great": 1438,
      "reference": 1439,
      "evidence": 1440,
      "distribut": 1441,
      "engineering": 1442,
      "fail": 1443,
      "means": 1444,
      "ured": 1445,
      "among": 1446,
      "tag": 1447,
      "usion": 1448,
      "health": 1449,
      "clop": 1450,
      "thus": 1451,
      "fort": 1452,
      "included": 1453,
      "character": 1454,
      "itive": 1455,
      "conside": 1456,
      "considered": 1457,
      "meas": 1458,
      "labor": 1459,
      "consider": 1460,
      "attem": 1461,
      "account": 1462,
      "bor": 1463,
      "nel": 1464,
      "13": 1465,
      "notability": 1466,
      "approach": 1467,
      "windows": 1468,
      "course": 1469,
      "online": 1470,
      "viol": 1471,
      "ights": 1472,
      "const": 1473,
      "house": 1474,
      "ru": 1475,
      "wom": 1476,
      "encyclop": 1477,
      "idea": 1478,
      "ina": 1479,
      "ps": 1480,
      "experi": 1481,
      "president": 1482,
      "simply": 1483,
      "cannot": 1484,
      "fair": 1485,
      "europe": 1486,
      "database": 1487,
      "released": 1488,
      "rus": 1489,
      "pus": 1490,
      "fully": 1491,
      "members": 1492,
      "ficient": 1493,
      "force": 1494,
      "usually": 1495,
      "give": 1496,
      "ules": 1497,
      "hal": 1498,
      "music": 1499,
      "algorithm": 1500,
      "aft": 1501,
      "center": 1502,
      "syn": 1503,
      "independent": 1504,
      "cases": 1505,
      "pret": 1506,
      "books": 1507,
      "ints": 1508,
      "lat": 1509,
      "active": 1510,
      "makes": 1511,
      "ledge": 1512,
      "needs": 1513,
      "itself": 1514,
      "describ": 1515,
      "aug": 1516,
      "aster": 1517,
      "actions": 1518,
      "working": 1519,
      "ff": 1520,
      "peri": 1521,
      "complex": 1522,
      "building": 1523,
      "mil": 1524,
      "eve": 1525,
      "atch": 1526,
      "rup": 1527,
      "econ": 1528,
      "ues": 1529,
      "college": 1530,
      "ped": 1531,
      "feel": 1532,
      "improve": 1533,
      "detail": 1534,
      "below": 1535,
      "success": 1536,
      "redu": 1537,
      "ground": 1538,
      "flu": 1539,
      "25": 1540,
      "discuss": 1541,
      "envir": 1542,
      "llig": 1543,
      "soc": 1544,
      "environ": 1545,
      "separ": 1546,
      "econom": 1547,
      "indic": 1548,
      "got": 1549,
      "kind": 1550,
      "glo": 1551,
      "ring": 1552,
      "doing": 1553,
      "results": 1554,
      "names": 1555,
      "along": 1556,
      "always": 1557,
      "involved": 1558,
      "mail": 1559,
      "intellig": 1560,
      "gree": 1561,
      "oid": 1562,
      "mass": 1563,
      "management": 1564,
      "once": 1565,
      "near": 1566,
      "digital": 1567,
      "close": 1568,
      "child": 1569,
      "ii": 1570,
      "entire": 1571,
      "wa": 1572,
      "ons": 1573,
      "uation": 1574,
      "relev": 1575,
      "cially": 1576,
      "mid": 1577,
      "words": 1578,
      "little": 1579,
      "john": 1580,
      "stop": 1581,
      "next": 1582,
      "film": 1583,
      "video": 1584,
      "cult": 1585,
      "chr": 1586,
      "exe": 1587,
      "ball": 1588,
      "ians": 1589,
      "ever": 1590,
      "industr": 1591,
      "applications": 1592,
      "vision": 1593,
      "range": 1594,
      "ances": 1595,
      "home": 1596,
      "explain": 1597,
      "march": 1598,
      "medi": 1599,
      "third": 1600,
      "format": 1601,
      "dece": 1602,
      "istic": 1603,
      "nothing": 1604,
      "host": 1605,
      "sam": 1606,
      "expect": 1607,
      "comes": 1608,
      "2012": 1609,
      "quality": 1610,
      "men": 1611,
      "ley": 1612,
      "sort": 1613,
      "seen": 1614,
      "integr": 1615,
      "believe": 1616,
      "ga": 1617,
      "images": 1618,
      "redirect": 1619,
      "mac": 1620,
      "cost": 1621,
      "become": 1622,
      "2010": 1623,
      "cry": 1624,
      "24": 1625,
      "2013": 1626,
      "rever": 1627,
      "recogn": 1628,
      "da": 1629,
      "ril": 1630,
      "unch": 1631,
      "resol": 1632,
      "appl": 1633,
      "2016": 1634,
      "announ": 1635,
      "removed": 1636,
      "institute": 1637,
      "currently": 1638,
      "fut": 1639,
      "knowledge": 1640,
      "lling": 1641,
      "sym": 1642,
      "dam": 1643,
      "yet": 1644,
      "ware": 1645,
      "commit": 1646,
      "award": 1647,
      "lic": 1648,
      "machine": 1649,
      "strong": 1650,
      "trad": 1651,
      "tele": 1652,
      "sal": 1653,
      "period": 1654,
      "particip": 1655,
      "website": 1656,
      "water": 1657,
      "useful": 1658,
      "department": 1659,
      "tru": 1660,
      "hold": 1661,
      "soft": 1662,
      "2020": 1663,
      "train": 1664,
      "100": 1665,
      "june": 1666,
      "etc": 1667,
      "resour": 1668,
      "plat": 1669,
      "required": 1670,
      "january": 1671,
      "deb": 1672,
      "education": 1673,
      "publish": 1674,
      "north": 1675,
      "points": 1676,
      "delete": 1677,
      "matter": 1678,
      "sis": 1679,
      "write": 1680,
      "moder": 1681,
      "ump": 1682,
      "deleted": 1683,
      "former": 1684,
      "crim": 1685,
      "memory": 1686,
      "wrong": 1687,
      "2011": 1688,
      "rop": 1689,
      "provided": 1690,
      "photo": 1691,
      "pet": 1692,
      "dou": 1693,
      "nove": 1694,
      "ug": 1695,
      "2014": 1696,
      "party": 1697,
      "july": 1698,
      "histor": 1699,
      "tic": 1700,
      "april": 1701,
      "ork": 1702,
      "bad": 1703,
      "december": 1704,
      "perh": 1705,
      "occur": 1706,
      "received": 1707,
      "bill": 1708,
      "document": 1709,
      "octo": 1710,
      "gl": 1711,
      "perhaps": 1712,
      "deal": 1713,
      "brit": 1714,
      "trying": 1715,
      "generally": 1716,
      "methods": 1717,
      "relevant": 1718,
      "days": 1719,
      "needed": 1720,
      "suf": 1721,
      "step": 1722,
      "refer": 1723,
      "ference": 1724,
      "ense": 1725,
      "october": 1726,
      "application": 1727,
      "sites": 1728,
      "reported": 1729,
      "2017": 1730,
      "size": 1731,
      "ging": 1732,
      "hol": 1733,
      "tries": 1734,
      "sep": 1735,
      "wise": 1736,
      "2018": 1737,
      "ables": 1738,
      "games": 1739,
      "retr": 1740,
      "ai": 1741,
      "ention": 1742,
      "2007": 1743,
      "espe": 1744,
      "0s": 1745,
      "broad": 1746,
      "aries": 1747,
      "pred": 1748,
      "arr": 1749,
      "ury": 1750,
      "track": 1751,
      "ival": 1752,
      "compan": 1753,
      "corpor": 1754,
      "york": 1755,
      "especially": 1756,
      "speed": 1757,
      "sense": 1758,
      "learning": 1759,
      "2015": 1760,
      "rs": 1761,
      "ah": 1762,
      "accept": 1763,
      "future": 1764,
      "happen": 1765,
      "div": 1766,
      "san": 1767,
      "programs": 1768,
      "--": 1769,
      "ilities": 1770,
      "jud": 1771,
      "ener": 1772,
      "ker": 1773,
      "disput": 1774,
      "yes": 1775,
      "algorithms": 1776,
      "transl": 1777,
      "simple": 1778,
      "ieved": 1779,
      "opinion": 1780,
      "amoun": 1781,
      "terms": 1782,
      "environment": 1783,
      "frequ": 1784,
      "2019": 1785,
      "programming": 1786,
      "thank": 1787,
      "vand": 1788,
      "super": 1789,
      "relation": 1790,
      "cas": 1791,
      "collect": 1792,
      "named": 1793,
      "bel": 1794,
      "south": 1795,
      "mission": 1796,
      "therefore": 1797,
      "didn": 1798,
      "civ": 1799,
      "respect": 1800,
      "august": 1801,
      "tember": 1802,
      "ges": 1803,
      "references": 1804,
      "band": 1805,
      "tor": 1806,
      "via": 1807,
      "september": 1808,
      "hip": 1809,
      "display": 1810,
      "exact": 1811,
      "november": 1812,
      "reach": 1813,
      "combin": 1814,
      "ending": 1815,
      "employ": 1816,
      "2008": 1817,
      "platform": 1818,
      "women": 1819,
      "cul": 1820,
      "attr": 1821,
      "arily": 1822,
      "2009": 1823,
      "rand": 1824,
      "accur": 1825,
      "graphy": 1826,
      "ature": 1827,
      "features": 1828,
      "promo": 1829,
      "vered": 1830,
      "taken": 1831,
      "austr": 1832,
      "ination": 1833,
      "aged": 1834,
      "allows": 1835,
      "diffic": 1836,
      "lack": 1837,
      "numbers": 1838,
      "family": 1839,
      "23": 1840,
      "academic": 1841,
      "intelligence": 1842,
      "proposed": 1843,
      "ides": 1844,
      "official": 1845,
      "ago": 1846,
      "sound": 1847,
      "ief": 1848,
      "professor": 1849,
      "studies": 1850,
      "country": 1851,
      "quite": 1852,
      "ensive": 1853,
      "legal": 1854,
      "poly": 1855,
      "return": 1856,
      "ned": 1857,
      "necessary": 1858,
      "higher": 1859,
      "ford": 1860,
      "sometimes": 1861,
      "lished": 1862,
      "established": 1863,
      "ches": 1864,
      "select": 1865,
      "sty": 1866,
      "ars": 1867,
      "started": 1868,
      "ium": 1869,
      "quant": 1870,
      "title": 1871,
      "atic": 1872,
      "ends": 1873,
      "avoid": 1874,
      "scal": 1875,
      "ream": 1876,
      "anim": 1877,
      "ler": 1878,
      "tex": 1879,
      "appears": 1880,
      "mob": 1881,
      "provides": 1882,
      "past": 1883,
      "electron": 1884,
      "194": 1885,
      "worth": 1886,
      "consist": 1887,
      "copyright": 1888,
      "umb": 1889,
      "says": 1890,
      "cred": 1891,
      "obvious": 1892,
      "repe": 1893,
      "across": 1894,
      "areas": 1895,
      "behavior": 1896,
      "sus": 1897,
      "includes": 1898,
      "mind": 1899,
      "ont": 1900,
      "true": 1901,
      "thought": 1902,
      "fc": 1903,
      "primary": 1904,
      "automat": 1905,
      "writing": 1906,
      "investig": 1907,
      "mor": 1908,
      "tools": 1909,
      "table": 1910,
      "ought": 1911,
      "languages": 1912,
      "altern": 1913,
      "prior": 1914,
      "performance": 1915,
      "server": 1916,
      "cast": 1917,
      "operating": 1918,
      "ties": 1919,
      "ram": 1920,
      "propos": 1921,
      "atory": 1922,
      "fed": 1923,
      "popular": 1924,
      "path": 1925,
      "toge": 1926,
      "zer": 1927,
      "questions": 1928,
      "response": 1929,
      "together": 1930,
      "techni": 1931,
      "society": 1932,
      "ising": 1933,
      "clearly": 1934,
      "dete": 1935,
      "placed": 1936,
      "types": 1937,
      "cat": 1938,
      "arent": 1939,
      "political": 1940,
      "tell": 1941,
      "info": 1942,
      "structure": 1943,
      "scre": 1944,
      "ses": 1945,
      "input": 1946,
      "ax": 1947,
      "2006": 1948,
      "looking": 1949,
      "aud": 1950,
      "iction": 1951,
      "modern": 1952,
      "countries": 1953,
      "stor": 1954,
      "coverage": 1955,
      "additional": 1956,
      "fig": 1957,
      "global": 1958,
      "encyclopedia": 1959,
      "almost": 1960,
      "optim": 1961,
      "ham": 1962,
      "served": 1963,
      "pay": 1964,
      "chem": 1965,
      "directly": 1966,
      "companies": 1967,
      "gress": 1968,
      "energy": 1969,
      "wards": 1970,
      "scientific": 1971,
      "changed": 1972,
      "mc": 1973,
      "analy": 1974,
      "acqu": 1975,
      "tee": 1976,
      "microsoft": 1977,
      "aging": 1978,
      "cture": 1979,
      "mechan": 1980,
      "solution": 1981,
      "computing": 1982,
      "2021": 1983,
      "sat": 1984,
      "week": 1985,
      "struction": 1986,
      "coming": 1987,
      "utions": 1988,
      "five": 1989,
      "mand": 1990,
      "random": 1991,
      "gradu": 1992,
      "archite": 1993,
      "paper": 1994,
      "wish": 1995,
      "sens": 1996,
      "designed": 1997,
      "hour": 1998,
      "rules": 1999,
      "canad": 2000,
      "lower": 2001,
      "febr": 2002,
      "utc": 2003,
      "vandal": 2004,
      "anti": 2005,
      "court": 2006,
      "tions": 2007,
      "determin": 2008,
      "february": 2009,
      "terr": 2010,
      "subst": 2011,
      "maybe": 2012,
      "context": 2013,
      "aring": 2014,
      "whole": 2015,
      "models": 2016,
      "announced": 2017,
      "restr": 2018,
      "office": 2019,
      "fran": 2020,
      "liter": 2021,
      "ml": 2022,
      "hope": 2023,
      "ery": 2024,
      "notice": 2025,
      "civil": 2026,
      "saying": 2027,
      "ires": 2028,
      "release": 2029,
      "fel": 2030,
      "limited": 2031,
      "lay": 2032,
      "held": 2033,
      "enter": 2034,
      "treat": 2035,
      "technical": 2036,
      "bly": 2037,
      "blocked": 2038,
      "hon": 2039,
      "tered": 2040,
      "maintain": 2041,
      "ister": 2042,
      "ik": 2043,
      "austral": 2044,
      "ison": 2045,
      "began": 2046,
      "ceed": 2047,
      "frame": 2048,
      "schol": 2049,
      "bol": 2050,
      "grow": 2051,
      "tax": 2052,
      "wal": 2053,
      "creation": 2054,
      "ology": 2055,
      "total": 2056,
      "groups": 2057,
      "ane": 2058,
      "allowed": 2059,
      "central": 2060,
      "ength": 2061,
      "print": 2062,
      "asing": 2063,
      "fall": 2064,
      "index": 2065,
      "adding": 2066,
      "cli": 2067,
      "195": 2068,
      "imp": 2069,
      "basic": 2070,
      "degree": 2071,
      "neg": 2072,
      "ale": 2073,
      "files": 2074,
      "defined": 2075,
      "mary": 2076,
      "condu": 2077,
      "ng": 2078,
      "fire": 2079,
      "took": 2080,
      "functions": 2081,
      "six": 2082,
      "west": 2083,
      "prevent": 2084,
      "covered": 2085,
      "numer": 2086,
      "roll": 2087,
      "anced": 2088,
      "construct": 2089,
      "commer": 2090,
      "market": 2091,
      "minim": 2092,
      "teach": 2093,
      "century": 2094,
      "wil": 2095,
      "protection": 2096,
      "role": 2097,
      "death": 2098,
      "medical": 2099,
      "message": 2100,
      "listed": 2101,
      "rate": 2102,
      "difficult": 2103,
      "hing": 2104,
      "described": 2105,
      "databases": 2106,
      "26": 2107,
      "ls": 2108,
      "rights": 2109,
      "hu": 2110,
      "quick": 2111,
      "watch": 2112,
      "half": 2113,
      "months": 2114,
      "28": 2115,
      "afd": 2116,
      "virt": 2117,
      "istics": 2118,
      "disrup": 2119,
      "ret": 2120,
      "multi": 2121,
      "amount": 2122,
      "roy": 2123,
      "itch": 2124,
      "pen": 2125,
      "compil": 2126,
      "criter": 2127,
      "kill": 2128,
      "27": 2129,
      "selves": 2130,
      "decision": 2131,
      "projects": 2132,
      "purpose": 2133,
      "built": 2134,
      "worked": 2135,
      "join": 2136,
      "www": 2137,
      "40": 2138,
      "british": 2139,
      "izing": 2140,
      "visual": 2141,
      "longer": 2142,
      "pov": 2143,
      "option": 2144,
      "2005": 2145,
      "launch": 2146,
      "scrip": 2147,
      "concept": 2148,
      "flow": 2149,
      "remove": 2150,
      "ently": 2151,
      "away": 2152,
      "squ": 2153,
      "player": 2154,
      "var": 2155,
      "bs": 2156,
      "values": 2157,
      "parame": 2158,
      "record": 2159,
      "color": 2160,
      "european": 2161,
      "itary": 2162,
      "rich": 2163,
      "shown": 2164,
      "claims": 2165,
      "rom": 2166,
      "organization": 2167,
      "bul": 2168,
      "ption": 2169,
      "brid": 2170,
      "ilo": 2171,
      "mee": 2172,
      "feder": 2173,
      "applied": 2174,
      "expres": 2175,
      "contributions": 2176,
      "mobile": 2177,
      "dan": 2178,
      "ats": 2179,
      "pattern": 2180,
      "experience": 2181,
      "estim": 2182,
      "processing": 2183,
      "existing": 2184,
      "final": 2185,
      "liam": 2186,
      "feature": 2187,
      "confl": 2188,
      "benef": 2189,
      "ordin": 2190,
      "ony": 2191,
      "shows": 2192,
      "stream": 2193,
      "card": 2194,
      "bound": 2195,
      "regular": 2196,
      "location": 2197,
      "influ": 2198,
      "lu": 2199,
      "outside": 2200,
      "ox": 2201,
      "statement": 2202,
      "mode": 2203,
      "affect": 2204,
      "today": 2205,
      "proto": 2206,
      "dim": 2207,
      "director": 2208,
      "establish": 2209,
      "events": 2210,
      "sil": 2211,
      "afr": 2212,
      "augh": 2213,
      "ond": 2214,
      "reed": 2215,
      "ping": 2216,
      "stated": 2217,
      "expand": 2218,
      "sequence": 2219,
      "retrieved": 2220,
      "command": 2221,
      "association": 2222,
      "ee": 2223,
      "jap": 2224,
      "song": 2225,
      "length": 2226,
      "begin": 2227,
      "valid": 2228,
      "answer": 2229,
      "execut": 2230,
      "assist": 2231,
      "foot": 2232,
      "upon": 2233,
      "natural": 2234,
      "ark": 2235,
      "suit": 2236,
      "unless": 2237,
      "eth": 2238,
      "argument": 2239,
      "demon": 2240,
      "came": 2241,
      "item": 2242,
      "guidelines": 2243,
      "potential": 2244,
      "normal": 2245,
      "rule": 2246,
      "moved": 2247,
      "2000": 2248,
      "attemp": 2249,
      "evol": 2250,
      "29": 2251,
      "supported": 2252,
      "critic": 2253,
      "gets": 2254,
      "match": 2255,
      "japan": 2256,
      "otherwise": 2257,
      "error": 2258,
      "iment": 2259,
      "separate": 2260,
      "60": 2261,
      "assu": 2262,
      "introduced": 2263,
      "actual": 2264,
      "compon": 2265,
      "ided": 2266,
      "cited": 2267,
      "80": 2268,
      "neut": 2269,
      "lying": 2270,
      "explo": 2271,
      "species": 2272,
      "earli": 2273,
      "tive": 2274,
      "pan": 2275,
      "collection": 2276,
      "cs": 2277,
      "safe": 2278,
      "screen": 2279,
      "story": 2280,
      "operations": 2281,
      "style": 2282,
      "children": 2283,
      "christ": 2284,
      "van": 2285,
      "pie": 2286,
      "creating": 2287,
      "cil": 2288,
      "iting": 2289,
      "sets": 2290,
      "collabor": 2291,
      "categories": 2292,
      "particularly": 2293,
      "themselves": 2294,
      "ae": 2295,
      "sl": 2296,
      "basis": 2297,
      "hor": 2298,
      "operation": 2299,
      "share": 2300,
      "dynam": 2301,
      "tradition": 2302,
      "associated": 2303,
      "logies": 2304,
      "archive": 2305,
      "private": 2306,
      "bug": 2307,
      "reading": 2308,
      "debate": 2309,
      "policies": 2310,
      "population": 2311,
      "meaning": 2312,
      "thanks": 2313,
      "student": 2314,
      "bed": 2315,
      "fal": 2316,
      "lon": 2317,
      "phone": 2318,
      "eval": 2319,
      "practice": 2320,
      "fri": 2321,
      "resources": 2322,
      "town": 2323,
      "nav": 2324,
      "bert": 2325,
      "ners": 2326,
      "ht": 2327,
      "sufficient": 2328,
      "nu": 2329,
      "wel": 2330,
      "ange": 2331,
      "demo": 2332,
      "approxim": 2333,
      "getting": 2334,
      "located": 2335,
      "verse": 2336,
      "strateg": 2337,
      "confir": 2338,
      "measure": 2339,
      "sian": 2340,
      "round": 2341,
      "secre": 2342,
      "region": 2343,
      "cause": 2344,
      "sourced": 2345,
      "typically": 2346,
      "oud": 2347,
      "computers": 2348,
      "china": 2349,
      "foundation": 2350,
      "calcul": 2351,
      "examples": 2352,
      "install": 2353,
      "military": 2354,
      "industry": 2355,
      "demonstr": 2356,
      "production": 2357,
      "completely": 2358,
      "draft": 2359,
      "ney": 2360,
      "ns": 2361,
      "theore": 2362,
      "physical": 2363,
      "aver": 2364,
      "mod": 2365,
      "pi": 2366,
      "road": 2367,
      "closed": 2368,
      "asked": 2369,
      "job": 2370,
      "room": 2371,
      "prec": 2372,
      "assign": 2373,
      "deli": 2374,
      "atively": 2375,
      "live": 2376,
      "lists": 2377,
      "networks": 2378,
      "map": 2379,
      "soph": 2380,
      "standards": 2381,
      "geo": 2382,
      "contains": 2383,
      "hib": 2384,
      "constit": 2385,
      "chall": 2386,
      "products": 2387,
      "recomm": 2388,
      "devices": 2389,
      "continue": 2390,
      "ica": 2391,
      "wo": 2392,
      "late": 2393,
      "running": 2394,
      "rfc": 2395,
      "responsi": 2396,
      "enced": 2397,
      "conference": 2398,
      "taking": 2399,
      "gene": 2400,
      "cou": 2401,
      "accus": 2402,
      "ny": 2403,
      "wro": 2404,
      "fixed": 2405,
      "email": 2406,
      "nia": 2407,
      "aff": 2408,
      "serious": 2409,
      "ba": 2410,
      "pp": 2411,
      "nov": 2412,
      "committee": 2413,
      "instance": 2414,
      "ata": 2415,
      "ko": 2416,
      "star": 2417,
      "acts": 2418,
      "leave": 2419,
      "thre": 2420,
      "cali": 2421,
      "views": 2422,
      "communication": 2423,
      "radio": 2424,
      "pict": 2425,
      "ension": 2426,
      "thread": 2427,
      "concl": 2428,
      "except": 2429,
      "trust": 2430,
      "sex": 2431,
      "pretty": 2432,
      "diff": 2433,
      "stu": 2434,
      "versions": 2435,
      "dav": 2436,
      "tree": 2437,
      "wrote": 2438,
      "certainly": 2439,
      "nomin": 2440,
      "ape": 2441,
      "2022": 2442,
      "target": 2443,
      "elements": 2444,
      "sun": 2445,
      "linked": 2446,
      "bc": 2447,
      "risk": 2448,
      "training": 2449,
      "desp": 2450,
      "dispute": 2451,
      "core": 2452,
      "minor": 2453,
      "went": 2454,
      "criteria": 2455,
      "exactly": 2456,
      "extre": 2457,
      "descrip": 2458,
      "feed": 2459,
      "psy": 2460,
      "regarding": 2461,
      "pal": 2462,
      "emer": 2463,
      "channel": 2464,
      "cross": 2465,
      "ports": 2466,
      "wes": 2467,
      "requires": 2468,
      "obtain": 2469,
      "leading": 2470,
      "draw": 2471,
      "ulty": 2472,
      "break": 2473,
      "identify": 2474,
      "despite": 2475,
      "ese": 2476,
      "station": 2477,
      "specifically": 2478,
      "initial": 2479,
      "attribut": 2480,
      "bat": 2481,
      "ama": 2482,
      "interface": 2483,
      "hind": 2484,
      "warning": 2485,
      "cand": 2486,
      "organiz": 2487,
      "sciences": 2488,
      "easily": 2489,
      "pair": 2490,
      "cies": 2491,
      "increase": 2492,
      "ifi": 2493,
      "tried": 2494,
      "hardware": 2495,
      "exter": 2496,
      "rid": 2497,
      "clar": 2498,
      "inese": 2499,
      "assum": 2500,
      "earth": 2501,
      "male": 2502,
      "gain": 2503,
      "east": 2504,
      "understanding": 2505,
      "faith": 2506,
      "previously": 2507,
      "mathematics": 2508,
      "acc": 2509,
      "sor": 2510,
      "produced": 2511,
      "pack": 2512,
      "2004": 2513,
      "chinese": 2514,
      "ission": 2515,
      "pc": 2516,
      "fault": 2517,
      "output": 2518,
      "entially": 2519,
      "paign": 2520,
      "tu": 2521,
      "interested": 2522,
      "ques": 2523,
      "custom": 2524,
      "easy": 2525,
      "ani": 2526,
      "weight": 2527,
      "upload": 2528,
      "german": 2529,
      "fine": 2530,
      "continued": 2531,
      "looks": 2532,
      "nature": 2533,
      "thern": 2534,
      "definition": 2535,
      "federal": 2536,
      "parts": 2537,
      "reasons": 2538,
      "spect": 2539,
      "objects": 2540,
      "consum": 2541,
      "concerns": 2542,
      "recently": 2543,
      "commercial": 2544,
      "}.": 2545,
      "fav": 2546,
      "relationship": 2547,
      "bey": 2548,
      "situation": 2549,
      "virtual": 2550,
      "gar": 2551,
      "istry": 2552,
      "definite": 2553,
      "founded": 2554,
      "ids": 2555,
      "bring": 2556,
      "whose": 2557,
      "attacks": 2558,
      "vote": 2559,
      "tical": 2560,
      "scr": 2561,
      "ays": 2562,
      "characters": 2563,
      "assess": 2564,
      "police": 2565,
      "zero": 2566,
      "ili": 2567,
      "surve": 2568,
      "pointed": 2569,
      "maxim": 2570,
      "ake": 2571,
      "external": 2572,
      "graphic": 2573,
      "ux": 2574,
      "quo": 2575,
      "templates": 2576,
      "cyber": 2577,
      "anned": 2578,
      "signal": 2579,
      "immedi": 2580,
      "takes": 2581,
      "manu": 2582,
      "vandalism": 2583,
      "linear": 2584,
      "ume": 2585,
      "distribution": 2586,
      "tric": 2587,
      "relig": 2588,
      "campaign": 2589,
      "mone": 2590,
      "hours": 2591,
      "64": 2592,
      "expert": 2593,
      "qual": 2594,
      "tempor": 2595,
      "secondary": 2596,
      "tv": 2597,
      "status": 2598,
      "device": 2599,
      "blp": 2600,
      "counter": 2601,
      "hom": 2602,
      "bir": 2603,
      "largest": 2604,
      "connect": 2605,
      "plicit": 2606,
      "correspon": 2607,
      "controver": 2608,
      "front": 2609,
      "mi": 2610,
      "highly": 2611,
      "ster": 2612,
      "county": 2613,
      "master": 2614,
      "califor": 2615,
      "mitted": 2616,
      "magaz": 2617,
      "difference": 2618,
      "iving": 2619,
      "finan": 2620,
      "logic": 2621,
      "proposal": 2622,
      "click": 2623,
      "scale": 2624,
      "effects": 2625,
      "forms": 2626,
      "compar": 2627,
      "rench": 2628,
      "pto": 2629,
      "republic": 2630,
      "proced": 2631,
      "unit": 2632,
      "secret": 2633,
      "arts": 2634,
      "isl": 2635,
      "everyone": 2636,
      "excl": 2637,
      "council": 2638,
      "desk": 2639,
      "alle": 2640,
      "tes": 2641,
      "attempt": 2642,
      "intended": 2643,
      "attention": 2644,
      "flo": 2645,
      "limit": 2646,
      "newsp": 2647,
      "trump": 2648,
      "earlier": 2649,
      "sock": 2650,
      "ously": 2651,
      "otes": 2652,
      "records": 2653,
      "compe": 2654,
      "newspap": 2655,
      "quar": 2656,
      "sand": 2657,
      "produce": 2658,
      "rely": 2659,
      "medic": 2660,
      "california": 2661,
      "mut": 2662,
      "larger": 2663,
      "entry": 2664,
      "ior": 2665,
      "impact": 2666,
      "false": 2667,
      "meet": 2668,
      "india": 2669,
      "advis": 2670,
      "task": 2671,
      "pread": 2672,
      "union": 2673,
      "blog": 2674,
      "apparent": 2675,
      "193": 2676,
      "discussions": 2677,
      "jav": 2678,
      "candid": 2679,
      "graduate": 2680,
      "marke": 2681,
      "topics": 2682,
      "election": 2683,
      "trade": 2684,
      "utes": 2685,
      "spir": 2686,
      "instruct": 2687,
      "onom": 2688,
      "details": 2689,
      "sec": 2690,
      "inclusion": 2691,
      "2003": 2692,
      "extreme": 2693,
      "russian": 2694,
      "bt": 2695,
      "blue": 2696,
      "ado": 2697,
      "scholar": 2698,
      "stub": 2699,
      "thumb": 2700,
      "onto": 2701,
      "sold": 2702,
      "speak": 2703,
      "activity": 2704,
      "chur": 2705,
      "pac": 2706,
      "ibm": 2707,
      "protocol": 2708,
      "accep": 2709,
      "ibe": 2710,
      "achie": 2711,
      "wall": 2712,
      "princ": 2713,
      "green": 2714,
      "processes": 2715,
      "ception": 2716,
      "implementation": 2717,
      "volume": 2718,
      "majority": 2719,
      "french": 2720,
      "prefer": 2721,
      "professional": 2722,
      "readers": 2723,
      "wouldn": 2724,
      "economic": 2725,
      "admins": 2726,
      "campus": 2727,
      "ye": 2728,
      "america": 2729,
      "capital": 2730,
      "blo": 2731,
      "western": 2732,
      "thesis": 2733,
      "matr": 2734,
      "aware": 2735,
      "dle": 2736,
      "leav": 2737,
      "levels": 2738,
      "manufact": 2739,
      "expected": 2740,
      "reflect": 2741,
      "everything": 2742,
      "tt": 2743,
      "brain": 2744,
      "brow": 2745,
      "amp": 2746,
      "protect": 2747,
      "apply": 2748,
      "bran": 2749,
      "fit": 2750,
      "ana": 2751,
      "reports": 2752,
      "clean": 2753,
      "ague": 2754,
      "effort": 2755,
      "resolution": 2756,
      "ression": 2757,
      "chief": 2758,
      "soon": 2759,
      "positive": 2760,
      "aking": 2761,
      "spr": 2762,
      "anyway": 2763,
      "techniques": 2764,
      "atives": 2765,
      "architecture": 2766,
      "stree": 2767,
      "wers": 2768,
      "rain": 2769,
      "icted": 2770,
      "commission": 2771,
      "arbit": 2772,
      "average": 2773,
      "advert": 2774,
      "inal": 2775,
      "fast": 2776,
      "towards": 2777,
      "followed": 2778,
      "conflict": 2779,
      "accounts": 2780,
      "transfer": 2781,
      "chair": 2782,
      "edited": 2783,
      "beyond": 2784,
      "ibility": 2785,
      "lands": 2786,
      "70": 2787,
      "guess": 2788,
      "setting": 2789,
      "indian": 2790,
      "advant": 2791,
      "bility": 2792,
      "presented": 2793,
      "individuals": 2794,
      "contact": 2795,
      "mist": 2796,
      "poor": 2797,
      "suggested": 2798,
      "born": 2799,
      "fields": 2800,
      "phil": 2801,
      "abilities": 2802,
      "bac": 2803,
      "factor": 2804,
      "electronic": 2805,
      "fellow": 2806,
      "initi": 2807,
      "communications": 2808,
      "drop": 2809,
      "dated": 2810,
      "exists": 2811,
      "foreign": 2812,
      "technologies": 2813,
      "convent": 2814,
      "transform": 2815,
      "igr": 2816,
      "efficient": 2817,
      "increasing": 2818,
      "artific": 2819,
      "widely": 2820,
      "staff": 2821,
      "posted": 2822,
      "forward": 2823,
      "mostly": 2824,
      "mur": 2825,
      "cite": 2826,
      "scen": 2827,
      "dna": 2828,
      "infr": 2829,
      "originally": 2830,
      "pd": 2831,
      "sess": 2832,
      "circ": 2833,
      "fered": 2834,
      "bon": 2835,
      "finite": 2836,
      "dise": 2837,
      "ips": 2838,
      "complain": 2839,
      "count": 2840,
      "philo": 2841,
      "alb": 2842,
      "32": 2843,
      "lled": 2844,
      "compared": 2845,
      "discussed": 2846,
      "asking": 2847,
      "90": 2848,
      "constant": 2849,
      "london": 2850,
      "mathematical": 2851,
      "starting": 2852,
      "pain": 2853,
      "2001": 2854,
      "encies": 2855,
      "season": 2856,
      "ino": 2857,
      "players": 2858,
      "schools": 2859,
      "encour": 2860,
      "eventually": 2861,
      "3d": 2862,
      "cloud": 2863,
      "places": 2864,
      "gives": 2865,
      "figure": 2866,
      "build": 2867,
      "allowing": 2868,
      "alone": 2869,
      "providing": 2870,
      "critical": 2871,
      "autom": 2872,
      "aut": 2873,
      "arbitr": 2874,
      "gas": 2875,
      "coding": 2876,
      "ked": 2877,
      "wanted": 2878,
      "symbol": 2879,
      "element": 2880,
      "variety": 2881,
      "connected": 2882,
      "advanced": 2883,
      "thous": 2884,
      "financial": 2885,
      "iso": 2886,
      "unique": 2887,
      "square": 2888,
      "researchers": 2889,
      "aspect": 2890,
      "py": 2891,
      "arguments": 2892,
      "arm": 2893,
      "automatically": 2894,
      "drug": 2895,
      "fu": 2896,
      "reverted": 2897,
      "democr": 2898,
      "wood": 2899,
      "summary": 2900,
      "nas": 2901,
      "culture": 2902,
      "citation": 2903,
      "noted": 2904,
      "division": 2905,
      "stuff": 2906,
      "determ": 2907,
      "finding": 2908,
      "thin": 2909,
      "neutral": 2910,
      "perfect": 2911,
      "determine": 2912,
      "interpret": 2913,
      "clin": 2914,
      "coi": 2915,
      "storage": 2916,
      "muse": 2917,
      "proof": 2918,
      "repeated": 2919,
      "imate": 2920,
      "loss": 2921,
      "thousand": 2922,
      "graphics": 2923,
      "experiment": 2924,
      "goes": 2925,
      "quantum": 2926,
      "construction": 2927,
      "artificial": 2928,
      "lex": 2929,
      "dest": 2930,
      "testing": 2931,
      "bes": 2932,
      "linux": 2933,
      "preci": 2934,
      "increased": 2935,
      "negative": 2936,
      "hic": 2937,
      "accurate": 2938,
      "bridge": 2939,
      "isra": 2940,
      "ried": 2941,
      "money": 2942,
      "greater": 2943,
      "phas": 2944,
      "middle": 2945,
      "poses": 2946,
      "bank": 2947,
      "reviewed": 2948,
      "equival": 2949,
      "historical": 2950,
      "rout": 2951,
      "rac": 2952,
      "canada": 2953,
      "attle": 2954,
      "alleg": 2955,
      "physics": 2956,
      "craft": 2957,
      "motion": 2958,
      "living": 2959,
      "philosoph": 2960,
      "conv": 2961,
      "satis": 2962,
      "conditions": 2963,
      "grant": 2964,
      "distin": 2965,
      "rap": 2966,
      "wikim": 2967,
      "diag": 2968,
      "apple": 2969,
      "myself": 2970,
      "cup": 2971,
      "libraries": 2972,
      "ries": 2973,
      "dead": 2974,
      "mas": 2975,
      "ky": 2976,
      "spl": 2977,
      "2002": 2978,
      "nic": 2979,
      "fill": 2980,
      "phen": 2981,
      "gi": 2982,
      "david": 2983,
      "mole": 2984,
      "computational": 2985,
      "adap": 2986,
      "alternative": 2987,
      "ov": 2988,
      "activities": 2989,
      "rou": 2990,
      "william": 2991,
      "formal": 2992,
      "plant": 2993,
      "ivity": 2994,
      "vehic": 2995,
      "organizations": 2996,
      "irection": 2997,
      "conduct": 2998,
      "learn": 2999,
      "england": 3000,
      "possibly": 3001,
      "commons": 3002,
      "property": 3003,
      "dates": 3004,
      "genet": 3005,
      "ises": 3006,
      "reve": 3007,
      "px": 3008,
      "lap": 3009,
      "compl": 3010,
      "ka": 3011,
      "traditional": 3012,
      "regul": 3013,
      "entirely": 3014,
      "resto": 3015,
      "cd": 3016,
      "conver": 3017,
      "hall": 3018,
      "documents": 3019,
      "reasonable": 3020,
      "whate": 3021,
      "moun": 3022,
      "ios": 3023,
      "whatever": 3024,
      "percent": 3025,
      "washing": 3026,
      "edge": 3027,
      "ultim": 3028,
      "mix": 3029,
      "implemented": 3030,
      "agreement": 3031,
      "antic": 3032,
      "goal": 3033,
      "album": 3034,
      "cert": 3035,
      "surface": 3036,
      "museum": 3037,
      "protein": 3038,
      "paid": 3039,
      "chron": 3040,
      "replace": 3041,
      "archived": 3042,
      "magazine": 3043,
      "meeting": 3044,
      "switch": 3045,
      "lost": 3046,
      "nation": 3047,
      "proceed": 3048,
      "behind": 3049,
      "haven": 3050,
      "saw": 3051,
      "shouldn": 3052,
      "offer": 3053,
      "identified": 3054,
      "camer": 3055,
      "night": 3056,
      "igno": 3057,
      "shop": 3058,
      "church": 3059,
      "compet": 3060,
      "cro": 3061,
      "umn": 3062,
      "ients": 3063,
      "appreci": 3064,
      "assume": 3065,
      "license": 3066,
      "35": 3067,
      "food": 3068,
      "equip": 3069,
      "traf": 3070,
      "tas": 3071,
      "explicit": 3072,
      "default": 3073,
      "contribution": 3074,
      "drive": 3075,
      "graphs": 3076,
      "cru": 3077,
      "gal": 3078,
      "hack": 3079,
      "mp": 3080,
      "paralle": 3081,
      "condition": 3082,
      "tend": 3083,
      "street": 3084,
      "sentence": 3085,
      "miss": 3086,
      "demand": 3087,
      "intel": 3088,
      "99": 3089,
      "evolution": 3090,
      "featured": 3091,
      "obviously": 3092,
      "sn": 3093,
      "acting": 3094,
      "connection": 3095,
      "strain": 3096,
      "mom": 3097,
      "zz": 3098,
      "requirements": 3099,
      "generation": 3100,
      "31": 3101,
      "gold": 3102,
      "span": 3103,
      "dered": 3104,
      "edition": 3105,
      "generated": 3106,
      "easier": 3107,
      "tour": 3108,
      "sole": 3109,
      "chemical": 3110,
      "doctor": 3111,
      "throughout": 3112,
      "deep": 3113,
      "notes": 3114,
      "numerous": 3115,
      "bits": 3116,
      "indeed": 3117,
      "distributed": 3118,
      "orient": 3119,
      "billion": 3120,
      "die": 3121,
      "wikiproject": 3122,
      "threat": 3123,
      "believ": 3124,
      "marked": 3125,
      "referred": 3126,
      "traffic": 3127,
      "authors": 3128,
      "reduce": 3129,
      "decided": 3130,
      "quickly": 3131,
      "slow": 3132,
      "imm": 3133,
      "hund": 3134,
      "internal": 3135,
      "pul": 3136,
      "publication": 3137,
      "helpful": 3138,
      "sav": 3139,
      "citations": 3140,
      "weak": 3141,
      "tro": 3142,
      "ideas": 3143,
      "capt": 3144,
      "assem": 3145,
      "acted": 3146,
      "hundred": 3147,
      "moving": 3148,
      "beginning": 3149,
      "giving": 3150,
      "revert": 3151,
      "administration": 3152,
      "australia": 3153,
      "peer": 3154,
      "mes": 3155,
      "acceptable": 3156,
      "changing": 3157,
      "len": 3158,
      "smaller": 3159,
      "config": 3160,
      "statements": 3161,
      "items": 3162,
      "kept": 3163,
      "opened": 3164,
      "store": 3165,
      "brought": 3166,
      "dimens": 3167,
      "berg": 3168,
      "inser": 3169,
      "commonly": 3170,
      "achieve": 3171,
      "cells": 3172,
      "gave": 3173,
      "500": 3174,
      "partners": 3175,
      "hi": 3176,
      "update": 3177,
      "scientist": 3178,
      "washington": 3179,
      "letter": 3180,
      "fortun": 3181,
      "mir": 3182,
      "chance": 3183,
      "html": 3184,
      "citiz": 3185,
      "mot": 3186,
      "played": 3187,
      "hood": 3188,
      "ico": 3189,
      "himself": 3190,
      "scan": 3191,
      "errors": 3192,
      "express": 3193,
      "iter": 3194,
      "facts": 3195,
      "choice": 3196,
      "blocks": 3197,
      "friend": 3198,
      "caused": 3199,
      "cide": 3200,
      "ician": 3201,
      "evalu": 3202,
      "raised": 3203,
      "sequences": 3204,
      "appeared": 3205,
      "faculty": 3206,
      "supports": 3207,
      "gin": 3208,
      "imag": 3209,
      "organis": 3210,
      "distance": 3211,
      "pace": 3212,
      "vector": 3213,
      "removing": 3214,
      "launched": 3215,
      "privacy": 3216,
      "forts": 3217,
      "protected": 3218,
      "regis": 3219,
      "hit": 3220,
      "journals": 3221,
      "sia": 3222,
      "meant": 3223,
      "bud": 3224,
      "rational": 3225,
      "spo": 3226,
      "iss": 3227,
      "brand": 3228,
      "young": 3229,
      "matrix": 3230,
      "overall": 3231,
      "james": 3232,
      "rock": 3233,
      "greg": 3234,
      "forum": 3235,
      "wikimedia": 3236,
      "paren": 3237,
      "suspect": 3238,
      "1999": 3239,
      "coordin": 3240,
      "forces": 3241,
      "explan": 3242,
      "solutions": 3243,
      "ech": 3244,
      "transport": 3245,
      "latter": 3246,
      "papers": 3247,
      "television": 3248,
      "christian": 3249,
      "claimed": 3250,
      "direction": 3251,
      "formed": 3252,
      "materials": 3253,
      "told": 3254,
      "efforts": 3255,
      "ager": 3256,
      "rare": 3257,
      "han": 3258,
      "pup": 3259,
      "compat": 3260,
      "accepted": 3261,
      "49": 3262,
      "dro": 3263,
      "trial": 3264,
      "sche": 3265,
      "completed": 3266,
      "finally": 3267,
      "district": 3268,
      "effective": 3269,
      "skill": 3270,
      "messages": 3271,
      "olog": 3272,
      "properties": 3273,
      "movement": 3274,
      "ican": 3275,
      "park": 3276,
      "requests": 3277,
      "sections": 3278,
      "army": 3279,
      "iced": 3280,
      "immediately": 3281,
      "performed": 3282,
      "lection": 3283,
      "ambig": 3284,
      "gg": 3285,
      "willing": 3286,
      "flag": 3287,
      "ictions": 3288,
      "improved": 3289,
      "units": 3290,
      "rot": 3291,
      "ali": 3292,
      "background": 3293,
      "components": 3294,
      "extended": 3295,
      "serve": 3296,
      "nearly": 3297,
      "wasn": 3298,
      "smart": 3299,
      "absol": 3300,
      "viet": 3301,
      "description": 3302,
      "formul": 3303,
      "vic": 3304,
      "detect": 3305,
      "leaders": 3306,
      "hous": 3307,
      "publications": 3308,
      "verifi": 3309,
      "fox": 3310,
      "purch": 3311,
      "browser": 3312,
      "hun": 3313,
      "vill": 3314,
      "ades": 3315,
      "string": 3316,
      "adop": 3317,
      "hen": 3318,
      "disruptive": 3319,
      "psycho": 3320,
      "simpl": 3321,
      "asser": 3322,
      "download": 3323,
      "aught": 3324,
      "club": 3325,
      "hop": 3326,
      "ingu": 3327,
      "nd": 3328,
      "thom": 3329,
      "aid": 3330,
      "chap": 3331,
      "recommend": 3332,
      "button": 3333,
      "machines": 3334,
      "classes": 3335,
      "isions": 3336,
      "processor": 3337,
      "successful": 3338,
      "fish": 3339,
      "academy": 3340,
      "replaced": 3341,
      "filter": 3342,
      "belong": 3343,
      "structures": 3344,
      "summar": 3345,
      "challeng": 3346,
      "mr": 3347,
      "piece": 3348,
      "remember": 3349,
      "incorpor": 3350,
      "seven": 3351,
      "gam": 3352,
      "responsible": 3353,
      "variables": 3354,
      "extr": 3355,
      "equal": 3356,
      "suitable": 3357,
      "firm": 3358,
      "45": 3359,
      "cis": 3360,
      "usage": 3361,
      "absolute": 3362,
      "parallel": 3363,
      "missing": 3364,
      "variable": 3365,
      "instructions": 3366,
      "86": 3367,
      "invent": 3368,
      "initially": 3369,
      "bots": 3370,
      "observ": 3371,
      "innov": 3372,
      "behaviour": 3373,
      "gro": 3374,
      "becomes": 3375,
      "couple": 3376,
      "rat": 3377,
      "wikiped": 3378,
      "iven": 3379,
      "progress": 3380,
      "ache": 3381,
      "chain": 3382,
      "agency": 3383,
      "hab": 3384,
      "substant": 3385,
      "norm": 3386,
      "acquired": 3387,
      "growth": 3388,
      "robot": 3389,
      "treatment": 3390,
      "literature": 3391,
      "surv": 3392,
      "centre": 3393,
      "doubt": 3394,
      "resulting": 3395,
      "probability": 3396,
      "died": 3397,
      "capac": 3398,
      "cc": 3399,
      "ered": 3400,
      "orge": 3401,
      "exchange": 3402,
      "identity": 3403,
      "iver": 3404,
      "reader": 3405,
      "ald": 3406,
      "bias": 3407,
      "wonder": 3408,
      "licens": 3409,
      "offers": 3410,
      "offered": 3411,
      "frequency": 3412,
      "clust": 3413,
      "medicine": 3414,
      "happened": 3415,
      "1998": 3416,
      "joint": 3417,
      "sha": 3418,
      "battle": 3419,
      "shared": 3420,
      "sell": 3421,
      "shif": 3422,
      "feedback": 3423,
      "190": 3424,
      "joined": 3425,
      "phase": 3426,
      "supposed": 3427,
      "apping": 3428,
      "avi": 3429,
      "statist": 3430,
      "ental": 3431,
      "passed": 3432,
      "represented": 3433,
      "nes": 3434,
      "{{": 3435,
      "developing": 3436,
      "spread": 3437,
      "complexity": 3438,
      "george": 3439,
      "apparently": 3440,
      "prime": 3441,
      "father": 3442,
      "inside": 3443,
      "resource": 3444,
      "translation": 3445,
      "audio": 3446,
      "molec": 3447,
      "electric": 3448,
      "developers": 3449,
      "wid": 3450,
      "equivalent": 3451,
      "atom": 3452,
      "statistics": 3453,
      "remains": 3454,
      "mad": 3455,
      "circu": 3456,
      "jewish": 3457,
      "phy": 3458,
      "ya": 3459,
      "covery": 3460,
      "judge": 3461,
      "updated": 3462,
      "grand": 3463,
      "selected": 3464,
      "royal": 3465,
      "izes": 3466,
      "node": 3467,
      "tests": 3468,
      "focused": 3469,
      "itude": 3470,
      "uration": 3471,
      "cultural": 3472,
      "weeks": 3473,
      "ime": 3474,
      "stra": 3475,
      "plus": 3476,
      "guideline": 3477,
      "neither": 3478,
      "opport": 3479,
      "stay": 3480,
      "opportun": 3481,
      "talking": 3482,
      "script": 3483,
      "administrator": 3484,
      "parameters": 3485,
      "factors": 3486,
      "ank": 3487,
      "ston": 3488,
      "signed": 3489,
      "purposes": 3490,
      "dynamic": 3491,
      "controversi": 3492,
      "advantage": 3493,
      "sched": 3494,
      "primarily": 3495,
      "websites": 3496,
      "maximum": 3497,
      "infobox": 3498,
      "picture": 3499,
      "choose": 3500,
      "astic": 3501,
      "lined": 3502,
      "extra": 3503,
      "preser": 3504,
      "faces": 3505,
      "recognition": 3506,
      "phr": 3507,
      "authority": 3508,
      "yourself": 3509,
      "opinions": 3510,
      "arb": 3511,
      "benefit": 3512,
      "russia": 3513,
      "stage": 3514,
      "oring": 3515,
      "interesting": 3516,
      "diction": 3517,
      "laws": 3518,
      "framework": 3519,
      "advice": 3520,
      "fan": 3521,
      "mother": 3522,
      "36": 3523,
      "arab": 3524,
      "fight": 3525,
      "ensure": 3526,
      "reviews": 3527,
      "minister": 3528,
      "distingu": 3529,
      "thinking": 3530,
      "daily": 3531,
      "bell": 3532,
      "fs": 3533,
      "definitely": 3534,
      "agr": 3535,
      "credit": 3536,
      "cycle": 3537,
      "integrated": 3538,
      "):": 3539,
      "pse": 3540,
      "75": 3541,
      "simul": 3542,
      "controversial": 3543,
      "fd": 3544,
      "native": 3545,
      "consul": 3546,
      "brief": 3547,
      "gun": 3548,
      "sports": 3549,
      "japanese": 3550,
      "happy": 3551,
      "birth": 3552,
      "relatively": 3553,
      "ying": 3554,
      "1996": 3555,
      "expression": 3556,
      "branch": 3557,
      "tou": 3558,
      "save": 3559,
      "hael": 3560,
      "travel": 3561,
      "oh": 3562,
      "lie": 3563,
      "ees": 3564,
      "graphical": 3565,
      "defense": 3566,
      "unknown": 3567,
      "reveal": 3568,
      "prise": 3569,
      "polynom": 3570,
      "genes": 3571,
      "volun": 3572,
      "looked": 3573,
      "describe": 3574,
      "satisf": 3575,
      "scientists": 3576,
      "sky": 3577,
      "involve": 3578,
      "temporary": 3579,
      "pas": 3580,
      "technique": 3581,
      "audi": 3582,
      "onym": 3583,
      "determined": 3584,
      "annual": 3585,
      "mart": 3586,
      "concerned": 3587,
      "pun": 3588,
      "god": 3589,
      "gment": 3590,
      "temper": 3591,
      "double": 3592,
      "hosp": 3593,
      "violation": 3594,
      "importance": 3595,
      "personally": 3596,
      "portion": 3597,
      "los": 3598,
      "disk": 3599,
      "cipl": 3600,
      "hypo": 3601,
      "pick": 3602,
      "moment": 3603,
      "las": 3604,
      "gue": 3605,
      "depth": 3606,
      "minimum": 3607,
      "love": 3608,
      "kore": 3609,
      "}}": 3610,
      "advoc": 3611,
      "exec": 3612,
      "conserv": 3613,
      "hence": 3614,
      "ida": 3615,
      "hill": 3616,
      "showing": 3617,
      "math": 3618,
      "dos": 3619,
      "executive": 3620,
      "polynomial": 3621,
      "register": 3622,
      "contribute": 3623,
      "48": 3624,
      "ray": 3625,
      "usual": 3626,
      "bra": 3627,
      "decre": 3628,
      "enforce": 3629,
      "price": 3630,
      "gs": 3631,
      "effic": 3632,
      "stored": 3633,
      "river": 3634,
      "alp": 3635,
      "agreed": 3636,
      "warring": 3637,
      "neigh": 3638,
      "advance": 3639,
      "bay": 3640,
      "dut": 3641,
      "1997": 3642,
      "paul": 3643,
      "idents": 3644,
      "bottom": 3645,
      "awards": 3646,
      "java": 3647,
      "receive": 3648,
      "approximately": 3649,
      "rd": 3650,
      "happens": 3651,
      "plane": 3652,
      "career": 3653,
      "football": 3654,
      "michael": 3655,
      "icated": 3656,
      "teen": 3657,
      "spring": 3658,
      "accessed": 3659,
      "enab": 3660,
      "presents": 3661,
      "depending": 3662,
      "congress": 3663,
      "banned": 3664,
      "lots": 3665,
      "chos": 3666,
      "favor": 3667,
      "terror": 3668,
      "catal": 3669,
      "contrast": 3670,
      "germany": 3671,
      "ivers": 3672,
      "speech": 3673,
      "promotion": 3674,
      "scope": 3675,
      "thousands": 3676,
      "novel": 3677,
      "positions": 3678,
      "spam": 3679,
      "hyper": 3680,
      "servers": 3681,
      "liber": 3682,
      "semi": 3683,
      "jack": 3684,
      "redirects": 3685,
      "triv": 3686,
      "frequently": 3687,
      "33": 3688,
      "icts": 3689,
      "ites": 3690,
      "slight": 3691,
      "constrain": 3692,
      "prin": 3693,
      "extremely": 3694,
      "standing": 3695,
      "discre": 3696,
      "split": 3697,
      "properly": 3698,
      "itory": 3699,
      "vid": 3700,
      "subjects": 3701,
      "failed": 3702,
      "entries": 3703,
      "ferences": 3704,
      "volunte": 3705,
      "facebook": 3706,
      "fundam": 3707,
      "cript": 3708,
      "merge": 3709,
      "funding": 3710,
      "wants": 3711,
      "crypto": 3712,
      "parties": 3713,
      "necessarily": 3714,
      "frank": 3715,
      "iliar": 3716,
      "correctly": 3717,
      "eli": 3718,
      "calls": 3719,
      "experienced": 3720,
      "publishing": 3721,
      "requested": 3722,
      "suggestions": 3723,
      "safety": 3724,
      "combined": 3725,
      "decl": 3726,
      "australian": 3727,
      "interaction": 3728,
      "ifying": 3729,
      "boo": 3730,
      "lor": 3731,
      "strategy": 3732,
      "anth": 3733,
      "disagree": 3734,
      "confirmed": 3735,
      "statistical": 3736,
      "newspaper": 3737,
      "disease": 3738,
      "biology": 3739,
      "dra": 3740,
      "custo": 3741,
      "instruction": 3742,
      "label": 3743,
      "highest": 3744,
      "removal": 3745,
      "existence": 3746,
      "ki": 3747,
      "reject": 3748,
      "hospital": 3749,
      "humans": 3750,
      "awarded": 3751,
      "expanded": 3752,
      "tab": 3753,
      "representation": 3754,
      "interpre": 3755,
      "familiar": 3756,
      "iring": 3757,
      "universities": 3758,
      "spac": 3759,
      "bid": 3760,
      "encry": 3761,
      "matic": 3762,
      "ieee": 3763,
      "1995": 3764,
      "reached": 3765,
      "zy": 3766,
      "circum": 3767,
      "france": 3768,
      "occas": 3769,
      "editorial": 3770,
      "iel": 3771,
      "shot": 3772,
      "send": 3773,
      "films": 3774,
      "reser": 3775,
      "rapid": 3776,
      "robert": 3777,
      "crime": 3778,
      "equipment": 3779,
      "reput": 3780,
      "genetic": 3781,
      "stock": 3782,
      "keeping": 3783,
      "enh": 3784,
      "israel": 3785,
      "incident": 3786,
      "preced": 3787,
      "generate": 3788,
      "voice": 3789,
      "abstr": 3790,
      "unlike": 3791,
      "eight": 3792,
      "prop": 3793,
      "regardless": 3794,
      "gir": 3795,
      "client": 3796,
      "ille": 3797,
      "practical": 3798,
      "amed": 3799,
      "rail": 3800,
      "minutes": 3801,
      "dial": 3802,
      "attempts": 3803,
      "sourcing": 3804,
      "nar": 3805,
      "carry": 3806,
      "industrial": 3807,
      "manner": 3808,
      "instru": 3809,
      "elim": 3810,
      "tasks": 3811,
      "investigation": 3812,
      "perspect": 3813,
      "unfortun": 3814,
      "guard": 3815,
      "orders": 3816,
      "iation": 3817,
      "cip": 3818,
      "occup": 3819,
      "reporting": 3820,
      "consistent": 3821,
      "seeing": 3822,
      "stan": 3823,
      "appointed": 3824,
      "supporting": 3825,
      "institutions": 3826,
      "alex": 3827,
      "util": 3828,
      "vice": 3829,
      "jer": 3830,
      "relations": 3831,
      "fairly": 3832,
      "influence": 3833,
      "mos": 3834,
      "infras": 3835,
      "parameter": 3836,
      "hid": 3837,
      "ukrain": 3838,
      "uro": 3839,
      "exception": 3840,
      "helps": 3841,
      "roman": 3842,
      "cape": 3843,
      "older": 3844,
      "showed": 3845,
      "discipl": 3846,
      "decide": 3847,
      "wave": 3848,
      "nodes": 3849,
      "island": 3850,
      "mental": 3851,
      "maps": 3852,
      "deploy": 3853,
      "enty": 3854,
      "tube": 3855,
      "sample": 3856,
      "additionally": 3857,
      "remote": 3858,
      "elected": 3859,
      "containing": 3860,
      "gate": 3861,
      "ological": 3862,
      "combination": 3863,
      "agraph": 3864,
      "geome": 3865,
      "za": 3866,
      "infrastru": 3867,
      "ti": 3868,
      "laboratory": 3869,
      "solve": 3870,
      "runs": 3871,
      "asy": 3872,
      "inge": 3873,
      "ctors": 3874,
      "pix": 3875,
      "options": 3876,
      "flor": 3877,
      "kernel": 3878,
      "gers": 3879,
      "oppos": 3880,
      "oppose": 3881,
      "kingdom": 3882,
      "electr": 3883,
      "obtained": 3884,
      "fiction": 3885,
      "revol": 3886,
      "canadian": 3887,
      "paragraph": 3888,
      "blood": 3889,
      "pressure": 3890,
      "array": 3891,
      "normally": 3892,
      "strongly": 3893,
      "directed": 3894,
      "respond": 3895,
      "explained": 3896,
      "reduced": 3897,
      "approved": 3898,
      "pure": 3899,
      "environmental": 3900,
      "secure": 3901,
      "neur": 3902,
      "functional": 3903,
      "calling": 3904,
      "db": 3905,
      "parent": 3906,
      "alpha": 3907,
      "binary": 3908,
      "rob": 3909,
      "prove": 3910,
      "recorded": 3911,
      "automated": 3912,
      "domin": 3913,
      "turned": 3914,
      "engage": 3915,
      "mainly": 3916,
      "expressed": 3917,
      "lies": 3918,
      "gng": 3919,
      "sales": 3920,
      "damage": 3921,
      "siz": 3922,
      "pg": 3923,
      "interview": 3924,
      "hed": 3925,
      "legisl": 3926,
      "tun": 3927,
      "pic": 3928,
      "champ": 3929,
      "northern": 3930,
      "uded": 3931,
      "dies": 3932,
      "basically": 3933,
      "chosen": 3934,
      "loop": 3935,
      "submit": 3936,
      "cycl": 3937,
      "nice": 3938,
      "opposed": 3939,
      "discovered": 3940,
      "extension": 3941,
      "tags": 3942,
      "accuracy": 3943,
      "95": 3944,
      "faster": 3945,
      "freed": 3946,
      "capacity": 3947,
      "1994": 3948,
      "fi": 3949,
      "zo": 3950,
      "institution": 3951,
      "survey": 3952,
      "predict": 3953,
      "stone": 3954,
      "explanation": 3955,
      "reliability": 3956,
      "ert": 3957,
      "architect": 3958,
      "compre": 3959,
      "forced": 3960,
      "significantly": 3961,
      "ql": 3962,
      "wait": 3963,
      "akes": 3964,
      "wm": 3965,
      "holds": 3966,
      "aspects": 3967,
      "planning": 3968,
      "mers": 3969,
      "65": 3970,
      "query": 3971,
      "corporation": 3972,
      "principle": 3973,
      "tel": 3974,
      "expans": 3975,
      "width": 3976,
      "similarly": 3977,
      "embed": 3978,
      "justice": 3979,
      "38": 3980,
      "aircraft": 3981,
      "divid": 3982,
      "cancer": 3983,
      "els": 3984,
      "brown": 3985,
      "leaving": 3986,
      "recording": 3987,
      "tables": 3988,
      "kar": 3989,
      "ifies": 3990,
      "odo": 3991,
      "jac": 3992,
      "smo": 3993,
      "stal": 3994,
      "legit": 3995,
      "wind": 3996,
      "centr": 3997,
      "dedicated": 3998,
      "league": 3999,
      "tics": 4000,
      "situ": 4001,
      "regions": 4002,
      "religious": 4003,
      "emphas": 4004,
      "hur": 4005,
      "visit": 4006,
      "illustr": 4007,
      "trou": 4008,
      "component": 4009,
      "truth": 4010,
      "race": 4011,
      "african": 4012,
      "ilit": 4013,
      "indicate": 4014,
      "sea": 4015,
      "cepts": 4016,
      "exhib": 4017,
      "selection": 4018,
      "jection": 4019,
      "eye": 4020,
      "astr": 4021,
      "charge": 4022,
      "broadcast": 4023,
      "participants": 4024,
      "checking": 4025,
      "infrastructure": 4026,
      "failure": 4027,
      "amaz": 4028,
      "interpretation": 4029,
      "computation": 4030,
      "victim": 4031,
      "stri": 4032,
      "registered": 4033,
      "detailed": 4034,
      "37": 4035,
      "url": 4036,
      "issued": 4037,
      "ano": 4038,
      "render": 4039,
      "welcome": 4040,
      "suggestion": 4041,
      "codes": 4042,
      "steps": 4043,
      "igation": 4044,
      "foun": 4045,
      "largely": 4046,
      "arian": 4047,
      "capable": 4048,
      "'.": 4049,
      "anonym": 4050,
      "harm": 4051,
      "consists": 4052,
      "introduction": 4053,
      "precise": 4054,
      "valu": 4055,
      "profit": 4056,
      "woman": 4057,
      "archives": 4058,
      "iang": 4059,
      "patterns": 4060,
      "corresponding": 4061,
      "44": 4062,
      "becoming": 4063,
      "ller": 4064,
      "measures": 4065,
      "icon": 4066,
      "wing": 4067,
      "intent": 4068,
      "texas": 4069,
      "cities": 4070,
      "fif": 4071,
      "regional": 4072,
      "categor": 4073,
      "arbcom": 4074,
      "route": 4075,
      "playing": 4076,
      "layer": 4077,
      "iet": 4078,
      "rum": 4079,
      "recognized": 4080,
      "distinct": 4081,
      "weap": 4082,
      "merely": 4083,
      "profile": 4084,
      "rul": 4085,
      "prize": 4086,
      "popul": 4087,
      "relative": 4088,
      "align": 4089,
      "candidate": 4090,
      "killed": 4091,
      "customers": 4092,
      "beat": 4093,
      "sey": 4094,
      "sorry": 4095,
      "smith": 4096,
      "worthy": 4097,
      "api": 4098,
      "theorem": 4099,
      "female": 4100,
      "senior": 4101,
      "concepts": 4102,
      "bom": 4103,
      "criticism": 4104,
      "manual": 4105,
      "presence": 4106,
      "promin": 4107,
      "mun": 4108,
      "vict": 4109,
      "era": 4110,
      "perman": 4111,
      "grade": 4112,
      "educational": 4113,
      "heart": 4114,
      "stain": 4115,
      "handle": 4116,
      "southern": 4117,
      "differences": 4118,
      "marketing": 4119,
      "sharing": 4120,
      "vul": 4121,
      "ensity": 4122,
      "(\"": 4123,
      "define": 4124,
      "ni": 4125,
      "wit": 4126,
      "stack": 4127,
      "iles": 4128,
      "sar": 4129,
      "plies": 4130,
      "subsequently": 4131,
      "posting": 4132,
      "suggests": 4133,
      "baseball": 4134,
      "artist": 4135,
      "reality": 4136,
      "ipal": 4137,
      "titles": 4138,
      "dimensional": 4139,
      "continues": 4140,
      "oxford": 4141,
      "communities": 4142,
      "checked": 4143,
      "sate": 4144,
      "returned": 4145,
      "writer": 4146,
      "experts": 4147,
      "upper": 4148,
      "rence": 4149,
      "compiler": 4150,
      "collaboration": 4151,
      "nations": 4152,
      "secretary": 4153,
      "enge": 4154,
      "border": 4155,
      "prison": 4156,
      "1993": 4157,
      "ships": 4158,
      "impossible": 4159,
      "prep": 4160,
      "compreh": 4161,
      "gone": 4162,
      "usive": 4163,
      "lee": 4164,
      "teaching": 4165,
      "addresses": 4166,
      "quote": 4167,
      "blocking": 4168,
      "potentially": 4169,
      "elsewhere": 4170,
      "wikid": 4171,
      "\")": 4172,
      "administrators": 4173,
      "lets": 4174,
      "analog": 4175,
      "letters": 4176,
      "huge": 4177,
      "locations": 4178,
      "roid": 4179,
      "chemistry": 4180,
      "itter": 4181,
      "considering": 4182,
      "typical": 4183,
      "electrical": 4184,
      "1992": 4185,
      "guy": 4186,
      "sounds": 4187,
      "highway": 4188,
      "detection": 4189,
      "furthermore": 4190,
      "essentially": 4191,
      "comparison": 4192,
      "pression": 4193,
      "citing": 4194,
      "destroy": 4195,
      "300": 4196,
      "ias": 4197,
      "stren": 4198,
      "whereas": 4199,
      "isms": 4200,
      "igen": 4201,
      "lingu": 4202,
      "founder": 4203,
      "straight": 4204,
      "marks": 4205,
      "lip": 4206,
      "shape": 4207,
      "leader": 4208,
      "harv": 4209,
      "costs": 4210,
      "assigned": 4211,
      "mechanism": 4212,
      "cp": 4213,
      "somewhat": 4214,
      "34": 4215,
      "platforms": 4216,
      "compression": 4217,
      "npov": 4218,
      "complic": 4219,
      "studied": 4220,
      "ciples": 4221,
      "nomination": 4222,
      "column": 4223,
      "va": 4224,
      "partial": 4225,
      "vs": 4226,
      "resist": 4227,
      "explicitly": 4228,
      "owners": 4229,
      "eastern": 4230,
      "manager": 4231,
      "scheme": 4232,
      "revis": 4233,
      "root": 4234,
      "alge": 4235,
      "spent": 4236,
      "hundreds": 4237,
      "edic": 4238,
      "virgin": 4239,
      "refers": 4240,
      "desktop": 4241,
      "55": 4242,
      "optimization": 4243,
      "agon": 4244,
      "flight": 4245,
      "ather": 4246,
      "philosophy": 4247,
      "criminal": 4248,
      "referenced": 4249,
      "metal": 4250,
      "88": 4251,
      "votes": 4252,
      "unfortunately": 4253,
      "conducted": 4254,
      "bind": 4255,
      "passing": 4256,
      "rew": 4257,
      "procedure": 4258,
      "decisions": 4259,
      "causes": 4260,
      "agent": 4261,
      "vary": 4262,
      "improvement": 4263,
      "matters": 4264,
      "amb": 4265,
      "expansion": 4266,
      "rant": 4267,
      "plans": 4268,
      "nuclear": 4269,
      "zen": 4270,
      "lou": 4271,
      "wikidata": 4272,
      "africa": 4273,
      "actor": 4274,
      "gender": 4275,
      "patent": 4276,
      "1990": 4277,
      "supply": 4278,
      "acknow": 4279,
      "degre": 4280,
      "streng": 4281,
      "mediawiki": 4282,
      "officer": 4283,
      "restore": 4284,
      "ull": 4285,
      "controlled": 4286,
      "modeling": 4287,
      "cards": 4288,
      "iny": 4289,
      "specified": 4290,
      "boy": 4291,
      "degrees": 4292,
      "targe": 4293,
      "fat": 4294,
      "satell": 4295,
      "affected": 4296,
      "trees": 4297,
      "biological": 4298,
      "unders": 4299,
      "39": 4300,
      "peter": 4301,
      "answers": 4302,
      "patients": 4303,
      "skills": 4304,
      "argue": 4305,
      "izon": 4306,
      "remaining": 4307,
      "asia": 4308,
      "confirm": 4309,
      "sandbox": 4310,
      "nine": 4311,
      "employees": 4312,
      "bure": 4313,
      "rev": 4314,
      "assessment": 4315,
      "dark": 4316,
      "strict": 4317,
      "ranking": 4318,
      "comb": 4319,
      "improving": 4320,
      "elimin": 4321,
      "noticed": 4322,
      "neuro": 4323,
      "senate": 4324,
      "objective": 4325,
      "voted": 4326,
      "venue": 4327,
      "urban": 4328,
      "estimated": 4329,
      "camera": 4330,
      "dol": 4331,
      "indu": 4332,
      "approaches": 4333,
      "soviet": 4334,
      "principles": 4335,
      "placing": 4336,
      "modu": 4337,
      "thomas": 4338,
      "spot": 4339,
      "iency": 4340,
      "abuse": 4341,
      "automatic": 4342,
      "sexual": 4343,
      "compatible": 4344,
      "apart": 4345,
      "belief": 4346,
      "texts": 4347,
      "aran": 4348,
      "slightly": 4349,
      "contained": 4350,
      "circuit": 4351,
      "01": 4352,
      "1991": 4353,
      "speedy": 4354,
      "organized": 4355,
      "extensive": 4356,
      "somewhere": 4357,
      "opening": 4358,
      "aa": 4359,
      "ville": 4360,
      "applies": 4361,
      "stable": 4362,
      "leads": 4363,
      "jim": 4364,
      "helped": 4365,
      "guid": 4366,
      "discussing": 4367,
      "modified": 4368,
      "noise": 4369,
      "champion": 4370,
      "convers": 4371,
      "retain": 4372,
      "vehicle": 4373,
      "meta": 4374,
      "inary": 4375,
      "aves": 4376,
      "solid": 4377,
      "georg": 4378,
      "cel": 4379,
      "comprom": 4380,
      "ku": 4381,
      "parliam": 4382,
      "1989": 4383,
      "freedom": 4384,
      "assembly": 4385,
      "closing": 4386,
      "kets": 4387,
      "touch": 4388,
      "depends": 4389,
      "fundamental": 4390,
      "window": 4391,
      "istan": 4392,
      "pion": 4393,
      "missions": 4394,
      "proceedings": 4395,
      "sphere": 4396,
      "ongoing": 4397,
      "integration": 4398,
      "score": 4399,
      "oriented": 4400,
      "\u0000\u0000": 4401,
      "trivial": 4402,
      "teams": 4403,
      "cient": 4404,
      "eco": 4405,
      "mann": 4406,
      "doc": 4407,
      "manufacture": 4408,
      "chrom": 4409,
      "solved": 4410,
      "repeatedly": 4411,
      "possibility": 4412,
      "wmf": 4413,
      "rit": 4414,
      "jur": 4415,
      "attach": 4416,
      "usa": 4417,
      "ceo": 4418,
      "processors": 4419,
      "assuming": 4420,
      "twice": 4421,
      "intention": 4422,
      "follows": 4423,
      "cher": 4424,
      "bugs": 4425,
      "simulation": 4426,
      "77": 4427,
      "algebra": 4428,
      "parliament": 4429,
      "managed": 4430,
      "occurs": 4431,
      "extens": 4432,
      "accessible": 4433,
      "max": 4434,
      "worldwide": 4435,
      "unix": 4436,
      "sid": 4437,
      "movie": 4438,
      "speaking": 4439,
      "memor": 4440,
      "climate": 4441,
      "serves": 4442,
      "stein": 4443,
      "believed": 4444,
      "youtube": 4445,
      "democratic": 4446,
      "owned": 4447,
      "deleting": 4448,
      "courses": 4449,
      "stick": 4450,
      "famous": 4451,
      "metric": 4452,
      "heard": 4453,
      "olic": 4454,
      "plied": 4455,
      "sql": 4456,
      "challenge": 4457,
      "kin": 4458,
      "charles": 4459,
      "gon": 4460,
      "absolutely": 4461,
      "identification": 4462,
      "perspective": 4463,
      "growing": 4464,
      "mel": 4465,
      "universal": 4466,
      "arith": 4467,
      "bureau": 4468,
      "wild": 4469,
      "unlikely": 4470,
      "affair": 4471,
      "visible": 4472,
      "ored": 4473,
      "icians": 4474,
      "scott": 4475,
      "edges": 4476,
      "requirement": 4477,
      "ira": 4478,
      "summer": 4479,
      "installed": 4480,
      "prem": 4481,
      "coin": 4482,
      "holding": 4483,
      "politics": 4484,
      "manip": 4485,
      "cambridge": 4486,
      "twitter": 4487,
      "hydro": 4488,
      "vin": 4489,
      "constitution": 4490,
      "appeal": 4491,
      "operate": 4492,
      "fre": 4493,
      "respectively": 4494,
      "francis": 4495,
      "adopted": 4496,
      "agencies": 4497,
      "village": 4498,
      "argued": 4499,
      "planet": 4500,
      "buildings": 4501,
      "intr": 4502,
      "plication": 4503,
      "mex": 4504,
      "enable": 4505,
      "hash": 4506,
      "mm": 4507,
      "agric": 4508,
      "meets": 4509,
      "appreciate": 4510,
      "enterprise": 4511,
      "broken": 4512,
      "contents": 4513,
      "offering": 4514,
      "bab": 4515,
      "whom": 4516,
      "fest": 4517,
      "sides": 4518,
      "chi": 4519,
      "interests": 4520,
      "practices": 4521,
      "shoo": 4522,
      "closely": 4523,
      "heav": 4524,
      "apped": 4525,
      "richard": 4526,
      "appearance": 4527,
      "classification": 4528,
      "shut": 4529,
      "gent": 4530,
      "carried": 4531,
      "nobody": 4532,
      "jose": 4533,
      "derived": 4534,
      "occurred": 4535,
      "functionality": 4536,
      "rates": 4537,
      "convention": 4538,
      "inappropriate": 4539,
      "plants": 4540,
      "chip": 4541,
      "digit": 4542,
      "tan": 4543,
      "closure": 4544,
      "wis": 4545,
      "addressed": 4546,
      "adjust": 4547,
      "promote": 4548,
      "remained": 4549,
      "celer": 4550,
      "coast": 4551,
      "stories": 4552,
      "reply": 4553,
      "facilities": 4554,
      "consumer": 4555,
      "guaran": 4556,
      "represents": 4557,
      "involves": 4558,
      "effectively": 4559,
      "competition": 4560,
      "patient": 4561,
      "',": 4562,
      "turning": 4563,
      "dar": 4564,
      "studio": 4565,
      ");": 4566,
      "vere": 4567,
      "portal": 4568,
      "collections": 4569,
      "covers": 4570,
      "wat": 4571,
      "bour": 4572,
      "agents": 4573,
      "covering": 4574,
      "honest": 4575,
      "competit": 4576,
      "recur": 4577,
      "bold": 4578,
      "47": 4579,
      "thor": 4580,
      "85": 4581,
      "classical": 4582,
      "sig": 4583,
      "urb": 4584,
      "operator": 4585,
      "pdf": 4586,
      "theoretical": 4587,
      "aer": 4588,
      "voting": 4589,
      "wered": 4590,
      "ening": 4591,
      "genome": 4592,
      "ambigu": 4593,
      "achieved": 4594,
      "agricult": 4595,
      "anywhere": 4596,
      "linking": 4597,
      "florida": 4598,
      "observed": 4599,
      "fourth": 4600,
      "clinical": 4601,
      "biography": 4602,
      "theories": 4603,
      "posts": 4604,
      "describes": 4605,
      "composition": 4606,
      "propag": 4607,
      "cpu": 4608,
      "session": 4609,
      "searching": 4610,
      "cn": 4611,
      "fund": 4612,
      "grid": 4613,
      "grammar": 4614,
      "gall": 4615,
      "fly": 4616,
      "sustain": 4617,
      "sible": 4618,
      "surpr": 4619,
      "knows": 4620,
      "door": 4621,
      "neural": 4622,
      "mine": 4623,
      "facilit": 4624,
      "ius": 4625,
      "surround": 4626,
      "buy": 4627,
      "rr": 4628,
      "stations": 4629,
      "unable": 4630,
      "omen": 4631,
      "biased": 4632,
      "vulner": 4633,
      "ened": 4634,
      "serving": 4635,
      "ranked": 4636,
      "discovery": 4637,
      "entertain": 4638,
      "artists": 4639,
      "enforcement": 4640,
      "flex": 4641,
      "ultimately": 4642,
      "pin": 4643,
      "prose": 4644,
      "brother": 4645,
      "chic": 4646,
      "temperature": 4647,
      "dub": 4648,
      "evaluation": 4649,
      "molecular": 4650,
      "acceler": 4651,
      "interactive": 4652,
      "fails": 4653,
      "proteins": 4654,
      "arrest": 4655,
      "lis": 4656,
      "1990s": 4657,
      "motor": 4658,
      "affil": 4659,
      "herit": 4660,
      "economics": 4661,
      "motiv": 4662,
      "investment": 4663,
      "documentation": 4664,
      "clock": 4665,
      "friends": 4666,
      "cache": 4667,
      "fing": 4668,
      "treated": 4669,
      "unsourced": 4670,
      "cele": 4671,
      "covid": 4672,
      "ros": 4673,
      "schedul": 4674,
      "1980s": 4675,
      "tren": 4676,
      "optimal": 4677,
      "advertising": 4678,
      "economy": 4679,
      "capabilities": 4680,
      "honor": 4681,
      "wan": 4682,
      "phones": 4683,
      "skin": 4684,
      "hot": 4685,
      "copies": 4686,
      "peace": 4687,
      "alleged": 4688,
      "concentr": 4689,
      "oil": 4690,
      "moves": 4691,
      "circumst": 4692,
      "atics": 4693,
      "bbc": 4694,
      "camp": 4695,
      "67": 4696,
      "arc": 4697,
      "problematic": 4698,
      "dipl": 4699,
      "islam": 4700,
      "jews": 4701,
      "concerning": 4702,
      "signals": 4703,
      "verify": 4704,
      "pictures": 4705,
      "greek": 4706,
      "contract": 4707,
      "contributed": 4708,
      "demonstrated": 4709,
      "ancient": 4710,
      "push": 4711,
      "draf": 4712,
      "rise": 4713,
      "encing": 4714,
      "felt": 4715,
      "phd": 4716,
      "republican": 4717,
      "revolution": 4718,
      "lives": 4719,
      "anda": 4720,
      "continuous": 4721,
      "eries": 4722,
      "essential": 4723,
      "hat": 4724,
      "causing": 4725,
      "excell": 4726,
      "citizens": 4727,
      "68": 4728,
      "dictionary": 4729,
      "mentions": 4730,
      "cath": 4731,
      "insul": 4732,
      "stubs": 4733,
      "settle": 4734,
      "headquar": 4735,
      "diplom": 4736,
      "spaces": 4737,
      "mountain": 4738,
      "formation": 4739,
      "burg": 4740,
      "execution": 4741,
      "workers": 4742,
      "189": 4743,
      "scholars": 4744,
      "ethnic": 4745,
      "constructed": 4746,
      "stating": 4747,
      "resulted": 4748,
      "putting": 4749,
      "certific": 4750,
      "spat": 4751,
      "noticeboard": 4752,
      "substantial": 4753,
      "suppose": 4754,
      "encourage": 4755,
      "compare": 4756,
      "cha": 4757,
      "odd": 4758,
      "benefits": 4759,
      "orth": 4760,
      "rig": 4761,
      "iers": 4762,
      "spanish": 4763,
      "mono": 4764,
      "administrative": 4765,
      "lad": 4766,
      "balance": 4767,
      "listing": 4768,
      "governor": 4769,
      "joy": 4770,
      "publisher": 4771,
      "restrictions": 4772,
      "1988": 4773,
      "ec": 4774,
      "sector": 4775,
      "waste": 4776,
      "officials": 4777,
      "candidates": 4778,
      "celebr": 4779,
      "mainstream": 4780,
      "chris": 4781,
      "disruption": 4782,
      "toward": 4783,
      "researcher": 4784,
      "transition": 4785,
      "kers": 4786,
      "boot": 4787,
      "keys": 4788,
      "acquis": 4789,
      "philip": 4790,
      "\"?": 4791,
      "merged": 4792,
      "erc": 4793,
      "hear": 4794,
      "labe": 4795,
      "oce": 4796,
      "extent": 4797,
      "bling": 4798,
      "resolved": 4799,
      "outcome": 4800,
      "figures": 4801,
      "interactions": 4802,
      "herent": 4803,
      "explore": 4804,
      "newspapers": 4805,
      "rating": 4806,
      "iran": 4807,
      "discrim": 4808,
      "conven": 4809,
      "virginia": 4810,
      "1987": 4811,
      "claiming": 4812,
      "xx": 4813,
      "fringe": 4814,
      "metro": 4815,
      "pieces": 4816,
      "unreliable": 4817,
      "famil": 4818,
      "worse": 4819,
      "poll": 4820,
      "latin": 4821,
      "maintained": 4822,
      "module": 4823,
      "vast": 4824,
      "bles": 4825,
      "reless": 4826,
      "monitoring": 4827,
      "neighbor": 4828,
      "tery": 4829,
      "endo": 4830,
      "theless": 4831,
      "netic": 4832,
      "diagno": 4833,
      "customer": 4834,
      "improvements": 4835,
      "tact": 4836,
      "wireless": 4837,
      "persons": 4838,
      "gency": 4839,
      "accused": 4840,
      "hidden": 4841,
      "delay": 4842,
      "songs": 4843,
      "partnership": 4844,
      "enabled": 4845,
      "incorrect": 4846,
      "pool": 4847,
      "colleg": 4848,
      "significance": 4849,
      "reduction": 4850,
      "alt": 4851,
      "tenance": 4852,
      "religion": 4853,
      "trig": 4854,
      "vertices": 4855,
      "virus": 4856,
      "phenomen": 4857,
      "forest": 4858,
      "wikis": 4859,
      "divers": 4860,
      "granted": 4861,
      "couldn": 4862,
      "isol": 4863,
      "abs": 4864,
      "nominated": 4865,
      "develo": 4866,
      "updates": 4867,
      "lake": 4868,
      "authen": 4869,
      "apo": 4870,
      "situations": 4871,
      "obl": 4872,
      "maintenance": 4873,
      "conve": 4874,
      "syntax": 4875,
      "instances": 4876,
      "curren": 4877,
      "revealed": 4878,
      "dealing": 4879,
      "46": 4880,
      "cart": 4881,
      "09": 4882,
      "segment": 4883,
      "iff": 4884,
      "facility": 4885,
      "ads": 4886,
      "successfully": 4887,
      "prohib": 4888,
      "developer": 4889,
      "prince": 4890,
      "renamed": 4891,
      "anonymous": 4892,
      "iling": 4893,
      "surance": 4894,
      "1986": 4895,
      "angle": 4896,
      "sanctions": 4897,
      "colon": 4898,
      "opportunity": 4899,
      "displayed": 4900,
      "boards": 4901,
      "authentic": 4902,
      "politician": 4903,
      "bachel": 4904,
      "contest": 4905,
      "registr": 4906,
      "isation": 4907,
      "solar": 4908,
      "reasoning": 4909,
      "collected": 4910,
      "animal": 4911,
      "stale": 4912,
      "equations": 4913,
      "sockpup": 4914,
      "seriously": 4915,
      "iii": 4916,
      "ignore": 4917,
      "atures": 4918,
      "planned": 4919,
      "officially": 4920,
      "underlying": 4921,
      "legitimate": 4922,
      "transactions": 4923,
      "profession": 4924,
      "academ": 4925,
      "referring": 4926,
      "imagine": 4927,
      "persist": 4928,
      "sport": 4929,
      "participate": 4930,
      "shap": 4931,
      "empty": 4932,
      "tood": 4933,
      "coll": 4934,
      "adequ": 4935,
      "experimental": 4936,
      "printed": 4937,
      "heavi": 4938,
      "affairs": 4939,
      "bib": 4940,
      "android": 4941,
      "understood": 4942,
      "password": 4943,
      "iments": 4944,
      "cool": 4945,
      "hier": 4946,
      "amazon": 4947,
      "dating": 4948,
      "ministry": 4949,
      "associate": 4950,
      "gard": 4951,
      "phrase": 4952,
      "analyz": 4953,
      "wife": 4954,
      "tested": 4955,
      "integer": 4956,
      "chapter": 4957,
      "tot": 4958,
      "bodies": 4959,
      "videos": 4960,
      "reaction": 4961,
      "bing": 4962,
      "compli": 4963,
      "comprehensive": 4964,
      "supre": 4965,
      "equation": 4966,
      "relationships": 4967,
      "divided": 4968,
      "eyes": 4969,
      "insp": 4970,
      "mich": 4971,
      "mapping": 4972,
      "igan": 4973,
      "directory": 4974,
      "embedded": 4975,
      "400": 4976,
      "indicates": 4977,
      "formula": 4978,
      "kit": 4979,
      "encyclopedic": 4980,
      "initiative": 4981,
      "involving": 4982,
      "dog": 4983,
      "attempted": 4984,
      "samples": 4985,
      "une": 4986,
      "assumed": 4987,
      "parents": 4988,
      "orbit": 4989,
      "roo": 4990,
      "1985": 4991,
      "publicly": 4992,
      "guidance": 4993,
      "caught": 4994,
      "chairman": 4995,
      "reverting": 4996,
      "heat": 4997,
      "nut": 4998,
      "americans": 4999,
      "mont": 5000,
      "tam": 5001,
      "immigr": 5002,
      "presum": 5003,
      "grav": 5004,
      "latest": 5005,
      "zone": 5006,
      "families": 5007,
      "logo": 5008,
      "leadership": 5009,
      "logged": 5010,
      "authorities": 5011,
      "isode": 5012,
      "wed": 5013,
      "ancy": 5014,
      "arbitrary": 5015,
      "wol": 5016,
      "besides": 5017,
      "plug": 5018,
      "snow": 5019,
      "procedures": 5020,
      "cris": 5021,
      "episode": 5022,
      "gol": 5023,
      "alli": 5024,
      "05": 5025,
      "sensitive": 5026,
      "assistance": 5027,
      "bachelor": 5028,
      "resh": 5029,
      "prominent": 5030,
      "interval": 5031,
      "flash": 5032,
      "verifiable": 5033,
      "harvard": 5034,
      "ung": 5035,
      "configuration": 5036,
      "fred": 5037,
      "historic": 5038,
      "arms": 5039,
      "chicago": 5040,
      "sr": 5041,
      "drawn": 5042,
      "conclusion": 5043,
      "plot": 5044,
      "oth": 5045,
      "writers": 5046,
      "ops": 5047,
      "leaves": 5048,
      "ada": 5049,
      "expensive": 5050,
      "increases": 5051,
      "tracking": 5052,
      "dynamics": 5053,
      "numerical": 5054,
      "powers": 5055,
      "triang": 5056,
      "assistant": 5057,
      "42": 5058,
      "highlight": 5059,
      "missed": 5060,
      "radar": 5061,
      "resolve": 5062,
      "contributors": 5063,
      "ahead": 5064,
      "closer": 5065,
      "coded": 5066,
      "innovation": 5067,
      "spirit": 5068,
      "simult": 5069,
      "elections": 5070,
      "powerful": 5071,
      "ratio": 5072,
      "identical": 5073,
      "atl": 5074,
      "ulate": 5075,
      "transmission": 5076,
      "participation": 5077,
      "ifications": 5078,
      "examin": 5079,
      "cognitive": 5080,
      "proven": 5081,
      "martin": 5082,
      "simultane": 5083,
      "manually": 5084,
      "driver": 5085,
      "census": 5086,
      "donald": 5087,
      "engineers": 5088,
      "submitted": 5089,
      "66": 5090,
      "harass": 5091,
      "crow": 5092,
      "beta": 5093,
      "cook": 5094,
      "overs": 5095,
      "blan": 5096,
      "marine": 5097,
      "income": 5098,
      "package": 5099,
      "circumstances": 5100,
      "fant": 5101,
      "xy": 5102,
      "kel": 5103,
      "1984": 5104,
      "channels": 5105,
      "semin": 5106,
      "pursu": 5107,
      "frag": 5108,
      "04": 5109,
      "scene": 5110,
      "acid": 5111,
      "erson": 5112,
      "tone": 5113,
      "03": 5114,
      "rejected": 5115,
      "eds": 5116,
      "yield": 5117,
      "aus": 5118,
      "oph": 5119,
      "stic": 5120,
      "driven": 5121,
      "07": 5122,
      "shift": 5123,
      "controversy": 5124,
      "seek": 5125,
      "permanent": 5126,
      "entered": 5127,
      "trouble": 5128,
      "approval": 5129,
      "revision": 5130,
      "boxes": 5131,
      "carol": 5132,
      "cab": 5133,
      "ois": 5134,
      "accompl": 5135,
      "1950": 5136,
      "sle": 5137,
      "autonom": 5138,
      "heavy": 5139,
      "acle": 5140,
      "corporate": 5141,
      "moreover": 5142,
      "teacher": 5143,
      "hosted": 5144,
      "adds": 5145,
      "partition": 5146,
      "representing": 5147,
      "connections": 5148,
      "udo": 5149,
      "hierarch": 5150,
      "goals": 5151,
      "requiring": 5152,
      "pra": 5153,
      "shell": 5154,
      "filed": 5155,
      "thon": 5156,
      "pand": 5157,
      "asc": 5158,
      "wording": 5159,
      "watchlist": 5160,
      "vehicles": 5161,
      "tation": 5162,
      "workshop": 5163,
      "efficiency": 5164,
      "lind": 5165,
      "hasn": 5166,
      "infinite": 5167,
      "ulated": 5168,
      "lio": 5169,
      "tea": 5170,
      "environments": 5171,
      "warnings": 5172,
      "creates": 5173,
      "ireland": 5174,
      "opposite": 5175,
      "oly": 5176,
      "hosting": 5177,
      "sd": 5178,
      "permission": 5179,
      "sufficiently": 5180,
      "creative": 5181,
      "perfectly": 5182,
      "animals": 5183,
      "nit": 5184,
      "98": 5185,
      "pm": 5186,
      "combat": 5187,
      "wars": 5188,
      "pted": 5189,
      "iron": 5190,
      "shar": 5191,
      "ordinary": 5192,
      "psychology": 5193,
      "diffs": 5194,
      "ordered": 5195,
      "viewed": 5196,
      "itative": 5197,
      "1980": 5198,
      "ressing": 5199,
      "pling": 5200,
      "proved": 5201,
      "perce": 5202,
      "opposition": 5203,
      "08": 5204,
      "quad": 5205,
      "nc": 5206,
      "electronics": 5207,
      "somebody": 5208,
      "paris": 5209,
      "spatial": 5210,
      "kh": 5211,
      "dean": 5212,
      "shall": 5213,
      "tagged": 5214,
      "tts": 5215,
      "syl": 5216,
      "zeal": 5217,
      "bow": 5218,
      "releases": 5219,
      "productive": 5220,
      "mechanical": 5221,
      "employed": 5222,
      "exerc": 5223,
      "astronom": 5224,
      "02": 5225,
      "1970s": 5226,
      "fash": 5227,
      "creator": 5228,
      "1983": 5229,
      "gb": 5230,
      "ucing": 5231,
      "complicated": 5232,
      "ider": 5233,
      "06": 5234,
      "warrant": 5235,
      "ukraine": 5236,
      "colour": 5237,
      "presidential": 5238,
      "mb": 5239,
      "informatics": 5240,
      "sett": 5241,
      "georgia": 5242,
      "lam": 5243,
      "ignored": 5244,
      "alexand": 5245,
      "kins": 5246,
      "static": 5247,
      "distinguish": 5248,
      "acquisition": 5249,
      "accident": 5250,
      "worst": 5251,
      "actors": 5252,
      "pseudo": 5253,
      "universe": 5254,
      "imaging": 5255,
      "consci": 5256,
      "genom": 5257,
      "declared": 5258,
      "suggesting": 5259,
      "engineer": 5260,
      "notation": 5261,
      "firefox": 5262,
      "peak": 5263,
      "yer": 5264,
      "retrie": 5265,
      "satellite": 5266,
      "graphies": 5267,
      "learned": 5268,
      "chess": 5269,
      "officers": 5270,
      "owner": 5271,
      "restricted": 5272,
      "preferences": 5273,
      "mining": 5274,
      "flat": 5275,
      "continuing": 5276,
      "infect": 5277,
      "propose": 5278,
      "illance": 5279,
      "greatly": 5280,
      "formats": 5281,
      "habit": 5282,
      "affili": 5283,
      "amend": 5284,
      "chart": 5285,
      "mixed": 5286,
      "wikipedians": 5287,
      "kinds": 5288,
      "manufacturing": 5289,
      "responsibility": 5290,
      "dv": 5291,
      "occasion": 5292,
      "ji": 5293,
      "intelligent": 5294,
      "photos": 5295,
      "accusations": 5296,
      "density": 5297,
      "ghana": 5298,
      "violations": 5299,
      "sive": 5300,
      "burgh": 5301,
      "settings": 5302,
      "warned": 5303,
      "irrelevant": 5304,
      "entertainment": 5305,
      "signature": 5306,
      "penn": 5307,
      "fashion": 5308,
      "dependence": 5309,
      "preferred": 5310,
      "crash": 5311,
      "desired": 5312,
      "vertex": 5313,
      "synthesis": 5314,
      "ja": 5315,
      "somehow": 5316,
      "hits": 5317,
      "oral": 5318,
      "ideal": 5319,
      "massive": 5320,
      "forth": 5321,
      "username": 5322,
      "bringing": 5323,
      "php": 5324,
      "enem": 5325,
      "credited": 5326,
      "dc": 5327,
      "houses": 5328,
      "lyn": 5329,
      "louis": 5330,
      "kr": 5331,
      "pak": 5332,
      "undergraduate": 5333,
      "specification": 5334,
      "swed": 5335,
      "43": 5336,
      "fraction": 5337,
      "migr": 5338,
      "aust": 5339,
      "italian": 5340,
      "metic": 5341,
      "heavily": 5342,
      "supreme": 5343,
      "businesses": 5344,
      "dance": 5345,
      "joseph": 5346,
      "centers": 5347,
      "cos": 5348,
      "specialized": 5349,
      "limits": 5350,
      "performing": 5351,
      "summaries": 5352,
      "som": 5353,
      "mistake": 5354,
      "networking": 5355,
      "fare": 5356,
      "stress": 5357,
      "contemporary": 5358,
      "danger": 5359,
      "synthe": 5360,
      "legislation": 5361,
      "describing": 5362,
      "citizen": 5363,
      "encryption": 5364,
      "rey": 5365,
      "titled": 5366,
      "characteristics": 5367,
      "ene": 5368,
      "egy": 5369,
      "composed": 5370,
      "estic": 5371,
      "daugh": 5372,
      "indicated": 5373,
      "advent": 5374,
      "stopped": 5375,
      "emergency": 5376,
      "capture": 5377,
      "antly": 5378,
      "subset": 5379,
      "surveillance": 5380,
      "itation": 5381,
      "57": 5382,
      "columb": 5383,
      "rank": 5384,
      "bob": 5385,
      "classified": 5386,
      "asian": 5387,
      "nt": 5388,
      "nur": 5389,
      "carbon": 5390,
      "grounds": 5391,
      "glass": 5392,
      "breaking": 5393,
      "illa": 5394,
      "totally": 5395,
      "pit": 5396,
      "pir": 5397,
      "routine": 5398,
      "producing": 5399,
      "excess": 5400,
      "funded": 5401,
      "conspir": 5402,
      "weather": 5403,
      "recommended": 5404,
      "harris": 5405,
      "matching": 5406,
      "hd": 5407,
      "moon": 5408,
      "structured": 5409,
      "lean": 5410,
      "optical": 5411,
      "michigan": 5412,
      "controls": 5413,
      "vation": 5414,
      "deriv": 5415,
      "principal": 5416,
      "ults": 5417,
      "demonstrate": 5418,
      "essay": 5419,
      "verifiability": 5420,
      "fraud": 5421,
      "variant": 5422,
      "turing": 5423,
      "achuse": 5424,
      "hands": 5425,
      "pairs": 5426,
      "trac": 5427,
      "responses": 5428,
      "nest": 5429,
      "weapons": 5430,
      "coal": 5431,
      "massachuse": 5432,
      "abol": 5433,
      "spend": 5434,
      "knowing": 5435,
      "abstract": 5436,
      "massachusetts": 5437,
      "sv": 5438,
      "scholarly": 5439,
      "cham": 5440,
      "imo": 5441,
      "150": 5442,
      "formerly": 5443,
      "dual": 5444,
      "apy": 5445,
      "actively": 5446,
      "subscr": 5447,
      "hus": 5448,
      "founding": 5449,
      "ensor": 5450,
      "89": 5451,
      "helping": 5452,
      "jump": 5453,
      "umes": 5454,
      "operators": 5455,
      "musical": 5456,
      "supervis": 5457,
      "intellect": 5458,
      "bacter": 5459,
      "gather": 5460,
      "diagram": 5461,
      "inspired": 5462,
      "pointing": 5463,
      "oles": 5464,
      "1982": 5465,
      "regularly": 5466,
      "differ": 5467,
      "incorporated": 5468,
      "quarter": 5469,
      "bish": 5470,
      "promotional": 5471,
      "expon": 5472,
      "constitu": 5473,
      "korea": 5474,
      "starts": 5475,
      "estimate": 5476,
      "dem": 5477,
      "59": 5478,
      "chat": 5479,
      "solving": 5480,
      "javas": 5481,
      "wides": 5482,
      "scenar": 5483,
      "187": 5484,
      "expo": 5485,
      "attended": 5486,
      "apps": 5487,
      "topo": 5488,
      "bann": 5489,
      "lt": 5490,
      "reviewer": 5491,
      "wealth": 5492,
      "reputation": 5493,
      "ogue": 5494,
      "20th": 5495,
      "telling": 5496,
      "modific": 5497,
      "indefinite": 5498,
      "cold": 5499,
      "rt": 5500,
      "enn": 5501,
      "restored": 5502,
      "fold": 5503,
      "farm": 5504,
      "victor": 5505,
      "ek": 5506,
      "icting": 5507,
      "markets": 5508,
      "amounts": 5509,
      "assignment": 5510,
      "41": 5511,
      "medium": 5512,
      "ups": 5513,
      "produces": 5514,
      "assumption": 5515,
      "reducing": 5516,
      "thur": 5517,
      "symbols": 5518,
      "ifier": 5519,
      "udes": 5520,
      "strength": 5521,
      "arrange": 5522,
      "egypt": 5523,
      "endor": 5524,
      "aside": 5525,
      "audience": 5526,
      "geometry": 5527,
      "succeed": 5528,
      "luck": 5529,
      "compound": 5530,
      "colors": 5531,
      "declined": 5532,
      "pointer": 5533,
      "gence": 5534,
      "acm": 5535,
      "uniform": 5536,
      "receiving": 5537,
      "measured": 5538,
      "hopefully": 5539,
      "modules": 5540,
      "nucle": 5541,
      "ampl": 5542,
      "seeking": 5543,
      "catholic": 5544,
      "sentences": 5545,
      "rna": 5546,
      "javascript": 5547,
      "font": 5548,
      "animation": 5549,
      "mou": 5550,
      "contrad": 5551,
      "pushing": 5552,
      "bled": 5553,
      "usions": 5554,
      "matches": 5555,
      "css": 5556,
      "naz": 5557,
      "minimal": 5558,
      "gap": 5559,
      "engines": 5560,
      "dor": 5561,
      "tox": 5562,
      "logist": 5563,
      "discrete": 5564,
      "enhance": 5565,
      "columbia": 5566,
      "empire": 5567,
      "corrup": 5568,
      "narrow": 5569,
      "bag": 5570,
      "driving": 5571,
      "tran": 5572,
      "operated": 5573,
      "boston": 5574,
      "finished": 5575,
      "prepared": 5576,
      "stars": 5577,
      "deliber": 5578,
      "partner": 5579,
      "implementations": 5580,
      "disputes": 5581,
      "funds": 5582,
      "interpreted": 5583,
      "transmit": 5584,
      "substit": 5585,
      "serial": 5586,
      "targeted": 5587,
      "ror": 5588,
      "cluster": 5589,
      "selling": 5590,
      "hes": 5591,
      "muslim": 5592,
      "criticized": 5593,
      "jobs": 5594,
      "neutr": 5595,
      "stanford": 5596,
      "increasingly": 5597,
      "licensed": 5598,
      "iveness": 5599,
      "valuable": 5600,
      "np": 5601,
      "attempting": 5602,
      "shortly": 5603,
      "representative": 5604,
      "mechanisms": 5605,
      "1981": 5606,
      "entity": 5607,
      "translated": 5608,
      "arguing": 5609,
      "photograph": 5610,
      "endors": 5611,
      "lived": 5612,
      "gained": 5613,
      "ocean": 5614,
      "pipe": 5615,
      "rarely": 5616,
      "namespace": 5617,
      "repeat": 5618,
      "binding": 5619,
      "plenty": 5620,
      "spin": 5621,
      "epis": 5622,
      "informed": 5623,
      "shire": 5624,
      "turns": 5625,
      "budget": 5626,
      "widespread": 5627,
      "illegal": 5628,
      "decades": 5629,
      "wy": 5630,
      "consideration": 5631,
      "searches": 5632,
      "verified": 5633,
      "spectrum": 5634,
      "byte": 5635,
      "dutch": 5636,
      "1979": 5637,
      "regarded": 5638,
      "precision": 5639,
      "challenges": 5640,
      "wider": 5641,
      "structural": 5642,
      "threats": 5643,
      "murder": 5644,
      "thir": 5645,
      "vio": 5646,
      "communicate": 5647,
      "raise": 5648,
      "rationale": 5649,
      "iding": 5650,
      "sect": 5651,
      "rendering": 5652,
      "rio": 5653,
      "measurement": 5654,
      "anta": 5655,
      "colum": 5656,
      "returns": 5657,
      "fee": 5658,
      "obama": 5659,
      "lecture": 5660,
      "expertise": 5661,
      "kid": 5662,
      "conversation": 5663,
      "classic": 5664,
      "seconds": 5665,
      "documented": 5666,
      "iar": 5667,
      "deser": 5668,
      "uck": 5669,
      "jam": 5670,
      "uploaded": 5671,
      "atmo": 5672,
      "proportion": 5673,
      "reads": 5674,
      "immediate": 5675,
      "yel": 5676,
      "uel": 5677,
      "announce": 5678,
      "ils": 5679,
      "illin": 5680,
      "applying": 5681,
      "sir": 5682,
      "married": 5683,
      "territory": 5684,
      "independently": 5685,
      "transaction": 5686,
      "clients": 5687,
      "nis": 5688,
      "zealand": 5689,
      "odes": 5690,
      "junction": 5691,
      "87": 5692,
      "pixel": 5693,
      "19th": 5694,
      "queen": 5695,
      "expl": 5696,
      "volunteer": 5697,
      "orph": 5698,
      "purchase": 5699,
      "hr": 5700,
      "drawing": 5701,
      "correspond": 5702,
      "1000": 5703,
      "swe": 5704,
      "dun": 5705,
      "newly": 5706,
      "winning": 5707,
      "biblio": 5708,
      "complaint": 5709,
      "involvement": 5710,
      "synchron": 5711,
      "providers": 5712,
      "handling": 5713,
      "hell": 5714,
      "violence": 5715,
      "cybersecurity": 5716,
      "rows": 5717,
      "drama": 5718,
      "isa": 5719,
      "negot": 5720,
      "69": 5721,
      "parad": 5722,
      "leak": 5723,
      "mexico": 5724,
      "protocols": 5725,
      "collaborative": 5726,
      "uncertain": 5727,
      "governments": 5728,
      "hybrid": 5729,
      "stands": 5730,
      "md": 5731,
      "uit": 5732,
      "theat": 5733,
      "cket": 5734,
      "hero": 5735,
      "passes": 5736,
      "adata": 5737,
      "methodo": 5738,
      "taught": 5739,
      "iger": 5740,
      "designs": 5741,
      "identifying": 5742,
      "distinguished": 5743,
      "confused": 5744,
      "proposals": 5745,
      "entit": 5746,
      "python": 5747,
      "exceed": 5748,
      "thres": 5749,
      "spi": 5750,
      "programme": 5751,
      "imper": 5752,
      "defend": 5753,
      "rolling": 5754,
      "propr": 5755,
      "redund": 5756,
      "oration": 5757,
      "responded": 5758,
      "rier": 5759,
      "revenue": 5760,
      "presentation": 5761,
      "breach": 5762,
      "hub": 5763,
      "implies": 5764,
      "recognize": 5765,
      "experiments": 5766,
      "constraints": 5767,
      "bil": 5768,
      "fro": 5769,
      "slo": 5770,
      "toler": 5771,
      "rename": 5772,
      "mainspace": 5773,
      "valley": 5774,
      "attributed": 5775,
      "patch": 5776,
      "reverse": 5777,
      "roughly": 5778,
      "utility": 5779,
      "pled": 5780,
      "dram": 5781,
      "drafts": 5782,
      "sac": 5783,
      "fewer": 5784,
      "thoughts": 5785,
      "gates": 5786,
      "jul": 5787,
      "itn": 5788,
      "magic": 5789,
      "aband": 5790,
      "aint": 5791,
      "raw": 5792,
      "nan": 5793,
      "joe": 5794,
      "constructive": 5795,
      "interfaces": 5796,
      "priority": 5797,
      "height": 5798,
      "enables": 5799,
      "biographies": 5800,
      "strategies": 5801,
      "sanction": 5802,
      "nick": 5803,
      "irish": 5804,
      "lev": 5805,
      "conscious": 5806,
      "transcrip": 5807,
      "bic": 5808,
      "curve": 5809,
      "distinction": 5810,
      "encoding": 5811,
      "definitions": 5812,
      "shooting": 5813,
      "53": 5814,
      "anne": 5815,
      "disambig": 5816,
      "gression": 5817,
      "waiting": 5818,
      "alter": 5819,
      "ita": 5820,
      "appreciated": 5821,
      "membership": 5822,
      "happening": 5823,
      "aims": 5824,
      "ansas": 5825,
      "operational": 5826,
      "copied": 5827,
      "falls": 5828,
      "doctoral": 5829,
      "provider": 5830,
      "ffer": 5831,
      "swi": 5832,
      "minute": 5833,
      "conspiracy": 5834,
      "magn": 5835,
      "rfa": 5836,
      "diver": 5837,
      "christianity": 5838,
      "dd": 5839,
      "pacific": 5840,
      "registration": 5841,
      "acknowled": 5842,
      "hp": 5843,
      "hate": 5844,
      "intervent": 5845,
      "conventional": 5846,
      "compiled": 5847,
      "engaged": 5848,
      "51": 5849,
      "].": 5850,
      "tut": 5851,
      "97": 5852,
      "offices": 5853,
      "throw": 5854,
      "js": 5855,
      "yu": 5856,
      "dimension": 5857,
      "focuses": 5858,
      "layout": 5859,
      "jones": 5860,
      "sures": 5861,
      "insurance": 5862,
      "fake": 5863,
      "truly": 5864,
      "spelling": 5865,
      "semantic": 5866,
      "abil": 5867,
      "circle": 5868,
      "henry": 5869,
      "folk": 5870,
      "gad": 5871,
      "catch": 5872,
      "posit": 5873,
      "braz": 5874,
      "filled": 5875,
      "labs": 5876,
      "navigation": 5877,
      "duplic": 5878,
      "56": 5879,
      "domestic": 5880,
      "metadata": 5881,
      "concluded": 5882,
      "publishers": 5883,
      "1975": 5884,
      "scot": 5885,
      "polish": 5886,
      "rooms": 5887,
      "fighting": 5888,
      "intellectual": 5889,
      "hang": 5890,
      "1978": 5891,
      "wales": 5892,
      "scripts": 5893,
      "pione": 5894,
      "dropped": 5895,
      "earned": 5896,
      "aven": 5897,
      "diseases": 5898,
      "narr": 5899,
      "usal": 5900,
      "bytes": 5901,
      "promoted": 5902,
      "minority": 5903,
      "1970": 5904,
      "quotes": 5905,
      "archae": 5906,
      "begins": 5907,
      "winter": 5908,
      "cers": 5909,
      "seemed": 5910,
      "inherent": 5911,
      "existed": 5912,
      "vac": 5913,
      "plays": 5914,
      "finds": 5915,
      "decade": 5916,
      "relating": 5917,
      "icial": 5918,
      "confusion": 5919,
      "strike": 5920,
      "deem": 5921,
      "knew": 5922,
      "mort": 5923,
      "sored": 5924,
      "attor": 5925,
      "headquarters": 5926,
      "porters": 5927,
      "dollar": 5928,
      "lau": 5929,
      "thered": 5930,
      "biom": 5931,
      "organisation": 5932,
      "frustr": 5933,
      "intend": 5934,
      "terrorism": 5935,
      "generic": 5936,
      "stim": 5937,
      "imply": 5938,
      "ato": 5939,
      "counts": 5940,
      "entities": 5941,
      "notion": 5942,
      "sin": 5943,
      "urally": 5944,
      "surrounding": 5945,
      "ota": 5946,
      "sud": 5947,
      "favour": 5948,
      "1976": 5949,
      "capability": 5950,
      "britain": 5951,
      "recip": 5952,
      "compos": 5953,
      "wul": 5954,
      "resign": 5955,
      "writes": 5956,
      "volumes": 5957,
      "volunteers": 5958,
      "cia": 5959,
      "difficulty": 5960,
      "1960s": 5961,
      "datase": 5962,
      "myth": 5963,
      "charged": 5964,
      "rick": 5965,
      "lose": 5966,
      "apolog": 5967,
      "abandon": 5968,
      "porter": 5969,
      "advertise": 5970,
      "aur": 5971,
      "hong": 5972,
      "onal": 5973,
      "utter": 5974,
      "formatting": 5975,
      "festival": 5976,
      "strategic": 5977,
      "recru": 5978,
      "variants": 5979,
      "cars": 5980,
      "von": 5981,
      "alongside": 5982,
      "reverts": 5983,
      "trib": 5984,
      "ighter": 5985,
      "panel": 5986,
      "unnecessary": 5987,
      "chronic": 5988,
      "thr": 5989,
      "1977": 5990,
      "airport": 5991,
      "sylvan": 5992,
      "verification": 5993,
      "rolled": 5994,
      "girl": 5995,
      "tai": 5996,
      "equally": 5997,
      "deliver": 5998,
      "variation": 5999,
      "currency": 6000,
      "insist": 6001,
      "privile": 6002,
      "rapidly": 6003,
      "contributing": 6004,
      "asp": 6005,
      "fle": 6006,
      "ience": 6007,
      "hypothesis": 6008,
      "hone": 6009,
      "ift": 6010,
      "employment": 6011,
      "enna": 6012,
      "prepar": 6013,
      "52": 6014,
      "58": 6015,
      "cric": 6016,
      "puzz": 6017,
      "friendly": 6018,
      "paste": 6019,
      "ownership": 6020,
      "careful": 6021,
      "hou": 6022,
      "beam": 6023,
      "korean": 6024,
      "retail": 6025,
      "evaluate": 6026,
      "representatives": 6027,
      "targets": 6028,
      "mistakes": 6029,
      "illinois": 6030,
      "angeles": 6031,
      "roles": 6032,
      "astro": 6033,
      "regulation": 6034,
      "pandem": 6035,
      "repos": 6036,
      "ym": 6037,
      "fab": 6038,
      "resident": 6039,
      "addressing": 6040,
      "swit": 6041,
      "weigh": 6042,
      "millions": 6043,
      "finger": 6044,
      "rol": 6045,
      "clic": 6046,
      "trick": 6047,
      "ieties": 6048,
      "critics": 6049,
      "yellow": 6050,
      "andrew": 6051,
      "polar": 6052,
      "1974": 6053,
      "restriction": 6054,
      "1973": 6055,
      "hearing": 6056,
      "bush": 6057,
      "athlet": 6058,
      "drugs": 6059,
      "dream": 6060,
      "nik": 6061,
      "replacement": 6062,
      "xml": 6063,
      "simultaneously": 6064,
      "prediction": 6065,
      "ami": 6066,
      "contributor": 6067,
      "stores": 6068,
      "robots": 6069,
      "sensor": 6070,
      "surely": 6071,
      "victims": 6072,
      "ador": 6073,
      "programmer": 6074,
      "conservative": 6075,
      "roots": 6076,
      "96": 6077,
      "drivers": 6078,
      "kal": 6079,
      "edu": 6080,
      "aggreg": 6081,
      "finance": 6082,
      "certificate": 6083,
      "adam": 6084,
      "tape": 6085,
      "alternate": 6086,
      "afc": 6087,
      "painting": 6088,
      "arbitration": 6089,
      "approximation": 6090,
      "omin": 6091,
      "mov": 6092,
      "haz": 6093,
      "bullet": 6094,
      "admitted": 6095,
      "teachers": 6096,
      "cere": 6097,
      "1972": 6098,
      "crisis": 6099,
      "drives": 6100,
      "lag": 6101,
      "reform": 6102,
      "oxy": 6103,
      "recall": 6104,
      "holder": 6105,
      "navy": 6106,
      "daughter": 6107,
      "ishing": 6108,
      "israeli": 6109,
      "italy": 6110,
      "unes": 6111,
      "1968": 6112,
      "hs": 6113,
      "hair": 6114,
      "prices": 6115,
      "\").": 6116,
      "ow": 6117,
      "tri": 6118,
      "charges": 6119,
      "delivery": 6120,
      "electro": 6121,
      "formally": 6122,
      "executed": 6123,
      "compromise": 6124,
      "eb": 6125,
      "ole": 6126,
      "marg": 6127,
      "departments": 6128,
      "heritage": 6129,
      "oppon": 6130,
      "displays": 6131,
      "silver": 6132,
      "cad": 6133,
      "tracks": 6134,
      "converted": 6135,
      "pump": 6136,
      "extend": 6137,
      "trading": 6138,
      "tells": 6139,
      "calculated": 6140,
      "olymp": 6141,
      "notably": 6142,
      "whenever": 6143,
      "sylvania": 6144,
      "kong": 6145,
      "deput": 6146,
      "blurb": 6147,
      "compute": 6148,
      "cable": 6149,
      "emotion": 6150,
      "1969": 6151,
      "absence": 6152,
      "keeps": 6153,
      "brazil": 6154,
      "colleges": 6155,
      "ibs": 6156,
      "resistance": 6157,
      "desc": 6158,
      "propriet": 6159,
      "diversity": 6160,
      "susp": 6161,
      "bare": 6162,
      "eric": 6163,
      "attached": 6164,
      "fbi": 6165,
      "compress": 6166,
      "aimed": 6167,
      "mouth": 6168,
      "justify": 6169,
      "handled": 6170,
      "determining": 6171,
      "enjoy": 6172,
      "icing": 6173,
      "strings": 6174,
      "technically": 6175,
      "discover": 6176,
      "ij": 6177,
      "declar": 6178,
      "''": 6179,
      "ropy": 6180,
      "fifth": 6181,
      "2nd": 6182,
      "liqu": 6183,
      "hole": 6184,
      "populations": 6185,
      "convert": 6186,
      "purchased": 6187,
      "vacc": 6188,
      "housing": 6189,
      "mechanics": 6190,
      "evolutionary": 6191,
      "54": 6192,
      "domains": 6193,
      "transferred": 6194,
      "ders": 6195,
      "jes": 6196,
      "fuel": 6197,
      "entitled": 6198,
      "pandemic": 6199,
      "kur": 6200,
      "ule": 6201,
      "umin": 6202,
      "comfort": 6203,
      "defining": 6204,
      "collap": 6205,
      "contrary": 6206,
      "personnel": 6207,
      "exposure": 6208,
      "gotten": 6209,
      "respective": 6210,
      "gan": 6211,
      "alphabet": 6212,
      "residents": 6213,
      "committed": 6214,
      "quoted": 6215,
      "magnetic": 6216,
      "trip": 6217,
      "carefully": 6218,
      "terminal": 6219,
      "horizon": 6220,
      "km": 6221,
      "til": 6222,
      "submission": 6223,
      "technological": 6224,
      "guil": 6225,
      "bsd": 6226,
      "bright": 6227,
      "admit": 6228,
      "defines": 6229,
      "arithmetic": 6230,
      "250": 6231,
      "anno": 6232,
      "dimensions": 6233,
      "wheel": 6234,
      "feas": 6235,
      "fear": 6236,
      "pron": 6237,
      "mouse": 6238,
      "radiation": 6239,
      "proprietary": 6240,
      "drag": 6241,
      "politan": 6242,
      "influenced": 6243,
      "ola": 6244,
      "rome": 6245,
      "chrome": 6246,
      "rub": 6247,
      "armed": 6248,
      "brook": 6249,
      "plas": 6250,
      "lord": 6251,
      "aming": 6252,
      "fresh": 6253,
      "coordinates": 6254,
      "analytics": 6255,
      "thal": 6256,
      "anybody": 6257,
      "bak": 6258,
      "cooperation": 6259,
      "sister": 6260,
      "infl": 6261,
      "factory": 6262,
      "sought": 6263,
      "yl": 6264,
      "frequent": 6265,
      "nevertheless": 6266,
      "eld": 6267,
      "shado": 6268,
      "grew": 6269,
      "dia": 6270,
      "agers": 6271,
      "iraq": 6272,
      "crystal": 6273,
      "jr": 6274,
      "jon": 6275,
      "allegations": 6276,
      "precisely": 6277,
      "rose": 6278,
      "bern": 6279,
      "insert": 6280,
      "destru": 6281,
      "omain": 6282,
      "severe": 6283,
      "disambiguation": 6284,
      "iate": 6285,
      "sensors": 6286,
      "encouraged": 6287,
      "unblock": 6288,
      "resid": 6289,
      "transportation": 6290,
      "invented": 6291,
      "adequate": 6292,
      "factual": 6293,
      "axis": 6294,
      "complement": 6295,
      "confusing": 6296,
      "consumers": 6297,
      "extensions": 6298,
      "vm": 6299,
      "transformation": 6300,
      "coibot": 6301,
      "keyboard": 6302,
      "floor": 6303,
      "sad": 6304,
      "ara": 6305,
      "pod": 6306,
      "translate": 6307,
      "intermedi": 6308,
      "realize": 6309,
      "earliest": 6310,
      "poorly": 6311,
      "invas": 6312,
      "maintaining": 6313,
      "rein": 6314,
      "gaming": 6315,
      "attribution": 6316,
      "solely": 6317,
      "hosts": 6318,
      "bru": 6319,
      "indication": 6320,
      "francisco": 6321,
      "speaker": 6322,
      "availability": 6323,
      "schem": 6324,
      "operates": 6325,
      "prod": 6326,
      "brows": 6327,
      "confident": 6328,
      "unusual": 6329,
      "regards": 6330,
      "protest": 6331,
      "dot": 6332,
      "}}{{": 6333,
      "partially": 6334,
      "defence": 6335,
      "automation": 6336,
      "wondering": 6337,
      "telephone": 6338,
      "ette": 6339,
      "jersey": 6340,
      "banks": 6341,
      "explaining": 6342,
      "sume": 6343,
      "commentary": 6344,
      "pennsylvania": 6345,
      "juris": 6346,
      "canv": 6347,
      "medal": 6348,
      "threshold": 6349,
      "bunch": 6350,
      "ista": 6351,
      "subsid": 6352,
      "alumn": 6353,
      "frames": 6354,
      "otherlinks": 6355,
      "bear": 6356,
      "discour": 6357,
      "berke": 6358,
      "printing": 6359,
      "4920": 6360,
      "leon": 6361,
      "hoo": 6362,
      "riage": 6363,
      "oracle": 6364,
      "cros": 6365,
      "basedomain": 6366,
      "baseip": 6367,
      "xp": 6368,
      "conflicts": 6369,
      "iana": 6370,
      "merit": 6371,
      "oversight": 6372,
      "2d": 6373,
      "impression": 6374,
      "twenty": 6375,
      "inner": 6376,
      "naming": 6377,
      "philipp": 6378,
      "[[": 6379,
      "hl": 6380,
      "adjac": 6381,
      "applicable": 6382,
      "columns": 6383,
      "cameras": 6384,
      "fm": 6385,
      "exceptions": 6386,
      "nasa": 6387,
      "peg": 6388,
      "84": 6389,
      "morning": 6390,
      "rection": 6391,
      "rees": 6392,
      "compilers": 6393,
      "establishing": 6394,
      "replacing": 6395,
      "preference": 6396,
      "flood": 6397,
      "renew": 6398,
      "freely": 6399,
      "healthcare": 6400,
      "berkeley": 6401,
      "recept": 6402,
      "voters": 6403,
      "header": 6404,
      "islands": 6405,
      "flaw": 6406,
      "oldest": 6407,
      "plate": 6408,
      "autonomous": 6409,
      "differential": 6410,
      "chose": 6411,
      "areness": 6412,
      "perceived": 6413,
      "sla": 6414,
      "measurements": 6415,
      "sudden": 6416,
      "agues": 6417,
      "loaded": 6418,
      "disputed": 6419,
      "izations": 6420,
      "rens": 6421,
      "liberal": 6422,
      "trail": 6423,
      "consistency": 6424,
      "attributes": 6425,
      "newer": 6426,
      "opportunities": 6427,
      "awareness": 6428,
      "inval": 6429,
      "consult": 6430,
      "wire": 6431,
      "uted": 6432,
      "biggest": 6433,
      "geographic": 6434,
      "jeff": 6435,
      "molecules": 6436,
      "ported": 6437,
      "johnson": 6438,
      "horse": 6439,
      "memorial": 6440,
      "defe": 6441,
      "alan": 6442,
      "harmon": 6443,
      "experiences": 6444,
      "conce": 6445,
      "lla": 6446,
      "queue": 6447,
      "instrument": 6448,
      "sale": 6449,
      "600": 6450,
      "tp": 6451,
      "venture": 6452,
      "counting": 6453,
      "62": 6454,
      "contribs": 6455,
      "conversion": 6456,
      "reasonably": 6457,
      "enzy": 6458,
      "agend": 6459,
      "specify": 6460,
      "regulations": 6461,
      "800": 6462,
      "dir": 6463,
      "entre": 6464,
      "managing": 6465,
      "delivered": 6466,
      "harder": 6467,
      "cheap": 6468,
      "promoting": 6469,
      "quot": 6470,
      "independence": 6471,
      "beth": 6472,
      "saved": 6473,
      "misleading": 6474,
      "360": 6475,
      "trave": 6476,
      "blank": 6477,
      "ingly": 6478,
      "convin": 6479,
      "walk": 6480,
      "deaths": 6481,
      "hide": 6482,
      "journalist": 6483,
      "cum": 6484,
      "criterion": 6485,
      "120": 6486,
      "queries": 6487,
      "storm": 6488,
      "cm": 6489,
      "trics": 6490,
      "organisms": 6491,
      "3rd": 6492,
      "edward": 6493,
      "suspic": 6494,
      "1967": 6495,
      "bb": 6496,
      "thinks": 6497,
      "hardly": 6498,
      "hil": 6499,
      "daniel": 6500,
      "rab": 6501,
      "ske": 6502,
      "commented": 6503,
      "killing": 6504,
      "clarify": 6505,
      "guardian": 6506,
      "crimes": 6507,
      "censor": 6508,
      "maker": 6509,
      "findings": 6510,
      "bilities": 6511,
      "controller": 6512,
      "alexander": 6513,
      "popularity": 6514,
      "detected": 6515,
      "ohio": 6516,
      "heads": 6517,
      "mits": 6518,
      "cles": 6519,
      "worry": 6520,
      "typing": 6521,
      "bandwidth": 6522,
      "absor": 6523,
      "genu": 6524,
      "discrimin": 6525,
      "unrelated": 6526,
      "corner": 6527,
      "pilot": 6528,
      "percentage": 6529,
      "ortion": 6530,
      "catalog": 6531,
      "boundary": 6532,
      "itar": 6533,
      "makers": 6534,
      "1971": 6535,
      "emphasis": 6536,
      "adult": 6537,
      "usively": 6538,
      "appoint": 6539,
      "expressions": 6540,
      "beatles": 6541,
      "ria": 6542,
      "contentious": 6543,
      "threads": 6544,
      "championship": 6545,
      "yan": 6546,
      "bby": 6547,
      "stability": 6548,
      "cin": 6549,
      "turk": 6550,
      "occasionally": 6551,
      "trusted": 6552,
      "robust": 6553,
      "pressed": 6554,
      "ghanaian": 6555,
      "pakistan": 6556,
      "implementing": 6557,
      "interact": 6558,
      "participated": 6559,
      "presumably": 6560,
      "commands": 6561,
      "destroyed": 6562,
      "resc": 6563,
      "trained": 6564,
      "sip": 6565,
      "desire": 6566,
      "gments": 6567,
      "sending": 6568,
      "sumed": 6569,
      "anna": 6570,
      "industries": 6571,
      "implic": 6572,
      "strange": 6573,
      "prev": 6574,
      "signs": 6575,
      "visiting": 6576,
      "packet": 6577,
      "graduated": 6578,
      "pets": 6579,
      "interrup": 6580,
      "deno": 6581,
      "gil": 6582,
      "compens": 6583,
      "males": 6584,
      "advantages": 6585,
      "generating": 6586,
      "locate": 6587,
      "cellular": 6588,
      "captured": 6589,
      "apol": 6590,
      "igible": 6591,
      "enhanced": 6592,
      "fixing": 6593,
      "1965": 6594,
      "sampling": 6595,
      "3rr": 6596,
      "gian": 6597,
      "interviews": 6598,
      "apore": 6599,
      "nell": 6600,
      "maryland": 6601,
      "sized": 6602,
      "calc": 6603,
      "invited": 6604,
      "ibly": 6605,
      "outcomes": 6606,
      "lights": 6607,
      "limitations": 6608,
      "shor": 6609,
      "youth": 6610,
      "dozen": 6611,
      "attend": 6612,
      "variations": 6613,
      "ranging": 6614,
      "infer": 6615,
      "calend": 6616,
      "\";": 6617,
      "dum": 6618,
      "passeng": 6619,
      "replic": 6620,
      "greatest": 6621,
      "retired": 6622,
      "complaints": 6623,
      "professionals": 6624,
      "genuine": 6625,
      "iom": 6626,
      "sleep": 6627,
      "mutation": 6628,
      "filters": 6629,
      "harassment": 6630,
      "hz": 6631,
      "broader": 6632,
      "singapore": 6633,
      "holders": 6634,
      "deputy": 6635,
      "128": 6636,
      "accurately": 6637,
      "gay": 6638,
      "vectors": 6639,
      "cooper": 6640,
      "kir": 6641,
      "navig": 6642,
      "influential": 6643,
      "usable": 6644,
      "girls": 6645,
      "lg": 6646,
      "ets": 6647,
      "jpg": 6648,
      "visited": 6649,
      "denied": 6650,
      "carolina": 6651,
      "gov": 6652,
      "spon": 6653,
      "attribute": 6654,
      "hay": 6655,
      "recovery": 6656,
      "sizes": 6657,
      "tray": 6658,
      "assing": 6659,
      "atomic": 6660,
      "excellent": 6661,
      "particle": 6662,
      "yo": 6663,
      "strip": 6664,
      "hypothe": 6665,
      "stad": 6666,
      "iary": 6667,
      "exc": 6668,
      "console": 6669,
      "munic": 6670,
      "sab": 6671,
      "metropolitan": 6672,
      "disab": 6673,
      "mike": 6674,
      "tz": 6675,
      "isto": 6676,
      "manif": 6677,
      "chester": 6678,
      "satur": 6679,
      "semant": 6680,
      "kb": 6681,
      "satisfy": 6682,
      "spain": 6683,
      "designated": 6684,
      "torn": 6685,
      "paths": 6686,
      "instruments": 6687,
      "fans": 6688,
      "optional": 6689,
      "inqu": 6690,
      "consequent": 6691,
      "feeling": 6692,
      "therapy": 6693,
      "adel": 6694,
      "vp": 6695,
      "analyst": 6696,
      "blind": 6697,
      "youn": 6698,
      "ptions": 6699,
      "kee": 6700,
      "compatibility": 6701,
      "edin": 6702,
      "winner": 6703,
      "1966": 6704,
      "ridic": 6705,
      "genre": 6706,
      "assets": 6707,
      "subscrip": 6708,
      "estimates": 6709,
      "browsers": 6710,
      "iled": 6711,
      "81": 6712,
      "floating": 6713,
      "particles": 6714,
      "toxic": 6715,
      "neighborhood": 6716,
      "offensive": 6717,
      "brac": 6718,
      "refused": 6719,
      "mutations": 6720,
      "trop": 6721,
      "risks": 6722,
      "veter": 6723,
      "observations": 6724,
      "modes": 6725,
      "gnu": 6726,
      "palest": 6727,
      "baby": 6728,
      "berlin": 6729,
      "sequencing": 6730,
      "tournam": 6731,
      "consequences": 6732,
      "ush": 6733,
      "oxygen": 6734,
      "63": 6735,
      "alog": 6736,
      "thorough": 6737,
      "clinton": 6738,
      "portals": 6739,
      "entropy": 6740,
      "purely": 6741,
      "bother": 6742,
      "diverse": 6743,
      "attorney": 6744,
      "volt": 6745,
      "explains": 6746,
      "scores": 6747,
      "consisting": 6748,
      "establishment": 6749,
      "exercise": 6750,
      "61": 6751,
      "focusing": 6752,
      "inhib": 6753,
      "icious": 6754,
      "stake": 6755,
      "province": 6756,
      "considerable": 6757,
      "mam": 6758,
      "predicted": 6759,
      "cks": 6760,
      "literally": 6761,
      "ulous": 6762,
      "consumption": 6763,
      "laptop": 6764,
      "convinced": 6765,
      "conferences": 6766,
      "movies": 6767,
      "programmers": 6768,
      "bomb": 6769,
      "penal": 6770,
      "dur": 6771,
      "checks": 6772,
      "separated": 6773,
      "\u0000\u0000\u0000\u0000": 6774,
      "nonsense": 6775,
      "digits": 6776,
      "ndc": 6777,
      "teahouse": 6778,
      "comparing": 6779,
      "onia": 6780,
      "outr": 6781,
      "studying": 6782,
      "ethics": 6783,
      "separately": 6784,
      "differently": 6785,
      "jury": 6786,
      "obsc": 6787,
      "laser": 6788,
      "speakers": 6789,
      "expanding": 6790,
      "authorized": 6791,
      "surprised": 6792,
      "captain": 6793,
      "forcing": 6794,
      "unclear": 6795,
      "correlation": 6796,
      "bund": 6797,
      "resem": 6798,
      "ctive": 6799,
      "preneur": 6800,
      "tay": 6801,
      "agriculture": 6802,
      "preview": 6803,
      "legacy": 6804,
      "gd": 6805,
      ")?": 6806,
      "integrity": 6807,
      "conservation": 6808,
      "ect": 6809,
      "strugg": 6810,
      "itories": 6811,
      "1964": 6812,
      "tons": 6813,
      "inputs": 6814,
      "entrepreneur": 6815,
      "weekly": 6816,
      "105": 6817,
      "83": 6818,
      "trace": 6819,
      "organic": 6820,
      "journalists": 6821,
      "jar": 6822,
      "suite": 6823,
      "menu": 6824,
      "installation": 6825,
      "gang": 6826,
      "introduce": 6827,
      "guarante": 6828,
      "stages": 6829,
      "editions": 6830,
      "tum": 6831,
      "possess": 6832,
      "cash": 6833,
      "bered": 6834,
      "imal": 6835,
      "faced": 6836,
      "foo": 6837,
      "roads": 6838,
      "crowd": 6839,
      "gary": 6840,
      "scholarship": 6841,
      "notices": 6842,
      "cube": 6843,
      "82": 6844,
      "gray": 6845,
      "proves": 6846,
      "facilitate": 6847,
      "constituency": 6848,
      "transcl": 6849,
      "suffer": 6850,
      "cf": 6851,
      "theme": 6852,
      "clim": 6853,
      "ura": 6854,
      "guest": 6855,
      "clicking": 6856,
      "crack": 6857,
      "sheet": 6858,
      "golden": 6859,
      "distributions": 6860,
      "justified": 6861,
      "reviewers": 6862,
      "evolved": 6863,
      "fusion": 6864,
      "kent": 6865,
      "conform": 6866,
      "1st": 6867,
      "mosco": 6868,
      "crew": 6869,
      "strictly": 6870,
      "],": 6871,
      "indicating": 6872,
      "advisory": 6873,
      "gallery": 6874,
      "scotland": 6875,
      "pad": 6876,
      "deployed": 6877,
      "dict": 6878,
      "observation": 6879,
      "upgrad": 6880,
      "glad": 6881,
      "believes": 6882,
      "heading": 6883,
      "shel": 6884,
      "trials": 6885,
      "witness": 6886,
      "crete": 6887,
      "versus": 6888,
      "reviewing": 6889,
      "theast": 6890,
      "ala": 6891,
      "bench": 6892,
      "emails": 6893,
      "blow": 6894,
      "okay": 6895,
      "investigations": 6896,
      "agenda": 6897,
      "undue": 6898,
      "uninvolved": 6899,
      "commo": 6900,
      "perception": 6901,
      "supplement": 6902,
      "carl": 6903,
      "producer": 6904,
      "judgment": 6905,
      "qualify": 6906,
      "analyze": 6907,
      "saf": 6908,
      "pent": 6909,
      "branches": 6910,
      "encoun": 6911,
      "nationally": 6912,
      "directors": 6913,
      "copyrighted": 6914,
      "manufacturers": 6915,
      "neutrality": 6916,
      "unsuitable": 6917,
      "fixes": 6918,
      "simpler": 6919,
      "budd": 6920,
      "ena": 6921,
      "marriage": 6922,
      "invalid": 6923,
      "soldiers": 6924,
      "mature": 6925,
      "76": 6926,
      "profiles": 6927,
      "adjacent": 6928,
      "belongs": 6929,
      "settlement": 6930,
      "phis": 6931,
      "lihood": 6932,
      "banner": 6933,
      "moscow": 6934,
      "cycles": 6935,
      "goods": 6936,
      "revers": 6937,
      "afford": 6938,
      "vertical": 6939,
      "stere": 6940,
      "liz": 6941,
      "calculations": 6942,
      "72": 6943,
      "pending": 6944,
      "cites": 6945,
      "registers": 6946,
      "ini": 6947,
      "hoc": 6948,
      "fluid": 6949,
      "burn": 6950,
      "qualified": 6951,
      "superi": 6952,
      "computed": 6953,
      "scat": 6954,
      "participating": 6955,
      "nearby": 6956,
      "neo": 6957,
      "patents": 6958,
      "voc": 6959,
      "compr": 6960,
      "attitude": 6961,
      "rc": 6962,
      "historically": 6963,
      "saving": 6964,
      "calculate": 6965,
      "obscure": 6966,
      "blogs": 6967,
      "behalf": 6968,
      "courts": 6969,
      "linguistics": 6970,
      "employee": 6971,
      "consistently": 6972,
      "abc": 6973,
      "ilst": 6974,
      "fell": 6975,
      "tens": 6976,
      "layers": 6977,
      "arrested": 6978,
      "mond": 6979,
      "shares": 6980,
      "constantly": 6981,
      "orange": 6982,
      "guarantee": 6983,
      "communist": 6984,
      "robotics": 6985,
      "jay": 6986,
      "dry": 6987,
      "compliance": 6988,
      "reputable": 6989,
      "haw": 6990,
      "movements": 6991,
      "ua": 6992,
      "literary": 6993,
      "kno": 6994,
      "bie": 6995,
      "permitted": 6996,
      "reaching": 6997,
      "intervention": 6998,
      "chen": 6999,
      "corrected": 7000,
      "bought": 7001,
      "doz": 7002,
      "malware": 7003,
      "inserted": 7004,
      "saint": 7005,
      "steve": 7006,
      "ethical": 7007,
      "initiated": 7008,
      "printer": 7009,
      "useless": 7010,
      "ifiers": 7011,
      "shorter": 7012,
      "geno": 7013,
      "kan": 7014,
      "fection": 7015,
      "coach": 7016,
      "amendment": 7017,
      "cleanup": 7018,
      "tically": 7019,
      "firms": 7020,
      "virtually": 7021,
      "emerging": 7022,
      "grown": 7023,
      "decrease": 7024,
      "whilst": 7025,
      "genus": 7026,
      "stephen": 7027,
      "casts": 7028,
      "ell": 7029,
      "null": 7030,
      "mayor": 7031,
      "tagging": 7032,
      "eg": 7033,
      "thereby": 7034,
      "alumni": 7035,
      "commerce": 7036,
      "exclusively": 7037,
      "implicit": 7038,
      "oct": 7039,
      "agrees": 7040,
      "mell": 7041,
      "escape": 7042,
      "oked": 7043,
      "nether": 7044,
      "agen": 7045,
      "exposed": 7046,
      "precedent": 7047,
      "bia": 7048,
      "comics": 7049,
      "monthly": 7050,
      "chor": 7051,
      "withdraw": 7052,
      "intersection": 7053,
      "1930": 7054,
      "enabling": 7055,
      "sees": 7056,
      "blat": 7057,
      "sorting": 7058,
      "vague": 7059,
      "ignoring": 7060,
      "sophistic": 7061,
      "kim": 7062,
      "manus": 7063,
      "adaptive": 7064,
      "poland": 7065,
      "deemed": 7066,
      "bird": 7067,
      "dm": 7068,
      "affiliated": 7069,
      "gaz": 7070,
      "ski": 7071,
      "wear": 7072,
      "correction": 7073,
      "periods": 7074,
      "alignment": 7075,
      "liquid": 7076,
      "basket": 7077,
      "bureaucr": 7078,
      "troll": 7079,
      "loading": 7080,
      "sympto": 7081,
      "taiwan": 7082,
      "provin": 7083,
      "talkpage": 7084,
      "licensing": 7085,
      "seat": 7086,
      "pher": 7087,
      "playstation": 7088,
      "violating": 7089,
      "authentication": 7090,
      "berry": 7091,
      "journalism": 7092,
      "waves": 7093,
      "bloom": 7094,
      "meaningful": 7095,
      "ambiguous": 7096,
      "lang": 7097,
      "moral": 7098,
      "wound": 7099,
      "seed": 7100,
      "ropo": 7101,
      "referencing": 7102,
      "exclusive": 7103,
      "alliance": 7104,
      "vit": 7105,
      "veloc": 7106,
      "regulatory": 7107,
      "ukrainian": 7108,
      "aska": 7109,
      "bands": 7110,
      "atically": 7111,
      "locally": 7112,
      "watching": 7113,
      "decline": 7114,
      "1945": 7115,
      "selective": 7116,
      "railway": 7117,
      "edinburgh": 7118,
      "ez": 7119,
      "intern": 7120,
      "arians": 7121,
      "calendar": 7122,
      "sher": 7123,
      "relational": 7124,
      "descriptions": 7125,
      "agricultural": 7126,
      "calculation": 7127,
      "tiny": 7128,
      "icide": 7129,
      "violate": 7130,
      "tower": 7131,
      "burden": 7132,
      "reduces": 7133,
      "notification": 7134,
      "protecting": 7135,
      "ambass": 7136,
      "atories": 7137,
      "kn": 7138,
      "gab": 7139,
      "lia": 7140,
      "feels": 7141,
      "accum": 7142,
      "fon": 7143,
      "rf": 7144,
      "itors": 7145,
      "imposed": 7146,
      "systematic": 7147,
      "legally": 7148,
      "guitar": 7149,
      "bn": 7150,
      "ranged": 7151,
      "indexed": 7152,
      "dozens": 7153,
      "buffer": 7154,
      "viewing": 7155,
      "1960": 7156,
      "backed": 7157,
      "superior": 7158,
      "inspe": 7159,
      "semantics": 7160,
      "sight": 7161,
      "confidence": 7162,
      "tang": 7163,
      "eliminate": 7164,
      "mud": 7165,
      "stup": 7166,
      "stronger": 7167,
      "switching": 7168,
      "concrete": 7169,
      "objection": 7170,
      "spell": 7171,
      "cler": 7172,
      "inet": 7173,
      "upr": 7174,
      "permit": 7175,
      "spoken": 7176,
      "lens": 7177,
      "comed": 7178,
      "isan": 7179,
      "spar": 7180,
      "spher": 7181,
      "convenient": 7182,
      "evident": 7183,
      "designer": 7184,
      "battery": 7185,
      "jackson": 7186,
      "apt": 7187,
      "mere": 7188,
      "iac": 7189,
      "multim": 7190,
      "ride": 7191,
      "remed": 7192,
      "completion": 7193,
      "processed": 7194,
      "characteristic": 7195,
      "sie": 7196,
      "phenomenon": 7197,
      "sponsored": 7198,
      "heim": 7199,
      "additions": 7200,
      "challenged": 7201,
      "settled": 7202,
      "bian": 7203,
      "relevance": 7204,
      "intermediate": 7205,
      "dio": 7206,
      "appearing": 7207,
      "deprec": 7208,
      "returning": 7209,
      "ulum": 7210,
      "liver": 7211,
      "bounded": 7212,
      "mans": 7213,
      "rural": 7214,
      "bigger": 7215,
      "mount": 7216,
      "eliza": 7217,
      "entering": 7218,
      "annot": 7219,
      "labels": 7220,
      "reserve": 7221,
      "remind": 7222,
      "anymore": 7223,
      "mini": 7224,
      "placement": 7225,
      "balanced": 7226,
      "academics": 7227,
      "assertion": 7228,
      "repository": 7229,
      "oul": 7230,
      "similarity": 7231,
      "iday": 7232,
      "powered": 7233,
      "noting": 7234,
      "requesting": 7235,
      "efficiently": 7236,
      "osing": 7237,
      "whel": 7238,
      "sons": 7239,
      "kat": 7240,
      "aggress": 7241,
      "vocal": 7242,
      "senator": 7243,
      "crypt": 7244,
      "arabic": 7245,
      "broke": 7246,
      "translations": 7247,
      "dangerous": 7248,
      "93": 7249,
      "cach": 7250,
      "meat": 7251,
      "runtime": 7252,
      "explorer": 7253,
      "forens": 7254,
      "evaluated": 7255,
      "collective": 7256,
      "78": 7257,
      "likewise": 7258,
      "integers": 7259,
      "wt": 7260,
      "aded": 7261,
      "wikil": 7262,
      "ghan": 7263,
      "dealt": 7264,
      "logists": 7265,
      "encyclopa": 7266,
      "orientation": 7267,
      "subjective": 7268,
      "concentration": 7269,
      "zilla": 7270,
      "physi": 7271,
      "accomplish": 7272,
      "hart": 7273,
      "likelihood": 7274,
      "spending": 7275,
      "characterized": 7276,
      "convex": 7277,
      "scottish": 7278,
      "beaut": 7279,
      "crib": 7280,
      "marking": 7281,
      "fis": 7282,
      "onic": 7283,
      "trend": 7284,
      "studios": 7285,
      "beliefs": 7286,
      "desir": 7287,
      "episodes": 7288,
      "tos": 7289,
      "examination": 7290,
      "arrays": 7291,
      "magazines": 7292,
      "competitive": 7293,
      "cope": 7294,
      "brings": 7295,
      "consort": 7296,
      "glas": 7297,
      "payment": 7298,
      "pixels": 7299,
      "stro": 7300,
      "uding": 7301,
      "curric": 7302,
      "negoti": 7303,
      "maintains": 7304,
      "fantasy": 7305,
      "mirror": 7306,
      "developments": 7307,
      "authored": 7308,
      "featuring": 7309,
      "tip": 7310,
      "investigate": 7311,
      "92": 7312,
      "netherlands": 7313,
      "incidents": 7314,
      "outstanding": 7315,
      "ruled": 7316,
      "malicious": 7317,
      "empir": 7318,
      "mg": 7319,
      "omit": 7320,
      "forget": 7321,
      "drew": 7322,
      "imperial": 7323,
      "arthur": 7324,
      "redundant": 7325,
      "simon": 7326,
      "mol": 7327,
      "ogen": 7328,
      "inverse": 7329,
      "recommendations": 7330,
      "tok": 7331,
      "tornado": 7332,
      "transparent": 7333,
      "sorted": 7334,
      "nbc": 7335,
      "accounting": 7336,
      "enemy": 7337,
      "stret": 7338,
      "dash": 7339,
      "ched": 7340,
      "visualization": 7341,
      "dee": 7342,
      "poster": 7343,
      "deals": 7344,
      "rollback": 7345,
      "aqu": 7346,
      "canon": 7347,
      "grey": 7348,
      "taxonom": 7349,
      "logs": 7350,
      "advances": 7351,
      "dvd": 7352,
      "bury": 7353,
      "singer": 7354,
      "joining": 7355,
      "aes": 7356,
      "provis": 7357,
      "shr": 7358,
      "compact": 7359,
      "scand": 7360,
      "overwhel": 7361,
      "mentioning": 7362,
      "markup": 7363,
      "ender": 7364,
      "shock": 7365,
      "merging": 7366,
      "questionable": 7367,
      "packages": 7368,
      "briefly": 7369,
      "disc": 7370,
      "lacking": 7371,
      "scheduled": 7372,
      "jet": 7373,
      "combine": 7374,
      "bage": 7375,
      "behavioral": 7376,
      "tends": 7377,
      "artif": 7378,
      "indef": 7379,
      "naval": 7380,
      "listen": 7381,
      "intu": 7382,
      "assumptions": 7383,
      "failing": 7384,
      "circuits": 7385,
      "stupid": 7386,
      "methodology": 7387,
      "nsa": 7388,
      "conclusions": 7389,
      "ranges": 7390,
      "terrorist": 7391,
      "breaks": 7392,
      "rendered": 7393,
      "judgement": 7394,
      "ruling": 7395,
      "advise": 7396,
      "1920": 7397,
      "folks": 7398,
      "propaganda": 7399,
      "choices": 7400,
      "sorts": 7401,
      "colorado": 7402,
      "frankly": 7403,
      "deployment": 7404,
      "atlantic": 7405,
      "feasible": 7406,
      "lith": 7407,
      "extensively": 7408,
      "rewrite": 7409,
      "acknowledge": 7410,
      "gul": 7411,
      "orn": 7412,
      "symptoms": 7413,
      "namely": 7414,
      "punish": 7415,
      "comparable": 7416,
      "matrices": 7417,
      "amate": 7418,
      "williams": 7419,
      "coordinate": 7420,
      "meanwhile": 7421,
      "alternatively": 7422,
      "tutor": 7423,
      "\"),": 7424,
      "ora": 7425,
      "centur": 7426,
      "otic": 7427,
      "smooth": 7428,
      "reactions": 7429,
      "allocation": 7430,
      "usb": 7431,
      "avoided": 7432,
      "choosing": 7433,
      "bases": 7434,
      "breed": 7435,
      "toronto": 7436,
      "estate": 7437,
      "aux": 7438,
      "defeat": 7439,
      "historian": 7440,
      "facing": 7441,
      "ey": 7442,
      "pitch": 7443,
      "styles": 7444,
      "aks": 7445,
      "adults": 7446,
      "heter": 7447,
      "frequencies": 7448,
      "compilation": 7449,
      "hoping": 7450,
      "jean": 7451,
      "arrived": 7452,
      "issions": 7453,
      "spa": 7454,
      "restrict": 7455,
      "discipline": 7456,
      "lum": 7457,
      "elli": 7458,
      "awa": 7459,
      "fcc": 7460,
      "connecting": 7461,
      "scenario": 7462,
      "theatre": 7463,
      "lawsuit": 7464,
      "integral": 7465,
      "opt": 7466,
      "preceding": 7467,
      "preventing": 7468,
      "retrieval": 7469,
      "backup": 7470,
      "dialect": 7471,
      "algebraic": 7472,
      "mt": 7473,
      "personality": 7474,
      "nominations": 7475,
      "ras": 7476,
      "tight": 7477,
      "brian": 7478,
      "pharm": 7479,
      "fictional": 7480,
      "aka": 7481,
      "duration": 7482,
      "ativity": 7483,
      "lem": 7484,
      "weapon": 7485,
      "tissue": 7486,
      "corps": 7487,
      "94": 7488,
      "finity": 7489,
      "labour": 7490,
      "escal": 7491,
      "interference": 7492,
      "gis": 7493,
      "wilson": 7494,
      "labeled": 7495,
      "prints": 7496,
      "assa": 7497,
      "accordingly": 7498,
      "-:": 7499,
      "lun": 7500,
      "uous": 7501,
      "remark": 7502,
      "offline": 7503,
      "raising": 7504,
      "flows": 7505,
      "naturally": 7506,
      "photographs": 7507,
      "silly": 7508,
      "albums": 7509,
      "pleas": 7510,
      "transparen": 7511,
      "amongst": 7512,
      "ridge": 7513,
      "pill": 7514,
      "ester": 7515,
      "governance": 7516,
      "persistent": 7517,
      "opposing": 7518,
      "taylor": 7519,
      "partly": 7520,
      "losing": 7521,
      "equipped": 7522,
      "surprising": 7523,
      "oo": 7524,
      "ares": 7525,
      "fragment": 7526,
      "segments": 7527,
      "talks": 7528,
      "copyvio": 7529,
      "itable": 7530,
      "irus": 7531,
      "violated": 7532,
      "boundaries": 7533,
      "esian": 7534,
      "realistic": 7535,
      "walls": 7536,
      "generator": 7537,
      "castle": 7538,
      "bally": 7539,
      "eigen": 7540,
      "streaming": 7541,
      "updating": 7542,
      "flexible": 7543,
      "receiver": 7544,
      "biographical": 7545,
      "sony": 7546,
      "geography": 7547,
      "sium": 7548,
      "scrut": 7549,
      "routing": 7550,
      "implications": 7551,
      "femin": 7552,
      "scenes": 7553,
      "disciplinary": 7554,
      "rotation": 7555,
      "corruption": 7556,
      "inline": 7557,
      "encoded": 7558,
      "engaging": 7559,
      "colleagues": 7560,
      "brevi": 7561,
      "vista": 7562,
      "cryptography": 7563,
      "revised": 7564,
      "ivo": 7565,
      "sophisticated": 7566,
      "headed": 7567,
      "cuts": 7568,
      "combining": 7569,
      "bull": 7570,
      "centuries": 7571,
      "itarian": 7572,
      "miles": 7573,
      "picked": 7574,
      "emo": 7575,
      "gross": 7576,
      "rho": 7577,
      "thro": 7578,
      "bone": 7579,
      "soil": 7580,
      "vessel": 7581,
      "copying": 7582,
      "guilty": 7583,
      "censorship": 7584,
      "mw": 7585,
      "ancing": 7586,
      "routes": 7587,
      "yahoo": 7588,
      "leaf": 7589,
      "nasty": 7590,
      "garden": 7591,
      "consequently": 7592,
      "vital": 7593,
      "repair": 7594,
      "beach": 7595,
      "weren": 7596,
      "representations": 7597,
      "export": 7598,
      "electricity": 7599,
      "transparency": 7600,
      "varying": 7601,
      "locked": 7602,
      "realized": 7603,
      "desirable": 7604,
      "tin": 7605,
      "debug": 7606,
      "poe": 7607,
      "islamic": 7608,
      "announcement": 7609,
      "amino": 7610,
      "steam": 7611,
      "execute": 7612,
      "loads": 7613,
      "biden": 7614,
      "atmosphere": 7615,
      "echo": 7616,
      "rics": 7617,
      "squares": 7618,
      "clos": 7619,
      "documentary": 7620,
      "democracy": 7621,
      "ceremon": 7622,
      "voltage": 7623,
      "cen": 7624,
      "organisations": 7625,
      "preserve": 7626,
      "alert": 7627,
      "resort": 7628,
      "ordering": 7629,
      "answered": 7630,
      "afds": 7631,
      "basketball": 7632,
      "sile": 7633,
      "metabol": 7634,
      "troops": 7635,
      "uss": 7636,
      "anc": 7637,
      "generates": 7638,
      "husband": 7639,
      "abbrevi": 7640,
      "cnn": 7641,
      "eness": 7642,
      "supporters": 7643,
      "anthropo": 7644,
      "prevention": 7645,
      "towns": 7646,
      "rian": 7647,
      "forming": 7648,
      "circular": 7649,
      "wolf": 7650,
      "gery": 7651,
      "revisions": 7652,
      "gif": 7653,
      "refr": 7654,
      "protests": 7655,
      "opera": 7656,
      "aling": 7657,
      "brew": 7658,
      "machin": 7659,
      "advocacy": 7660,
      "fet": 7661,
      "indirect": 7662,
      "architectures": 7663,
      "notified": 7664,
      "petition": 7665,
      "abandoned": 7666,
      "comfortable": 7667,
      "disabled": 7668,
      "casual": 7669,
      "immigration": 7670,
      "proport": 7671,
      "terminology": 7672,
      "counted": 7673,
      "cipher": 7674,
      "schedule": 7675,
      "tap": 7676,
      "elev": 7677,
      "residence": 7678,
      "1962": 7679,
      "csd": 7680,
      "egg": 7681,
      "garian": 7682,
      "successor": 7683,
      "asym": 7684,
      "hierarchy": 7685,
      "schemes": 7686,
      "hired": 7687,
      "volunt": 7688,
      "cutting": 7689,
      "constraint": 7690,
      "acknowledged": 7691,
      "det": 7692,
      "unk": 7693,
      "haust": 7694,
      "lowest": 7695,
      "managers": 7696,
      "sop": 7697,
      "indigen": 7698,
      "warm": 7699,
      "humanities": 7700,
      "1961": 7701,
      "harrison": 7702,
      "ials": 7703,
      "randomly": 7704,
      "homes": 7705,
      "suspected": 7706,
      "compass": 7707,
      "riers": 7708,
      "opens": 7709,
      "exhaust": 7710,
      "silicon": 7711,
      "aero": 7712,
      "itz": 7713,
      "carto": 7714,
      "insight": 7715,
      "1963": 7716,
      "dic": 7717,
      "singular": 7718,
      "arer": 7719,
      "advised": 7720,
      "ontology": 7721,
      "cker": 7722,
      "geometric": 7723,
      "din": 7724,
      "batch": 7725,
      "unity": 7726,
      "feet": 7727,
      "aken": 7728,
      "laid": 7729,
      "constitutional": 7730,
      "sockpuppet": 7731,
      "membr": 7732,
      "ique": 7733,
      "macro": 7734,
      "wart": 7735,
      "71": 7736,
      "advocate": 7737,
      "omer": 7738,
      "tropical": 7739,
      "measuring": 7740,
      "isolated": 7741,
      "1959": 7742,
      "calculus": 7743,
      "transcription": 7744,
      "ridiculous": 7745,
      "galax": 7746,
      "uan": 7747,
      "rer": 7748,
      "pronoun": 7749,
      "inference": 7750,
      "overview": 7751,
      "finish": 7752,
      "velocity": 7753,
      "iry": 7754,
      "dollars": 7755,
      "triangle": 7756,
      "thetic": 7757,
      "ipher": 7758,
      "receives": 7759,
      "mate": 7760,
      "ctr": 7761,
      "librarian": 7762,
      "clusters": 7763,
      "destination": 7764,
      "meetings": 7765,
      "searched": 7766,
      "coron": 7767,
      "btw": 7768,
      "subscription": 7769,
      "disciplines": 7770,
      "scul": 7771,
      "nominator": 7772,
      "cot": 7773,
      "invari": 7774,
      "federation": 7775,
      "modification": 7776,
      "brad": 7777,
      "indigenous": 7778,
      "twel": 7779,
      "orm": 7780,
      "abbr": 7781,
      "objections": 7782,
      "nazi": 7783,
      "consequence": 7784,
      "afraid": 7785,
      "arizon": 7786,
      "generalized": 7787,
      "honestly": 7788,
      "eat": 7789,
      "consent": 7790,
      "comic": 7791,
      "boys": 7792,
      "relate": 7793,
      "retire": 7794,
      "tournament": 7795,
      "secut": 7796,
      "dod": 7797,
      "instant": 7798,
      "psychological": 7799,
      "separation": 7800,
      "logically": 7801,
      "1948": 7802,
      "fabric": 7803,
      "divide": 7804,
      "110": 7805,
      "genealog": 7806,
      "newton": 7807,
      "graduates": 7808,
      "broadcasting": 7809,
      "trigger": 7810,
      "laboratories": 7811,
      "carrying": 7812,
      "arizona": 7813,
      "vendors": 7814,
      "reflected": 7815,
      "lisp": 7816,
      "trends": 7817,
      "amin": 7818,
      "quit": 7819,
      "metry": 7820,
      "societies": 7821,
      "stimul": 7822,
      "quantity": 7823,
      "linguistic": 7824,
      "tall": 7825,
      "79": 7826,
      "portray": 7827,
      "performs": 7828,
      "mediation": 7829,
      "pson": 7830,
      "portable": 7831,
      "genetics": 7832,
      "interior": 7833,
      "slowly": 7834,
      "infoboxes": 7835,
      "deliberately": 7836,
      "fib": 7837,
      "venues": 7838,
      "dil": 7839,
      "pip": 7840,
      "exem": 7841,
      "variance": 7842,
      "sessions": 7843,
      "nobel": 7844,
      "salt": 7845,
      "1950s": 7846,
      "magnitude": 7847,
      "racial": 7848,
      "curious": 7849,
      "turkey": 7850,
      "princeton": 7851,
      "disser": 7852,
      "bis": 7853,
      "birds": 7854,
      "augment": 7855,
      "introducing": 7856,
      "satisfied": 7857,
      "nr": 7858,
      "directions": 7859,
      "preserved": 7860,
      "uncertainty": 7861,
      "oma": 7862,
      "mixt": 7863,
      "responding": 7864,
      "yester": 7865,
      "73": 7866,
      "cze": 7867,
      "treaty": 7868,
      "iteration": 7869,
      "gravity": 7870,
      "lix": 7871,
      "narrative": 7872,
      "rif": 7873,
      "encrypted": 7874,
      "legend": 7875,
      "lawyer": 7876,
      "advisor": 7877,
      "saudi": 7878,
      "guys": 7879,
      "substance": 7880,
      "varies": 7881,
      "origins": 7882,
      "conventions": 7883,
      "snap": 7884,
      "outlets": 7885,
      "attacked": 7886,
      "scheduling": 7887,
      "iga": 7888,
      "ometric": 7889,
      "upgrade": 7890,
      "physic": 7891,
      "telecommunications": 7892,
      "oft": 7893,
      "heur": 7894,
      "intendo": 7895,
      "bans": 7896,
      "grants": 7897,
      "persu": 7898,
      "supervised": 7899,
      "amateur": 7900,
      "excessive": 7901,
      "elizabeth": 7902,
      "disney": 7903,
      "deletions": 7904,
      "declaration": 7905,
      "horizontal": 7906,
      "orous": 7907,
      "isons": 7908,
      "cured": 7909,
      "delta": 7910,
      "relies": 7911,
      "scratch": 7912,
      "acou": 7913,
      "drum": 7914,
      "alco": 7915,
      "700": 7916,
      "dney": 7917,
      "gus": 7918,
      "provision": 7919,
      "gameplay": 7920,
      "rankings": 7921,
      "spons": 7922,
      "engagement": 7923,
      "andre": 7924,
      "victoria": 7925,
      "xbox": 7926,
      "supplied": 7927,
      "paradig": 7928,
      "hans": 7929,
      "bacteria": 7930,
      "minis": 7931,
      "ading": 7932,
      "merits": 7933,
      "shadow": 7934,
      "stereo": 7935,
      "nl": 7936,
      "argues": 7937,
      "pascal": 7938,
      "gly": 7939,
      "png": 7940,
      "stead": 7941,
      "clue": 7942,
      "visitors": 7943,
      "caution": 7944,
      "armen": 7945,
      "dal": 7946,
      "conditional": 7947,
      "yesterday": 7948,
      "enet": 7949,
      "stig": 7950,
      "emit": 7951,
      "avoiding": 7952,
      "conject": 7953,
      "compile": 7954,
      "adapted": 7955,
      "allen": 7956,
      "cricket": 7957,
      "municipal": 7958,
      "latt": 7959,
      "temporal": 7960,
      "discretion": 7961,
      "invasion": 7962,
      "adapt": 7963,
      "oblig": 7964,
      "examine": 7965,
      "surfaces": 7966,
      "crossing": 7967,
      "coeffic": 7968,
      "inson": 7969,
      "consortium": 7970,
      "hotel": 7971,
      "specim": 7972,
      "paying": 7973,
      "coefficients": 7974,
      "gib": 7975,
      "missile": 7976,
      "suring": 7977,
      "shield": 7978,
      "mathematician": 7979,
      "publishes": 7980,
      "74": 7981,
      "uge": 7982,
      "conjunction": 7983,
      "pub": 7984,
      "miller": 7985,
      "conceptual": 7986,
      "prototype": 7987,
      "temporarily": 7988,
      "defeated": 7989,
      "decent": 7990,
      "ultimate": 7991,
      "dit": 7992,
      "affects": 7993,
      "anticip": 7994,
      "hydrogen": 7995,
      "unesco": 7996,
      "springer": 7997,
      "tony": 7998,
      "stats": 7999,
      "trait": 8000,
      "ipv": 8001,
      "elab": 8002,
      "outer": 8003,
      "plag": 8004,
      "transmitted": 8005,
      "ula": 8006,
      "evil": 8007,
      "historians": 8008,
      "pig": 8009,
      "diet": 8010,
      "arrangement": 8011,
      "disagreement": 8012,
      "sustainable": 8013,
      "radical": 8014,
      "accusation": 8015,
      "icode": 8016,
      "rh": 8017,
      "weird": 8018,
      "recipient": 8019,
      "skip": 8020,
      "filtering": 8021,
      "adventure": 8022,
      "descent": 8023,
      "recursive": 8024,
      "ilton": 8025,
      "squad": 8026,
      "erb": 8027,
      "pel": 8028,
      "cla": 8029,
      "phar": 8030,
      "crown": 8031,
      "athe": 8032,
      "yn": 8033,
      "unacceptable": 8034,
      "ordination": 8035,
      "suicide": 8036,
      "overlap": 8037,
      "distances": 8038,
      "slav": 8039,
      "ein": 8040,
      "considers": 8041,
      "vandals": 8042,
      "jacob": 8043,
      "itivity": 8044,
      "arranged": 8045,
      "nets": 8046,
      "duke": 8047,
      "refs": 8048,
      "thick": 8049,
      "pull": 8050,
      "swedish": 8051,
      "batt": 8052,
      "ogene": 8053,
      "angles": 8054,
      "emerged": 8055,
      "boost": 8056,
      "devi": 8057,
      "inks": 8058,
      "kil": 8059,
      "puts": 8060,
      "deterministic": 8061,
      "targeting": 8062,
      "91": 8063,
      "llers": 8064,
      "comply": 8065,
      "proxy": 8066,
      "justification": 8067,
      "aj": 8068,
      "slower": 8069,
      "lav": 8070,
      "adoption": 8071,
      "posing": 8072,
      "smallest": 8073,
      "analyzed": 8074,
      "cb": 8075,
      "arise": 8076,
      "bub": 8077,
      "1949": 8078,
      "convicted": 8079,
      "disclosed": 8080,
      "estimation": 8081,
      "chamber": 8082,
      "specialist": 8083,
      "simulations": 8084,
      "occupied": 8085,
      "afghan": 8086,
      "cking": 8087,
      "constitute": 8088,
      "ltd": 8089,
      "nintendo": 8090,
      "ui": 8091,
      "hex": 8092,
      "cancell": 8093,
      "approximate": 8094,
      "restaur": 8095,
      "carneg": 8096,
      "occurring": 8097,
      "corresponds": 8098,
      "switched": 8099,
      "herself": 8100,
      "petry": 8101,
      "geon": 8102,
      "effectiveness": 8103,
      "combinator": 8104,
      "masters": 8105,
      "survive": 8106,
      "tering": 8107,
      "centralized": 8108,
      "eman": 8109,
      "clip": 8110,
      "certified": 8111,
      "carnegie": 8112,
      "fruit": 8113,
      "interpol": 8114,
      "davis": 8115,
      "hacking": 8116,
      "oke": 8117,
      "legislative": 8118,
      "photography": 8119,
      "indefinitely": 8120,
      "fp": 8121,
      "holoc": 8122,
      "x86": 8123,
      "ilibr": 8124,
      "mistaken": 8125,
      "wikipedias": 8126,
      "endorse": 8127,
      "peo": 8128,
      "animated": 8129,
      "consciousness": 8130,
      "ease": 8131,
      "shaped": 8132,
      "plastic": 8133,
      "dish": 8134,
      "andy": 8135,
      "politicians": 8136,
      "semic": 8137,
      "strengthen": 8138,
      "lod": 8139,
      "rud": 8140,
      "devoted": 8141,
      "forums": 8142,
      "professors": 8143,
      "victory": 8144,
      "gt": 8145,
      "coder": 8146,
      "innovative": 8147,
      "temple": 8148,
      "membrane": 8149,
      "juni": 8150,
      "histories": 8151,
      "consulting": 8152,
      "fron": 8153,
      "steel": 8154,
      "quantitative": 8155,
      "cill": 8156,
      "treas": 8157,
      "1954": 8158,
      "derivative": 8159,
      "luc": 8160,
      "excellence": 8161,
      "asi": 8162,
      "lib": 8163,
      "exponential": 8164,
      "dick": 8165,
      "kick": 8166,
      "younger": 8167,
      "begun": 8168,
      "elementary": 8169,
      "inno": 8170,
      "inaccurate": 8171,
      "poser": 8172,
      "rhe": 8173,
      "plements": 8174,
      "unified": 8175,
      "dragon": 8176,
      "fined": 8177,
      "bulk": 8178,
      "manufacturer": 8179,
      "undo": 8180,
      "chips": 8181,
      "miner": 8182,
      "median": 8183,
      "casting": 8184,
      "1956": 8185,
      "integrate": 8186,
      "manipulation": 8187,
      "examined": 8188,
      "incomplete": 8189,
      "corp": 8190,
      "commander": 8191,
      "fork": 8192,
      "foundations": 8193,
      "gradually": 8194,
      "stoch": 8195,
      "flying": 8196,
      "ende": 8197,
      "facto": 8198,
      "acceptance": 8199,
      "credits": 8200,
      "aya": 8201,
      "earthqu": 8202,
      "howard": 8203,
      "everybody": 8204,
      "prede": 8205,
      "botan": 8206,
      "phosp": 8207,
      "fasc": 8208,
      "pier": 8209,
      "accusing": 8210,
      "dn": 8211,
      "zip": 8212,
      "beneficial": 8213,
      "fuzz": 8214,
      "quadr": 8215,
      "lining": 8216,
      "suddenly": 8217,
      "dont": 8218,
      "1957": 8219,
      "faction": 8220,
      "acquire": 8221,
      "neurons": 8222,
      "mars": 8223,
      "analyses": 8224,
      "modelling": 8225,
      "broadly": 8226,
      "agan": 8227,
      "anton": 8228,
      "invention": 8229,
      "traditionally": 8230,
      "atoms": 8231,
      "charts": 8232,
      "predecess": 8233,
      "trim": 8234,
      "shi": 8235,
      "logarith": 8236,
      "modular": 8237,
      "alternatives": 8238,
      "barr": 8239,
      "symmetric": 8240,
      "investigated": 8241,
      "achievement": 8242,
      "analyzing": 8243,
      "disorder": 8244,
      "nish": 8245,
      "multip": 8246,
      "vietnam": 8247,
      "retained": 8248,
      "sends": 8249,
      "dyk": 8250,
      "philosophical": 8251,
      "plaus": 8252,
      "migration": 8253,
      "multimedia": 8254,
      "surgery": 8255,
      "duty": 8256,
      "ontar": 8257,
      "respected": 8258,
      "succeeded": 8259,
      "ugu": 8260,
      "counsel": 8261,
      "algorithmic": 8262,
      "poem": 8263,
      "hai": 8264,
      "centric": 8265,
      "startup": 8266,
      "diego": 8267,
      "gps": 8268,
      "cultures": 8269,
      "synon": 8270,
      "scop": 8271,
      "seas": 8272,
      "congression": 8273,
      "chell": 8274,
      "discrimination": 8275,
      "nich": 8276,
      "equilibr": 8277,
      "commitment": 8278,
      "lac": 8279,
      "emper": 8280,
      "bott": 8281,
      "certification": 8282,
      "bron": 8283,
      "recommendation": 8284,
      "ether": 8285,
      "substantially": 8286,
      "sweden": 8287,
      "bip": 8288,
      "competing": 8289,
      "prospect": 8290,
      "demands": 8291,
      "challenging": 8292,
      "motivated": 8293,
      "philippines": 8294,
      "insufficient": 8295,
      "cule": 8296,
      "reportedly": 8297,
      "tie": 8298,
      "wikit": 8299,
      "sunday": 8300,
      "emotional": 8301,
      "santa": 8302,
      "xi": 8303,
      "gel": 8304,
      "compressed": 8305,
      "cine": 8306,
      "afterwards": 8307,
      "passage": 8308,
      "ontario": 8309,
      "holocaust": 8310,
      "nano": 8311,
      "tcp": 8312,
      "debut": 8313,
      "nail": 8314,
      "irc": 8315,
      "merger": 8316,
      "inciv": 8317,
      "globally": 8318,
      "svg": 8319,
      "metrics": 8320,
      "margin": 8321,
      "aids": 8322,
      "ching": 8323,
      "prosecut": 8324,
      "secondly": 8325,
      "lacks": 8326,
      "multiplication": 8327,
      "readable": 8328,
      "praised": 8329,
      "reck": 8330,
      "continuously": 8331,
      "256": 8332,
      "waters": 8333,
      "upright": 8334,
      "4th": 8335,
      "gran": 8336,
      "disclosure": 8337,
      "proposing": 8338,
      "1958": 8339,
      "vulnerable": 8340,
      "curriculum": 8341,
      "shore": 8342,
      "saur": 8343,
      "evaluating": 8344,
      "congressional": 8345,
      "kon": 8346,
      "alice": 8347,
      "mutual": 8348,
      "tron": 8349,
      "rated": 8350,
      "ateral": 8351,
      "sharp": 8352,
      "alien": 8353,
      "essays": 8354,
      "gig": 8355,
      "entr": 8356,
      "signatures": 8357,
      "rogen": 8358,
      "licenses": 8359,
      "uten": 8360,
      "iot": 8361,
      "wanting": 8362,
      "kle": 8363,
      "brick": 8364,
      "alcohol": 8365,
      "defect": 8366,
      "intentionally": 8367,
      "scar": 8368,
      "turkish": 8369,
      "fers": 8370,
      "readily": 8371,
      "perl": 8372,
      "investors": 8373,
      "rescue": 8374,
      "collecting": 8375,
      "dedu": 8376,
      "izer": 8377,
      "dominant": 8378,
      "ambassador": 8379,
      "incent": 8380,
      "mandatory": 8381,
      "encountered": 8382,
      "mhz": 8383,
      "tank": 8384,
      "clause": 8385,
      "shots": 8386,
      "cats": 8387,
      "concurrent": 8388,
      "hamilton": 8389,
      "ila": 8390,
      "supers": 8391,
      "]]": 8392,
      "nin": 8393,
      "fame": 8394,
      "exclude": 8395,
      "oreg": 8396,
      "mete": 8397,
      "originated": 8398,
      "individually": 8399,
      "sper": 8400,
      "whit": 8401,
      "iano": 8402,
      "eligible": 8403,
      "1947": 8404,
      "appointment": 8405,
      "sectors": 8406,
      "reflects": 8407,
      "nn": 8408,
      "ento": 8409,
      "dell": 8410,
      "lessly": 8411,
      "cave": 8412,
      "incorporate": 8413,
      "symbolic": 8414,
      "pursue": 8415,
      "reconstruction": 8416,
      "whatso": 8417,
      "hackers": 8418,
      "imdb": 8419,
      "userpage": 8420,
      "lers": 8421,
      "shan": 8422,
      "rice": 8423,
      "overhead": 8424,
      "leton": 8425,
      "redirected": 8426,
      "crucial": 8427,
      "albert": 8428,
      "geographical": 8429,
      "bond": 8430,
      "violent": 8431,
      "syndr": 8432,
      "aneous": 8433,
      "presenting": 8434,
      "valued": 8435,
      "christo": 8436,
      "arkansas": 8437,
      "compounds": 8438,
      "fool": 8439,
      "recordings": 8440,
      "whatsoever": 8441,
      "monu": 8442,
      "healthy": 8443,
      "bishop": 8444,
      "loid": 8445,
      "bible": 8446,
      "retro": 8447,
      "empirical": 8448,
      "disaster": 8449,
      "cade": 8450,
      "marvel": 8451,
      "incred": 8452,
      "validation": 8453,
      "alive": 8454,
      "weights": 8455,
      "questioned": 8456,
      "immune": 8457,
      "moore": 8458,
      "civility": 8459,
      "pole": 8460,
      "colo": 8461,
      "viewpoint": 8462,
      "wikiprojects": 8463,
      "oregon": 8464,
      "discontinued": 8465,
      "intensity": 8466,
      "warfare": 8467,
      "passwords": 8468,
      "traits": 8469,
      "biomed": 8470,
      "lide": 8471,
      "facial": 8472,
      "cav": 8473,
      "eigh": 8474,
      "sydney": 8475,
      "dataset": 8476,
      "cock": 8477,
      "preservation": 8478,
      "a7": 8479,
      "prefix": 8480,
      "lennon": 8481,
      "crap": 8482,
      "foss": 8483,
      "minimize": 8484,
      "forensic": 8485,
      "tied": 8486,
      "wei": 8487,
      "annually": 8488,
      "limiting": 8489,
      "physically": 8490,
      "phenomena": 8491,
      "notify": 8492,
      "busy": 8493,
      "commod": 8494,
      "tooth": 8495,
      "stochastic": 8496,
      "oto": 8497,
      "reliably": 8498,
      "specifications": 8499,
      "boolean": 8500,
      "deter": 8501,
      "hoax": 8502,
      "login": 8503,
      "registry": 8504,
      "inherently": 8505,
      "acs": 8506,
      "consecut": 8507,
      "designers": 8508,
      "sympo": 8509,
      "standardized": 8510,
      "1952": 8511,
      "compete": 8512,
      "planar": 8513,
      "indexing": 8514,
      "skept": 8515,
      "dismissed": 8516,
      "gadget": 8517,
      "infection": 8518,
      "accompan": 8519,
      "loose": 8520,
      "diving": 8521,
      "axiom": 8522,
      "apache": 8523,
      "ideally": 8524,
      "downloaded": 8525,
      "dns": 8526,
      "indones": 8527,
      "ibn": 8528,
      "thermal": 8529,
      "exhibition": 8530,
      "inity": 8531,
      "reward": 8532,
      "utical": 8533,
      "straightforward": 8534,
      "destruction": 8535,
      "asks": 8536,
      "brig": 8537,
      "prompt": 8538,
      "initiatives": 8539,
      "symposium": 8540,
      "polygon": 8541,
      "franch": 8542,
      "elabor": 8543,
      "agf": 8544,
      "gradient": 8545,
      "vas": 8546,
      "recon": 8547,
      "proc": 8548,
      "contexts": 8549,
      "designing": 8550,
      "denial": 8551,
      "compliant": 8552,
      "grain": 8553,
      "gui": 8554,
      "wiz": 8555,
      "timing": 8556,
      "overl": 8557,
      "commenting": 8558,
      "bh": 8559,
      "seal": 8560,
      "relates": 8561,
      "difficulties": 8562,
      "cof": 8563,
      "sega": 8564,
      "mccart": 8565,
      "astronomy": 8566,
      "ined": 8567,
      "hebrew": 8568,
      "shit": 8569,
      "medie": 8570,
      "synthetic": 8571,
      "validity": 8572,
      "altered": 8573,
      "debt": 8574,
      "weighted": 8575,
      "shopping": 8576,
      "descend": 8577,
      "thermo": 8578,
      "indiana": 8579,
      "jum": 8580,
      "q105": 8581,
      "eva": 8582,
      "packets": 8583,
      "flip": 8584,
      "forbid": 8585,
      "antis": 8586,
      "strand": 8587,
      "borders": 8588,
      "hacker": 8589,
      "vulnerability": 8590,
      "avenue": 8591,
      "rod": 8592,
      "arest": 8593,
      "fried": 8594,
      "deciding": 8595,
      "planets": 8596,
      "ero": 8597,
      "viruses": 8598,
      "behaviors": 8599,
      "christmas": 8600,
      "divisions": 8601,
      "till": 8602,
      "orches": 8603,
      "mentor": 8604,
      "peters": 8605,
      "debates": 8606,
      "thy": 8607,
      "pink": 8608,
      "regression": 8609,
      "connectivity": 8610,
      "aggressive": 8611,
      "medieval": 8612,
      "lifetime": 8613,
      "mammal": 8614,
      "gle": 8615,
      "rec": 8616,
      "macos": 8617,
      "colonial": 8618,
      "sixth": 8619,
      "feelings": 8620,
      "cryptographic": 8621,
      "nm": 8622,
      "campaigns": 8623,
      "confirmation": 8624,
      "theor": 8625,
      "decomposition": 8626,
      "attacking": 8627,
      "simplified": 8628,
      "prohibited": 8629,
      "junior": 8630,
      "aler": 8631,
      "ussian": 8632,
      "umer": 8633,
      "organizational": 8634,
      "suited": 8635,
      "bounds": 8636,
      "pioneer": 8637,
      "hiv": 8638,
      "token": 8639,
      "bioinformatics": 8640,
      "giant": 8641,
      "aviation": 8642,
      "crop": 8643,
      "lever": 8644,
      "ancest": 8645,
      "completing": 8646,
      "ratings": 8647,
      "porn": 8648,
      "districts": 8649,
      "sung": 8650,
      "patrol": 8651,
      "grass": 8652,
      "decimal": 8653,
      "twelve": 8654,
      "enthus": 8655,
      "bos": 8656,
      "induced": 8657,
      "wick": 8658,
      "bee": 8659,
      "hook": 8660,
      "bibliography": 8661,
      "fleet": 8662,
      "sake": 8663,
      "organize": 8664,
      "nowhere": 8665,
      "conducting": 8666,
      "hunter": 8667,
      "zi": 8668,
      "disorders": 8669,
      "competence": 8670,
      "encounter": 8671,
      "clustering": 8672,
      "lady": 8673,
      "lyrics": 8674,
      "refuge": 8675,
      "mounted": 8676,
      "brothers": 8677,
      "consol": 8678,
      "lewis": 8679,
      "summit": 8680,
      "1944": 8681,
      "nie": 8682,
      "allocated": 8683,
      "veget": 8684,
      "vr": 8685,
      "handed": 8686,
      "speeds": 8687,
      "wishes": 8688,
      "civilian": 8689,
      "dialogue": 8690,
      "mccartney": 8691,
      "jaz": 8692,
      "relax": 8693,
      "mountains": 8694,
      "rober": 8695,
      "threatened": 8696,
      "extract": 8697,
      "hurt": 8698,
      "filing": 8699,
      "bios": 8700,
      "chapters": 8701,
      "architectural": 8702,
      "21st": 8703,
      "scroll": 8704,
      "consisted": 8705,
      "hua": 8706,
      "flop": 8707,
      "missour": 8708,
      "combinations": 8709,
      "credential": 8710,
      "modifications": 8711,
      "wang": 8712,
      "recover": 8713,
      "paired": 8714,
      "annivers": 8715,
      "aligned": 8716,
      "doors": 8717,
      "needing": 8718,
      "kids": 8719,
      "mn": 8720,
      "lawrence": 8721,
      "institutes": 8722,
      "accessibility": 8723,
      "determines": 8724,
      "excluded": 8725,
      "exploration": 8726,
      "mim": 8727,
      "amd": 8728,
      "hey": 8729,
      "stam": 8730,
      "carrier": 8731,
      "1940": 8732,
      "pressing": 8733,
      "greece": 8734,
      "inher": 8735,
      "userspace": 8736,
      "scanning": 8737,
      "fundament": 8738,
      "kas": 8739,
      "curves": 8740,
      "loan": 8741,
      "improper": 8742,
      "educated": 8743,
      "nad": 8744,
      "contracts": 8745,
      "subscrib": 8746,
      "jane": 8747,
      "streams": 8748,
      "associates": 8749,
      "cra": 8750,
      "maced": 8751,
      "assisted": 8752,
      "canvassing": 8753,
      "inspir": 8754,
      "poet": 8755,
      "counties": 8756,
      "struck": 8757,
      "ranks": 8758,
      "paragraphs": 8759,
      "dissertation": 8760,
      "och": 8761,
      "1900": 8762,
      "iphone": 8763,
      "donated": 8764,
      "analytical": 8765,
      "phi": 8766,
      "harry": 8767,
      "optimized": 8768,
      "configur": 8769,
      "ika": 8770,
      "lgbt": 8771,
      "sculpt": 8772,
      "meter": 8773,
      "spy": 8774,
      "polite": 8775,
      "missouri": 8776,
      "icate": 8777,
      "omal": 8778,
      "cole": 8779,
      "partisan": 8780,
      "opponents": 8781,
      "aret": 8782,
      "longest": 8783,
      "lighting": 8784,
      "swiss": 8785,
      "biomedical": 8786,
      "bach": 8787,
      "activated": 8788,
      "vc": 8789,
      "centered": 8790,
      "akh": 8791,
      "suffered": 8792,
      "1939": 8793,
      "18th": 8794,
      "associations": 8795,
      "1953": 8796,
      "garbage": 8797,
      "guided": 8798,
      "honour": 8799,
      "meteor": 8800,
      "grace": 8801,
      "boat": 8802,
      "textbook": 8803,
      "vet": 8804,
      "peripher": 8805,
      "survival": 8806,
      "defic": 8807,
      "predictions": 8808,
      "determination": 8809,
      "founders": 8810,
      "highlighted": 8811,
      "duplicate": 8812,
      "inef": 8813,
      "teenth": 8814,
      "anon": 8815,
      "converse": 8816,
      "holly": 8817,
      "excuse": 8818,
      "esp": 8819,
      "ulating": 8820,
      "nered": 8821,
      "considerably": 8822,
      "outputs": 8823,
      "adobe": 8824,
      "lane": 8825,
      "legis": 8826,
      "buttons": 8827,
      "globe": 8828,
      "1946": 8829,
      "exploit": 8830,
      "buff": 8831,
      "typed": 8832,
      "deny": 8833,
      "fired": 8834,
      "setup": 8835,
      "holes": 8836,
      "wikipedian": 8837,
      "overwhelming": 8838,
      "teles": 8839,
      "guides": 8840,
      "banking": 8841,
      "1955": 8842,
      "poetry": 8843,
      "socks": 8844,
      "minnes": 8845,
      "fellowship": 8846,
      "reserved": 8847,
      "ensuring": 8848,
      "iec": 8849,
      "houston": 8850,
      "kam": 8851,
      "rape": 8852,
      "webpage": 8853,
      "attacker": 8854,
      "coalition": 8855,
      "outing": 8856,
      "blur": 8857,
      "activation": 8858,
      "cultiv": 8859,
      "proportional": 8860,
      "degrad": 8861,
      "forever": 8862,
      "accomplished": 8863,
      "syndrome": 8864,
      "cau": 8865,
      "acre": 8866,
      "scaling": 8867,
      "1941": 8868,
      "motivation": 8869,
      "cribed": 8870,
      "neum": 8871,
      "transit": 8872,
      "nonlinear": 8873,
      "attract": 8874,
      "institutional": 8875,
      "jesus": 8876,
      "equilibrium": 8877,
      "scor": 8878,
      "sensitivity": 8879,
      "reporter": 8880,
      "iser": 8881,
      "appeals": 8882,
      "primitive": 8883,
      "gathering": 8884,
      "provisions": 8885,
      "inev": 8886,
      "proving": 8887,
      "consecutive": 8888,
      "kine": 8889,
      "ost": 8890,
      "onian": 8891,
      "fourier": 8892,
      "rupt": 8893,
      "guaranteed": 8894,
      "yers": 8895,
      "inf": 8896,
      "clark": 8897,
      "phylog": 8898,
      "hann": 8899,
      "iest": 8900,
      "repeating": 8901,
      "nutr": 8902,
      "thirty": 8903,
      "peoples": 8904,
      "bart": 8905,
      "programmes": 8906,
      "bourne": 8907,
      "puzzle": 8908,
      "consolid": 8909,
      "storing": 8910,
      "bou": 8911,
      "relief": 8912,
      "matched": 8913,
      "bulletin": 8914,
      "encyclopaedia": 8915,
      "ington": 8916,
      "stall": 8917,
      "projection": 8918,
      "reflection": 8919,
      "chancell": 8920,
      "impress": 8921,
      "dose": 8922,
      "annoying": 8923,
      "accompanied": 8924,
      "inaug": 8925,
      "monte": 8926,
      "controlling": 8927,
      "badly": 8928,
      "harmful": 8929,
      "icons": 8930,
      "diagnosis": 8931,
      "cabinet": 8932,
      "fees": 8933,
      "everywhere": 8934,
      "losses": 8935,
      "emperor": 8936,
      "ulative": 8937,
      "180": 8938,
      "letting": 8939,
      "aham": 8940,
      "pear": 8941,
      "pipeline": 8942,
      "switzer": 8943,
      "intensive": 8944,
      "exhibit": 8945,
      "enix": 8946,
      "diame": 8947,
      "nonetheless": 8948,
      "stops": 8949,
      "psych": 8950,
      "plagiar": 8951,
      "aga": 8952,
      "clarification": 8953,
      "closest": 8954,
      "pushed": 8955,
      "suspended": 8956,
      "pointless": 8957,
      "enemies": 8958,
      "scrutiny": 8959,
      "medit": 8960,
      "irs": 8961,
      "infringe": 8962,
      "tc": 8963,
      "petr": 8964,
      "mesh": 8965,
      "switzerland": 8966,
      "oured": 8967,
      "valent": 8968,
      "constitutes": 8969,
      "memo": 8970,
      "ested": 8971,
      "lett": 8972,
      "accepting": 8973,
      "flexibility": 8974,
      "anniversary": 8975,
      "loud": 8976,
      "pray": 8977,
      "decides": 8978,
      "handful": 8979,
      "remotely": 8980,
      "alo": 8981,
      "themes": 8982,
      "permanently": 8983,
      "screening": 8984,
      "diploma": 8985,
      "topology": 8986,
      "minnesota": 8987,
      "accordance": 8988,
      "loo": 8989,
      "promise": 8990,
      "queens": 8991,
      "tat": 8992,
      "dissemin": 8993,
      "rival": 8994,
      "unicode": 8995,
      "listings": 8996,
      "importantly": 8997,
      "ignor": 8998,
      "overcome": 8999,
      "fda": 9000,
      "poison": 9001,
      "emissions": 9002,
      "governmental": 9003,
      "surname": 9004,
      "wiscons": 9005,
      "iber": 9006,
      "lobby": 9007,
      "assass": 9008,
      "discusses": 9009,
      "jurisdiction": 9010,
      "alab": 9011,
      "musicians": 9012,
      "anthony": 9013,
      "acids": 9014,
      "convenience": 9015,
      "wisconsin": 9016,
      "kansas": 9017,
      "regime": 9018,
      "rug": 9019,
      "fighter": 9020,
      "inch": 9021,
      "differs": 9022,
      "subsidiary": 9023,
      "rep": 9024,
      "chlor": 9025,
      "accessing": 9026,
      "1951": 9027,
      "panic": 9028,
      "territories": 9029,
      "dab": 9030,
      "seemingly": 9031,
      "borrow": 9032,
      "rhy": 9033,
      "cores": 9034,
      "folio": 9035,
      "reception": 9036,
      "nominate": 9037,
      "internationally": 9038,
      "yours": 9039,
      "voy": 9040,
      "formatted": 9041,
      "attain": 9042,
      "convergence": 9043,
      "adopt": 9044,
      "artifacts": 9045,
      "gill": 9046,
      "abortion": 9047,
      "hospitals": 9048,
      "vy": 9049,
      "beit": 9050,
      "notifications": 9051,
      "speculation": 9052,
      "organism": 9053,
      "sequential": 9054,
      "trademark": 9055,
      "pseud": 9056,
      "niger": 9057,
      "utilities": 9058,
      "creators": 9059,
      "htm": 9060,
      "polynomials": 9061,
      "bun": 9062,
      "absent": 9063,
      "identifies": 9064,
      "shapes": 9065,
      "pale": 9066,
      "remarks": 9067,
      "joke": 9068,
      "osome": 9069,
      "activist": 9070,
      "violates": 9071,
      "zoom": 9072,
      "tees": 9073,
      "czech": 9074,
      "includeonly": 9075,
      "isible": 9076,
      "pler": 9077,
      "ien": 9078,
      "reson": 9079,
      "iful": 9080,
      "corporations": 9081,
      "prevents": 9082,
      "intim": 9083,
      "molecule": 9084,
      "collapse": 9085,
      "intosh": 9086,
      "agreements": 9087,
      "wavel": 9088,
      "lattice": 9089,
      "clubs": 9090,
      "rip": 9091,
      "tier": 9092,
      "fits": 9093,
      "bean": 9094,
      "outright": 9095,
      "fuzzy": 9096,
      "omorph": 9097,
      "decompression": 9098,
      "absur": 9099,
      "reveals": 9100,
      "tenure": 9101,
      "dubious": 9102,
      "atari": 9103,
      "humanity": 9104,
      "hierarchical": 9105,
      "grave": 9106,
      "theft": 9107,
      "footnote": 9108,
      "stuck": 9109,
      "bearing": 9110,
      "epide": 9111,
      "declare": 9112,
      "arcade": 9113,
      "sugar": 9114,
      "wavelength": 9115,
      "merch": 9116,
      "ventures": 9117,
      "falling": 9118,
      "banning": 9119,
      "guns": 9120,
      "argent": 9121,
      "phan": 9122,
      "walter": 9123,
      "gur": 9124,
      "ito": 9125,
      "mitig": 9126,
      "morpho": 9127,
      "abroad": 9128,
      "mitchell": 9129,
      "versa": 9130,
      "diam": 9131,
      "vor": 9132,
      "recognised": 9133,
      "hound": 9134,
      "shang": 9135,
      "enses": 9136,
      "rm": 9137,
      "procedural": 9138,
      "attracted": 9139,
      "satellites": 9140,
      "plausible": 9141,
      "pes": 9142,
      "spark": 9143,
      "programmed": 9144,
      "eder": 9145,
      "logging": 9146,
      "convince": 9147,
      "ptic": 9148,
      "damaged": 9149,
      "artwork": 9150,
      "machinery": 9151,
      "altogether": 9152,
      "cooperative": 9153,
      "sparse": 9154,
      "antenna": 9155,
      "genesis": 9156,
[...]
