{
  "version": "1.0",
  "truncation": null,
  "padding": null,
  "added_tokens": [
    {
      "id": 0,
      "content": "<pad>",
      "single_word": false,
      "lstrip": false,
      "rstrip": false,
      "normalized": false,
      "special": true
    },
    {
      "id": 1,
      "content": "<s>",
      "single_word": false,
      "lstrip": false,
      "rstrip": false,
      "normalized": false,
      "special": true
    },
    {
      "id": 2,
      "content": "</s>",
      "single_word": false,
      "lstrip": false,
      "rstrip": false,
      "normalized": false,
      "special": true
    },
    {
      "id": 3,
      "content": "<unk>",
      "single_word": false,
      "lstrip": false,
      "rstrip": false,
      "normalized": false,
      "special": true
    },
    {
      "id": 4,
      "content": "<mask>",
      "single_word": false,
      "lstrip": false,
      "rstrip": false,
      "normalized": false,
      "special": true
    }
  ],
  "normalizer": null,
  "pre_tokenizer": {
    "type": "Whitespace"
  },
  "post_processor": null,
  "decoder": null,
  "model": {
    "type": "BPE",
    "dropout": null,
    "unk_token": null,
    "continuing_subword_prefix": null,
    "end_of_word_suffix": null,
    "fuse_unk": false,
    "byte_fallback": false,
    "vocab": {
      "<pad>": 0,
      "<s>": 1,
      "</s>": 2,
      "<unk>": 3,
      "<mask>": 4,
      "\"": 5,
      "#": 6,
      "$": 7,
      "%": 8,
      "&": 9,
      "'": 10,
      "(": 11,
      ")": 12,
      "*": 13,
      "+": 14,
      ",": 15,
      "-": 16,
      ".": 17,
      "/": 18,
      "0": 19,
      "1": 20,
      "2": 21,
      "3": 22,
      "4": 23,
      "5": 24,
      "6": 25,
      "7": 26,
      "8": 27,
      "9": 28,
      ":": 29,
      "=": 30,
      "?": 31,
      "@": 32,
      "[": 33,
      "\\": 34,
      "]": 35,
      "^": 36,
      "_": 37,
      "`": 38,
      "a": 39,
      "b": 40,
      "c": 41,
      "d": 42,
      "e": 43,
      "f": 44,
      "g": 45,
      "h": 46,
      "i": 47,
      "j": 48,
      "k": 49,
      "l": 50,
      "m": 51,
      "n": 52,
      "o": 53,
      "p": 54,
      "q": 55,
      "r": 56,
      "s": 57,
      "t": 58,
      "u": 59,
      "v": 60,
      "w": 61,
      "x": 62,
      "y": 63,
      "z": 64,
      "|": 65,
      "~": 66,
      "th": 67,
      "in": 68,
      "the": 69,
      "an": 70,
      "er": 71,
      "on": 72,
      "re": 73,
      "at": 74,
      "ed": 75,
      "or": 76,
      "en": 77,
      "al": 78,
      "st": 79,
      "ar": 80,
      "of": 81,
      "as": 82,
      "and": 83,
      "is": 84,
      "it": 85,
      "es": 86,
      "ing": 87,
      "to": 88,
      "ic": 89,
      "ro": 90,
      "ion": 91,
      "le": 92,
      "ch": 93,
      "ou": 94,
      "ent": 95,
      "am": 96,
      "il": 97,
      "se": 98,
      "co": 99,
      "de": 100,
      "for": 101,
      "ac": 102,
      "el": 103,
      "un": 104,
      "ad": 105,
      "was": 106,
      "be": 107,
      "ol": 108,
      "iv": 109,
      "ation": 110,
      "ur": 111,
      "he": 112,
      "ly": 113,
      "im": 114,
      "ir": 115,
      "ig": 116,
      "ter": 117,
      "wh": 118,
      "ct": 119,
      "19": 120,
      "con": 121,
      "wi": 122,
      "ce": 123,
      "lo": 124,
      "us": 125,
      "ag": 126,
      "20": 127,
      "te": 128,
      "ay": 129,
      "com": 130,
      "ers": 131,
      "with": 132,
      "by": 133,
      "id": 134,
      "ap": 135,
      "ul": 136,
      "pro": 137,
      "ist": 138,
      "ne": 139,
      "mo": 140,
      "no": 141,
      "so": 142,
      "ab": 143,
      "me": 144,
      "are": 145,
      "ver": 146,
      "su": 147,
      "tr": 148,
      "res": 149,
      "op": 150,
      "pl": 151,
      "ut": 152,
      "pe": 153,
      "that": 154,
      "ain": 155,
      "rom": 156,
      "av": 157,
      "art": 158,
      "all": 159,
      "ment": 160,
      "sh": 161,
      "from": 162,
      "po": 163,
      "oun": 164,
      "ity": 165,
      "cl": 166,
      "man": 167,
      "ies": 168,
      "ge": 169,
      "his": 170,
      "ther": 171,
      "ate": 172,
      "ber": 173,
      "ere": 174,
      "if": 175,
      "we": 176,
      "ex": 177,
      "qu": 178,
      "ts": 179,
      "um": 180,
      "ill": 181,
      "ie": 182,
      "ma": 183,
      "af": 184,
      "ich": 185,
      "bo": 186,
      "ke": 187,
      "ian": 188,
      "ess": 189,
      "ud": 190,
      "ard": 191,
      "pr": 192,
      "ip": 193,
      "ated": 194,
      "wor": 195,
      "ia": 196,
      "igh": 197,
      "ish": 198,
      "em": 199,
      "ial": 200,
      "ive": 201,
      "per": 202,
      "br": 203,
      "au": 204,
      "ho": 205,
      "gr": 206,
      "str": 207,
      "der": 208,
      "du": 209,
      "ame": 210,
      "wn": 211,
      "one": 212,
      "ary": 213,
      "201": 214,
      "form": 215,
      "por": 216,
      "act": 217,
      "up": 218,
      "ear": 219,
      "our": 220,
      "do": 221,
      "fe": 222,
      "ast": 223,
      "ine": 224,
      "ant": 225,
      "gh": 226,
      "which": 227,
      "end": 228,
      "ser": 229,
      "were": 230,
      "ld": 231,
      "ical": 232,
      "red": 233,
      "comp": 234,
      "ong": 235,
      "200": 236,
      "go": 237,
      "bl": 238,
      "wo": 239,
      "mar": 240,
      "cr": 241,
      "part": 242,
      "age": 243,
      "ell": 244,
      "ve": 245,
      "its": 246,
      "this": 247,
      "but": 248,
      "out": 249,
      "also": 250,
      "fir": 251,
      "ted": 252,
      "has": 253,
      "ction": 254,
      "her": 255,
      "new": 256,
      "fo": 257,
      "ach": 258,
      "iz": 259,
      "aw": 260,
      "ass": 261,
      "ack": 262,
      "cor": 263,
      "low": 264,
      "tim": 265,
      "comm": 266,
      "not": 267,
      "ak": 268,
      "ition": 269,
      "ree": 270,
      "first": 271,
      "min": 272,
      "ty": 273,
      "ave": 274,
      "gu": 275,
      "sp": 276,
      "od": 277,
      "ign": 278,
      "had": 279,
      "pres": 280,
      "ous": 281,
      "ire": 282,
      "work": 283,
      "amp": 284,
      "18": 285,
      "col": 286,
      "can": 287,
      "inter": 288,
      "other": 289,
      "play": 290,
      "ure": 291,
      "who": 292,
      "ence": 293,
      "ice": 294,
      "ib": 295,
      "their": 296,
      "00": 297,
      "ph": 298,
      "fer": 299,
      "\",": 300,
      "after": 301,
      "she": 302,
      "cent": 303,
      "ound": 304,
      "sch": 305,
      "ide": 306,
      "ind": 307,
      "land": 308,
      "year": 309,
      "fr": 310,
      "),": 311,
      "ans": 312,
      "sy": 313,
      "ren": 314,
      "ied": 315,
      "cre": 316,
      "des": 317,
      "ations": 318,
      "jo": 319,
      "ational": 320,
      "ight": 321,
      "ater": 322,
      "pre": 323,
      "io": 324,
      "coun": 325,
      "gen": 326,
      "ace": 327,
      "vel": 328,
      "incl": 329,
      "li": 330,
      "ci": 331,
      "port": 332,
      "they": 333,
      "est": 334,
      "ok": 335,
      "have": 336,
      "dis": 337,
      "ally": 338,
      "pos": 339,
      "ev": 340,
      "ould": 341,
      "eng": 342,
      "\".": 343,
      "two": 344,
      "pu": 345,
      "ang": 346,
      "ck": 347,
      "199": 348,
      "om": 349,
      "par": 350,
      "cont": 351,
      "able": 352,
      "fin": 353,
      "nor": 354,
      "ory": 355,
      "ased": 356,
      "serv": 357,
      "dr": 358,
      "gro": 359,
      "off": 360,
      "spe": 361,
      "reg": 362,
      "ite": 363,
      "int": 364,
      "ot": 365,
      ").": 366,
      "ile": 367,
      "bu": 368,
      "ced": 369,
      "ult": 370,
      "ance": 371,
      "national": 372,
      "ens": 373,
      "been": 374,
      "uring": 375,
      "mber": 376,
      "ates": 377,
      "ding": 378,
      "ivers": 379,
      "ric": 380,
      "ele": 381,
      "air": 382,
      "mon": 383,
      "pol": 384,
      "time": 385,
      "med": 386,
      "over": 387,
      "ions": 388,
      "publ": 389,
      "ra": 390,
      "je": 391,
      "og": 392,
      "rou": 393,
      "att": 394,
      "ue": 395,
      "cess": 396,
      "ann": 397,
      "old": 398,
      "ited": 399,
      "ces": 400,
      "car": 401,
      "cal": 402,
      "may": 403,
      "bor": 404,
      "used": 405,
      "includ": 406,
      "ool": 407,
      "stud": 408,
      "arch": 409,
      "univers": 410,
      "fil": 411,
      "when": 412,
      "any": 413,
      "school": 414,
      "bec": 415,
      "urn": 416,
      "some": 417,
      "more": 418,
      "fl": 419,
      "under": 420,
      "cted": 421,
      "main": 422,
      "gan": 423,
      "during": 424,
      "there": 425,
      "ors": 426,
      "into": 427,
      "198": 428,
      "ics": 429,
      "bet": 430,
      "cial": 431,
      "most": 432,
      "ely": 433,
      "son": 434,
      "oc": 435,
      "king": 436,
      "und": 437,
      "ase": 438,
      "cur": 439,
      "ath": 440,
      "ten": 441,
      "ju": 442,
      "kno": 443,
      "eld": 444,
      "prov": 445,
      "ents": 446,
      "ta": 447,
      "fore": 448,
      "amer": 449,
      "produ": 450,
      "rough": 451,
      "sou": 452,
      "way": 453,
      "university": 454,
      "fol": 455,
      "dist": 456,
      "rel": 457,
      "ship": 458,
      "ason": 459,
      "high": 460,
      "les": 461,
      "sing": 462,
      "where": 463,
      "et": 464,
      "ade": 465,
      "bro": 466,
      "pt": 467,
      "mat": 468,
      "cond": 469,
      "war": 470,
      "ger": 471,
      "la": 472,
      "ton": 473,
      "men": 474,
      "team": 475,
      "world": 476,
      "use": 477,
      "such": 478,
      "olog": 479,
      "only": 480,
      "ough": 481,
      "buil": 482,
      "197": 483,
      "ished": 484,
      "sho": 485,
      "vis": 486,
      "day": 487,
      "stru": 488,
      "found": 489,
      "ating": 490,
      "iss": 491,
      "ret": 492,
      "char": 493,
      "ry": 494,
      "sub": 495,
      "velop": 496,
      "my": 497,
      "led": 498,
      "americ": 499,
      "him": 500,
      "would": 501,
      "develop": 502,
      "ious": 503,
      "then": 504,
      "sel": 505,
      "ily": 506,
      "many": 507,
      "stem": 508,
      "rele": 509,
      "cap": 510,
      "ix": 511,
      "follow": 512,
      "state": 513,
      "ince": 514,
      "film": 515,
      "mus": 516,
      "colle": 517,
      "als": 518,
      "cons": 519,
      "gener": 520,
      "ween": 521,
      "ific": 522,
      "mb": 523,
      "vie": 524,
      "ident": 525,
      "ep": 526,
      "well": 527,
      "ster": 528,
      "between": 529,
      "later": 530,
      "rit": 531,
      "ular": 532,
      "system": 533,
      "again": 534,
      "gre": 535,
      "through": 536,
      "cy": 537,
      "uary": 538,
      "ved": 539,
      "will": 540,
      "num": 541,
      "ub": 542,
      "ative": 543,
      "mer": 544,
      "az": 545,
      "years": 546,
      "ities": 547,
      "while": 548,
      "196": 549,
      "trans": 550,
      "ful": 551,
      "lar": 552,
      "three": 553,
      "win": 554,
      "oper": 555,
      "known": 556,
      "ments": 557,
      "cer": 558,
      "ning": 559,
      "ank": 560,
      "ss": 561,
      "public": 562,
      "ict": 563,
      "second": 564,
      "season": 565,
      "inst": 566,
      "set": 567,
      "tain": 568,
      "10": 569,
      "call": 570,
      "dire": 571,
      "sup": 572,
      "ball": 573,
      "del": 574,
      "ual": 575,
      "fam": 576,
      "ick": 577,
      "made": 578,
      "fa": 579,
      "add": 580,
      "than": 581,
      "17": 582,
      "ames": 583,
      "group": 584,
      "gover": 585,
      "gram": 586,
      "these": 587,
      "ital": 588,
      "lin": 589,
      "pop": 590,
      "ting": 591,
      ".\"": 592,
      "present": 593,
      "sa": 594,
      "sur": 595,
      "ject": 596,
      "ters": 597,
      "about": 598,
      "born": 599,
      "city": 600,
      "ms": 601,
      "recor": 602,
      "ys": 603,
      "vol": 604,
      "ived": 605,
      "united": 606,
      "sm": 607,
      "fi": 608,
      "became": 609,
      "bel": 610,
      "including": 611,
      "them": 612,
      "uc": 613,
      "dif": 614,
      "four": 615,
      "hist": 616,
      "being": 617,
      "unt": 618,
      "vers": 619,
      "tech": 620,
      "15": 621,
      "ef": 622,
      "var": 623,
      "south": 624,
      "both": 625,
      "bar": 626,
      "ri": 627,
      "american": 628,
      "jun": 629,
      "alth": 630,
      "sim": 631,
      "16": 632,
      "ards": 633,
      "lead": 634,
      "program": 635,
      "sci": 636,
      "hou": 637,
      "sign": 638,
      "cour": 639,
      "appe": 640,
      "back": 641,
      "very": 642,
      "ctor": 643,
      "game": 644,
      "alb": 645,
      "ws": 646,
      "loc": 647,
      "search": 648,
      "leg": 649,
      "val": 650,
      "open": 651,
      "own": 652,
      "wer": 653,
      "hu": 654,
      "ional": 655,
      "os": 656,
      "commun": 657,
      "states": 658,
      "194": 659,
      "ob": 660,
      "ild": 661,
      "design": 662,
      "195": 663,
      "writ": 664,
      "net": 665,
      "ins": 666,
      "prof": 667,
      "tal": 668,
      "orig": 669,
      "nam": 670,
      "jan": 671,
      "vo": 672,
      "ures": 673,
      "north": 674,
      "iver": 675,
      "har": 676,
      "cu": 677,
      "peop": 678,
      "21": 679,
      "ca": 680,
      "don": 681,
      "before": 682,
      "mu": 683,
      "ior": 684,
      "techn": 685,
      "let": 686,
      "company": 687,
      "feat": 688,
      "since": 689,
      "dep": 690,
      "line": 691,
      "ized": 692,
      "sco": 693,
      "howe": 694,
      "sever": 695,
      "music": 696,
      "number": 697,
      "against": 698,
      "however": 699,
      "ists": 700,
      "hn": 701,
      "ven": 702,
      "rece": 703,
      "based": 704,
      "origin": 705,
      "organ": 706,
      "spec": 707,
      "rol": 708,
      "nov": 709,
      "series": 710,
      "people": 711,
      "ury": 712,
      "ress": 713,
      "record": 714,
      "govern": 715,
      "west": 716,
      "mp": 717,
      "pers": 718,
      "eu": 719,
      "following": 720,
      "house": 721,
      "ural": 722,
      "ise": 723,
      "12": 724,
      "released": 725,
      "head": 726,
      "minist": 727,
      "ier": 728,
      "urch": 729,
      "lan": 730,
      "0s": 731,
      "ner": 732,
      "ired": 733,
      "ons": 734,
      "until": 735,
      "book": 736,
      "clo": 737,
      "aph": 738,
      "itu": 739,
      "ah": 740,
      "album": 741,
      "ings": 742,
      "called": 743,
      "ii": 744,
      "mor": 745,
      "sk": 746,
      "song": 747,
      "start": 748,
      "div": 749,
      "ula": 750,
      "ran": 751,
      "bus": 752,
      "ology": 753,
      "offic": 754,
      "class": 755,
      "try": 756,
      "east": 757,
      "ility": 758,
      "played": 759,
      "band": 760,
      "ley": 761,
      "requ": 762,
      "name": 763,
      "law": 764,
      "que": 765,
      "foot": 766,
      "000": 767,
      "stand": 768,
      "ended": 769,
      "tw": 770,
      "lif": 771,
      "several": 772,
      "run": 773,
      "test": 774,
      "ale": 775,
      "ith": 776,
      "club": 777,
      "place": 778,
      "family": 779,
      "each": 780,
      "research": 781,
      "ik": 782,
      "ash": 783,
      "champ": 784,
      "ste": 785,
      "long": 786,
      "ague": 787,
      "town": 788,
      "contin": 789,
      "won": 790,
      "field": 791,
      "ina": 792,
      "ped": 793,
      "tit": 794,
      "22": 795,
      "ually": 796,
      "tre": 797,
      "cast": 798,
      "government": 799,
      "193": 800,
      "lab": 801,
      "john": 802,
      "ket": 803,
      "early": 804,
      "pat": 805,
      "mill": 806,
      "list": 807,
      "na": 808,
      "suc": 809,
      "ks": 810,
      "ible": 811,
      "march": 812,
      "14": 813,
      "same": 814,
      "jor": 815,
      "cro": 816,
      "like": 817,
      "distric": 818,
      "vent": 819,
      "dec": 820,
      "large": 821,
      "ause": 822,
      "bur": 823,
      "now": 824,
      "sen": 825,
      "ared": 826,
      "graph": 827,
      "sw": 828,
      "13": 829,
      "former": 830,
      "building": 831,
      "comple": 832,
      "differ": 833,
      "ives": 834,
      "sto": 835,
      "international": 836,
      "show": 837,
      "hel": 838,
      "contr": 839,
      "general": 840,
      "ages": 841,
      "soci": 842,
      "mil": 843,
      "child": 844,
      "peri": 845,
      "ism": 846,
      "gust": 847,
      "sep": 848,
      "profess": 849,
      "vir": 850,
      "ically": 851,
      "polit": 852,
      "ered": 853,
      "chan": 854,
      "league": 855,
      "ple": 856,
      "xt": 857,
      "ble": 858,
      "self": 859,
      "member": 860,
      "down": 861,
      "ort": 862,
      "sol": 863,
      "partic": 864,
      "fac": 865,
      "ata": 866,
      "camp": 867,
      "ling": 868,
      "college": 869,
      "euro": 870,
      "come": 871,
      "ham": 872,
      "miss": 873,
      "tember": 874,
      "dy": 875,
      "ices": 876,
      "uss": 877,
      "formula": 878,
      "fun": 879,
      "return": 880,
      "ines": 881,
      "ision": 882,
      "bre": 883,
      "january": 884,
      "top": 885,
      "ution": 886,
      "september": 887,
      "brit": 888,
      "care": 889,
      "ose": 890,
      "district": 891,
      "august": 892,
      "associ": 893,
      "area": 894,
      "sum": 895,
      "octo": 896,
      "ird": 897,
      "compu": 898,
      "hol": 899,
      "october": 900,
      "position": 901,
      "football": 902,
      "champion": 903,
      "june": 904,
      "sc": 905,
      "gy": 906,
      "ail": 907,
      "plac": 908,
      "chr": 909,
      "cle": 910,
      "educ": 911,
      "tak": 912,
      "ril": 913,
      "pass": 914,
      "using": 915,
      "fect": 916,
      "life": 917,
      "mal": 918,
      "fact": 919,
      "order": 920,
      "major": 921,
      "mid": 922,
      "press": 923,
      "ided": 924,
      "dece": 925,
      "compe": 926,
      "july": 927,
      "poin": 928,
      "church": 929,
      "award": 930,
      "bas": 931,
      "austr": 932,
      "ium": 933,
      "read": 934,
      "rent": 935,
      "home": 936,
      "just": 937,
      "began": 938,
      "ko": 939,
      "hav": 940,
      "den": 941,
      "view": 942,
      "ctions": 943,
      "lish": 944,
      "president": 945,
      "local": 946,
      "served": 947,
      "ulation": 948,
      "ude": 949,
      "april": 950,
      "pa": 951,
      "rad": 952,
      "along": 953,
      "times": 954,
      "ember": 955,
      "emp": 956,
      "grad": 957,
      "lit": 958,
      "development": 959,
      "held": 960,
      "formula_": 961,
      "november": 962,
      "sof": 963,
      "due": 964,
      "11": 965,
      "yor": 966,
      "station": 967,
      "ined": 968,
      "engine": 969,
      "met": 970,
      "success": 971,
      "star": 972,
      "nat": 973,
      "vill": 974,
      "exp": 975,
      "allow": 976,
      "represent": 977,
      "mic": 978,
      "december": 979,
      "ft": 980,
      "road": 981,
      "cover": 982,
      "best": 983,
      "named": 984,
      "process": 985,
      "estab": 986,
      "side": 987,
      "aim": 988,
      "mot": 989,
      "remain": 990,
      "bal": 991,
      "party": 992,
      "ator": 993,
      "games": 994,
      "did": 995,
      "lim": 996,
      "cut": 997,
      "van": 998,
      "tem": 999,
      "europe": 1000,
      "york": 1001,
      "county": 1002,
      "near": 1003,
      "resp": 1004,
      "mag": 1005,
      "small": 1006,
      "women": 1007,
      "located": 1008,
      "formed": 1009,
      "charac": 1010,
      "could": 1011,
      "power": 1012,
      "25": 1013,
      "uk": 1014,
      "formation": 1015,
      "ward": 1016,
      "descr": 1017,
      "mbers": 1018,
      "roy": 1019,
      "cup": 1020,
      "less": 1021,
      "because": 1022,
      "event": 1023,
      "hy": 1024,
      "continu": 1025,
      "ief": 1026,
      "rest": 1027,
      "hal": 1028,
      "ament": 1029,
      "ze": 1030,
      "gin": 1031,
      "30": 1032,
      "prim": 1033,
      "members": 1034,
      "ru": 1035,
      "app": 1036,
      "different": 1037,
      "around": 1038,
      "final": 1039,
      "inc": 1040,
      "century": 1041,
      "addition": 1042,
      "ization": 1043,
      "appear": 1044,
      "received": 1045,
      "vi": 1046,
      "non": 1047,
      "plic": 1048,
      "person": 1049,
      "train": 1050,
      "elect": 1051,
      "took": 1052,
      "iness": 1053,
      "ai": 1054,
      "key": 1055,
      "within": 1056,
      "indu": 1057,
      "tele": 1058,
      "include": 1059,
      "febr": 1060,
      "ised": 1061,
      "february": 1062,
      "ize": 1063,
      "ves": 1064,
      "wal": 1065,
      "computer": 1066,
      "project": 1067,
      "thor": 1068,
      "another": 1069,
      "ants": 1070,
      "support": 1071,
      "gor": 1072,
      "centr": 1073,
      "get": 1074,
      "human": 1075,
      "control": 1076,
      "langu": 1077,
      "published": 1078,
      "augh": 1079,
      "qual": 1080,
      "service": 1081,
      "science": 1082,
      "post": 1083,
      "championship": 1084,
      "hand": 1085,
      "far": 1086,
      "struct": 1087,
      "thern": 1088,
      "ival": 1089,
      "current": 1090,
      "ord": 1091,
      "single": 1092,
      "sl": 1093,
      "def": 1094,
      "refer": 1095,
      "six": 1096,
      "iety": 1097,
      "put": 1098,
      "gl": 1099,
      "depend": 1100,
      "lon": 1101,
      "real": 1102,
      "austral": 1103,
      "board": 1104,
      "built": 1105,
      "appro": 1106,
      "british": 1107,
      "iving": 1108,
      "nal": 1109,
      "sal": 1110,
      "ences": 1111,
      "last": 1112,
      "cept": 1113,
      "model": 1114,
      "moved": 1115,
      "level": 1116,
      "consid": 1117,
      "sequ": 1118,
      "soc": 1119,
      "ae": 1120,
      "five": 1121,
      "depart": 1122,
      "business": 1123,
      "aff": 1124,
      "iam": 1125,
      "cas": 1126,
      "ref": 1127,
      "point": 1128,
      "ron": 1129,
      "mit": 1130,
      "che": 1131,
      "ering": 1132,
      "ford": 1133,
      "ians": 1134,
      "issu": 1135,
      "23": 1136,
      "even": 1137,
      "accor": 1138,
      "announ": 1139,
      "2010": 1140,
      "crit": 1141,
      "match": 1142,
      "ured": 1143,
      "cil": 1144,
      "2011": 1145,
      "phil": 1146,
      "among": 1147,
      "ively": 1148,
      "see": 1149,
      "gar": 1150,
      "works": 1151,
      "iven": 1152,
      "third": 1153,
      "water": 1154,
      "loy": 1155,
      "vision": 1156,
      "ported": 1157,
      "ext": 1158,
      "left": 1159,
      "canad": 1160,
      "wee": 1161,
      "you": 1162,
      "gree": 1163,
      "data": 1164,
      "posed": 1165,
      "ately": 1166,
      "incre": 1167,
      "what": 1168,
      "2014": 1169,
      "2015": 1170,
      "histor": 1171,
      "san": 1172,
      "tle": 1173,
      "2012": 1174,
      "ben": 1175,
      "death": 1176,
      "pen": 1177,
      "died": 1178,
      "ont": 1179,
      "gn": 1180,
      "24": 1181,
      "although": 1182,
      "included": 1183,
      "init": 1184,
      "2016": 1185,
      "often": 1186,
      "history": 1187,
      "hip": 1188,
      "2013": 1189,
      "blo": 1190,
      "social": 1191,
      "special": 1192,
      "poss": 1193,
      "million": 1194,
      "ond": 1195,
      "bi": 1196,
      "(\"": 1197,
      "pur": 1198,
      "though": 1199,
      "trad": 1200,
      "said": 1201,
      "ified": 1202,
      "wood": 1203,
      "super": 1204,
      "ports": 1205,
      "ially": 1206,
      "park": 1207,
      "according": 1208,
      "chang": 1209,
      "2019": 1210,
      "black": 1211,
      "ights": 1212,
      "arr": 1213,
      "2018": 1214,
      "late": 1215,
      "fur": 1216,
      "ba": 1217,
      "2017": 1218,
      "original": 1219,
      "father": 1220,
      "cult": 1221,
      "ga": 1222,
      "2009": 1223,
      "ient": 1224,
      "dan": 1225,
      "ried": 1226,
      "2008": 1227,
      "ison": 1228,
      "describ": 1229,
      "christ": 1230,
      "still": 1231,
      "children": 1232,
      "students": 1233,
      "short": 1234,
      "bs": 1235,
      "mark": 1236,
      "ides": 1237,
      "youn": 1238,
      "vious": 1239,
      "ha": 1240,
      "lear": 1241,
      "court": 1242,
      "tt": 1243,
      "player": 1244,
      "move": 1245,
      "cell": 1246,
      "ness": 1247,
      "track": 1248,
      "those": 1249,
      "pect": 1250,
      "acade": 1251,
      "aged": 1252,
      "rail": 1253,
      "const": 1254,
      "mult": 1255,
      "ler": 1256,
      "river": 1257,
      "ese": 1258,
      "bert": 1259,
      "education": 1260,
      "council": 1261,
      "action": 1262,
      "ability": 1263,
      "announced": 1264,
      "vest": 1265,
      "central": 1266,
      "army": 1267,
      "information": 1268,
      "division": 1269,
      "ats": 1270,
      "fed": 1271,
      "vide": 1272,
      "rench": 1273,
      "50": 1274,
      "flu": 1275,
      "pal": 1276,
      "ban": 1277,
      "lu": 1278,
      "species": 1279,
      "free": 1280,
      "great": 1281,
      "tro": 1282,
      "country": 1283,
      "island": 1284,
      "jap": 1285,
      "2006": 1286,
      "2007": 1287,
      "center": 1288,
      "activ": 1289,
      "2020": 1290,
      "effect": 1291,
      "gradu": 1292,
      "milit": 1293,
      "village": 1294,
      "face": 1295,
      "version": 1296,
      "stree": 1297,
      "population": 1298,
      "author": 1299,
      "batt": 1300,
      "period": 1301,
      "geor": 1302,
      "190": 1303,
      "prote": 1304,
      "ones": 1305,
      "bill": 1306,
      "claim": 1307,
      "english": 1308,
      "systems": 1309,
      "previous": 1310,
      "sty": 1311,
      "round": 1312,
      "make": 1313,
      "industr": 1314,
      "lat": 1315,
      "turn": 1316,
      "german": 1317,
      "japan": 1318,
      "ground": 1319,
      "conne": 1320,
      "month": 1321,
      "ney": 1322,
      "econ": 1323,
      "wide": 1324,
      "ency": 1325,
      "french": 1326,
      "character": 1327,
      "ample": 1328,
      "typ": 1329,
      "ming": 1330,
      "ilar": 1331,
      "constru": 1332,
      "commit": 1333,
      "stern": 1334,
      "right": 1335,
      "gest": 1336,
      "ps": 1337,
      "director": 1338,
      "various": 1339,
      "econom": 1340,
      "mun": 1341,
      "26": 1342,
      "lished": 1343,
      "ned": 1344,
      "technology": 1345,
      "broad": 1346,
      "tware": 1347,
      "ds": 1348,
      "established": 1349,
      "software": 1350,
      "invol": 1351,
      "force": 1352,
      "role": 1353,
      "placed": 1354,
      "fort": 1355,
      "import": 1356,
      "election": 1357,
      "every": 1358,
      "28": 1359,
      "ently": 1360,
      "cho": 1361,
      "equ": 1362,
      "given": 1363,
      "stat": 1364,
      "fri": 1365,
      "community": 1366,
      "ino": 1367,
      "ask": 1368,
      "result": 1369,
      "ained": 1370,
      "similar": 1371,
      "host": 1372,
      "much": 1373,
      "career": 1374,
      "pot": 1375,
      "squ": 1376,
      "term": 1377,
      "language": 1378,
      "27": 1379,
      "command": 1380,
      "itute": 1381,
      "ama": 1382,
      "plan": 1383,
      "hor": 1384,
      "hon": 1385,
      "mi": 1386,
      "mc": 1387,
      "need": 1388,
      "meth": 1389,
      "jour": 1390,
      "ker": 1391,
      "fic": 1392,
      "created": 1393,
      "rich": 1394,
      "direct": 1395,
      "attack": 1396,
      "common": 1397,
      "fran": 1398,
      "sold": 1399,
      "da": 1400,
      "brid": 1401,
      "feder": 1402,
      "moder": 1403,
      "started": 1404,
      "western": 1405,
      "intro": 1406,
      "ged": 1407,
      "developed": 1408,
      "william": 1409,
      "having": 1410,
      "189": 1411,
      "worked": 1412,
      "comb": 1413,
      "aft": 1414,
      "kill": 1415,
      "light": 1416,
      "di": 1417,
      "went": 1418,
      "afric": 1419,
      "anal": 1420,
      "invest": 1421,
      "reach": 1422,
      "els": 1423,
      "department": 1424,
      "wing": 1425,
      "friend": 1426,
      "health": 1427,
      "aren": 1428,
      "phys": 1429,
      "uses": 1430,
      "2021": 1431,
      "london": 1432,
      "take": 1433,
      "introdu": 1434,
      "gress": 1435,
      "moun": 1436,
      "video": 1437,
      "quar": 1438,
      "founded": 1439,
      "sent": 1440,
      "russ": 1441,
      "administ": 1442,
      "cogn": 1443,
      "pho": 1444,
      "labor": 1445,
      "vict": 1446,
      "joined": 1447,
      "change": 1448,
      "popular": 1449,
      "ken": 1450,
      "ibut": 1451,
      "pan": 1452,
      "white": 1453,
      "title": 1454,
      "..": 1455,
      "pract": 1456,
      "unch": 1457,
      "tar": 1458,
      "union": 1459,
      "office": 1460,
      "pain": 1461,
      "example": 1462,
      "29": 1463,
      "military": 1464,
      "good": 1465,
      "grand": 1466,
      "region": 1467,
      "aud": 1468,
      "next": 1469,
      "fel": 1470,
      "acc": 1471,
      "further": 1472,
      "become": 1473,
      "ris": 1474,
      "itions": 1475,
      "gold": 1476,
      "produced": 1477,
      "ery": 1478,
      "production": 1479,
      "street": 1480,
      "association": 1481,
      "cir": 1482,
      "dest": 1483,
      "dav": 1484,
      "case": 1485,
      "forman": 1486,
      "method": 1487,
      "story": 1488,
      "product": 1489,
      "corpor": 1490,
      "how": 1491,
      "bank": 1492,
      "han": 1493,
      "network": 1494,
      "written": 1495,
      "proble": 1496,
      "wa": 1497,
      "dev": 1498,
      "rock": 1499,
      "arts": 1500,
      "\")": 1501,
      "tic": 1502,
      "television": 1503,
      "ges": 1504,
      "hall": 1505,
      "independ": 1506,
      "came": 1507,
      "space": 1508,
      "priv": 1509,
      "political": 1510,
      "described": 1511,
      "without": 1512,
      "commiss": 1513,
      "xim": 1514,
      "tour": 1515,
      "half": 1516,
      "mac": 1517,
      "performan": 1518,
      "fre": 1519,
      "tor": 1520,
      "ving": 1521,
      "brother": 1522,
      "society": 1523,
      "civ": 1524,
      "cing": 1525,
      "sil": 1526,
      "anim": 1527,
      "ipal": 1528,
      "european": 1529,
      "dro": 1530,
      "mich": 1531,
      "ug": 1532,
      "epis": 1533,
      "study": 1534,
      "services": 1535,
      "applic": 1536,
      "ern": 1537,
      "wro": 1538,
      "hard": 1539,
      "ille": 1540,
      "pointed": 1541,
      "interest": 1542,
      "nia": 1543,
      "week": 1544,
      "avail": 1545,
      "2005": 1546,
      "hold": 1547,
      "sele": 1548,
      "modern": 1549,
      "teach": 1550,
      "exe": 1551,
      "institute": 1552,
      "ross": 1553,
      "full": 1554,
      "thing": 1555,
      "ivid": 1556,
      "wards": 1557,
      "making": 1558,
      "find": 1559,
      "commission": 1560,
      "wrote": 1561,
      "continued": 1562,
      "100": 1563,
      "mass": 1564,
      "debut": 1565,
      "radio": 1566,
      "mach": 1567,
      "fall": 1568,
      "proper": 1569,
      "itch": 1570,
      "cost": 1571,
      "188": 1572,
      "administr": 1573,
      "total": 1574,
      "ways": 1575,
      "tur": 1576,
      "flo": 1577,
      "night": 1578,
      "sour": 1579,
      "mad": 1580,
      "concer": 1581,
      "royal": 1582,
      "young": 1583,
      "dig": 1584,
      "ns": 1585,
      "ago": 1586,
      "tee": 1587,
      "ays": 1588,
      "married": 1589,
      "individ": 1590,
      "adv": 1591,
      "sam": 1592,
      "particular": 1593,
      "site": 1594,
      "atic": 1595,
      "ring": 1596,
      "official": 1597,
      "access": 1598,
      "ls": 1599,
      "oly": 1600,
      "particip": 1601,
      "working": 1602,
      "algor": 1603,
      "algorith": 1604,
      "ow": 1605,
      "ka": 1606,
      "2004": 1607,
      "professional": 1608,
      "ny": 1609,
      "los": 1610,
      "foc": 1611,
      "sat": 1612,
      "hen": 1613,
      "coach": 1614,
      "tradition": 1615,
      "media": 1616,
      "live": 1617,
      "itor": 1618,
      "contain": 1619,
      "hib": 1620,
      "dou": 1621,
      "stor": 1622,
      "returned": 1623,
      "toge": 1624,
      "nav": 1625,
      "sed": 1626,
      "indian": 1627,
      "together": 1628,
      "assist": 1629,
      "few": 1630,
      "considered": 1631,
      "ark": 1632,
      "offer": 1633,
      "england": 1634,
      "ending": 1635,
      "elected": 1636,
      "important": 1637,
      "exist": 1638,
      "muse": 1639,
      "republic": 1640,
      "ston": 1641,
      "asse": 1642,
      "jud": 1643,
      "acqu": 1644,
      "seven": 1645,
      "engineering": 1646,
      "influ": 1647,
      "base": 1648,
      "ense": 1649,
      "civil": 1650,
      "chief": 1651,
      "fire": 1652,
      "days": 1653,
      "ues": 1654,
      "tv": 1655,
      "employ": 1656,
      "big": 1657,
      "dam": 1658,
      "roman": 1659,
      "text": 1660,
      "available": 1661,
      "mel": 1662,
      "secre": 1663,
      "demo": 1664,
      "appointed": 1665,
      "tru": 1666,
      "coming": 1667,
      "ana": 1668,
      "manage": 1669,
      "cali": 1670,
      "termin": 1671,
      "aper": 1672,
      "2022": 1673,
      "recogn": 1674,
      "ars": 1675,
      "iment": 1676,
      "summer": 1677,
      "sex": 1678,
      "40": 1679,
      "mother": 1680,
      "186": 1681,
      "tra": 1682,
      "room": 1683,
      "opened": 1684,
      "type": 1685,
      "range": 1686,
      "2000": 1687,
      "ram": 1688,
      "daugh": 1689,
      "body": 1690,
      "release": 1691,
      "fest": 1692,
      "ky": 1693,
      "acy": 1694,
      "compet": 1695,
      "ov": 1696,
      "successful": 1697,
      "help": 1698,
      "enter": 1699,
      "iled": 1700,
      "crim": 1701,
      "trav": 1702,
      "ipt": 1703,
      "green": 1704,
      "india": 1705,
      "mission": 1706,
      "nes": 1707,
      "appeared": 1708,
      "close": 1709,
      "hill": 1710,
      "ify": 1711,
      "active": 1712,
      "journal": 1713,
      "museum": 1714,
      "lost": 1715,
      "ties": 1716,
      "bul": 1717,
      "compan": 1718,
      "mater": 1719,
      "ore": 1720,
      "ung": 1721,
      "minister": 1722,
      "archite": 1723,
      "front": 1724,
      "defin": 1725,
      "architect": 1726,
      "does": 1727,
      "function": 1728,
      "others": 1729,
      "studio": 1730,
      "points": 1731,
      "rac": 1732,
      "califor": 1733,
      "ti": 1734,
      "auto": 1735,
      "bc": 1736,
      "ological": 1737,
      "mur": 1738,
      "lie": 1739,
      "signed": 1740,
      "cat": 1741,
      "mand": 1742,
      "bridge": 1743,
      "launch": 1744,
      "signific": 1745,
      "once": 1746,
      "ership": 1747,
      "ane": 1748,
      "ja": 1749,
      "187": 1750,
      "envir": 1751,
      "ony": 1752,
      "meet": 1753,
      "california": 1754,
      "ington": 1755,
      "ification": 1756,
      "environ": 1757,
      "forms": 1758,
      "row": 1759,
      "professor": 1760,
      "iple": 1761,
      "redu": 1762,
      "ff": 1763,
      "never": 1764,
      "break": 1765,
      "ential": 1766,
      "lou": 1767,
      "cop": 1768,
      "tries": 1769,
      "mis": 1770,
      "sure": 1771,
      "ream": 1772,
      "rid": 1773,
      "style": 1774,
      "features": 1775,
      "cit": 1776,
      "ination": 1777,
      "docu": 1778,
      "ister": 1779,
      "communic": 1780,
      "france": 1781,
      "isl": 1782,
      "lands": 1783,
      "lot": 1784,
      "ensive": 1785,
      "outs": 1786,
      "begin": 1787,
      "rain": 1788,
      "areas": 1789,
      "players": 1790,
      "olymp": 1791,
      "construction": 1792,
      "ference": 1793,
      "playing": 1794,
      "canada": 1795,
      "sound": 1796,
      "teams": 1797,
      "2003": 1798,
      "wall": 1799,
      "thus": 1800,
      "ably": 1801,
      "degree": 1802,
      "rul": 1803,
      "master": 1804,
      "northern": 1805,
      "ither": 1806,
      "designed": 1807,
      "chair": 1808,
      "australia": 1809,
      "america": 1810,
      "gir": 1811,
      "istic": 1812,
      "temp": 1813,
      "fem": 1814,
      "fig": 1815,
      "log": 1816,
      "cross": 1817,
      "resul": 1818,
      "commer": 1819,
      "originally": 1820,
      "studies": 1821,
      "committee": 1822,
      "glo": 1823,
      "liter": 1824,
      "wat": 1825,
      "experi": 1826,
      "george": 1827,
      "dom": 1828,
      "ute": 1829,
      "ode": 1830,
      "battle": 1831,
      "training": 1832,
      "teen": 1833,
      "itut": 1834,
      "secret": 1835,
      "mean": 1836,
      "plat": 1837,
      "spr": 1838,
      "micro": 1839,
      "events": 1840,
      "recorded": 1841,
      "management": 1842,
      "tex": 1843,
      "performance": 1844,
      "upon": 1845,
      "bit": 1846,
      "across": 1847,
      "police": 1848,
      "covered": 1849,
      "wife": 1850,
      "hosp": 1851,
      "flow": 1852,
      "separ": 1853,
      "ilities": 1854,
      "instru": 1855,
      "2001": 1856,
      "scient": 1857,
      "james": 1858,
      "contribut": 1859,
      "2002": 1860,
      "news": 1861,
      "structure": 1862,
      "aign": 1863,
      "centre": 1864,
      "must": 1865,
      ".,": 1866,
      "away": 1867,
      "mart": 1868,
      "occur": 1869,
      "possible": 1870,
      "decl": 1871,
      "whe": 1872,
      "kar": 1873,
      "thom": 1874,
      "inste": 1875,
      "idence": 1876,
      "should": 1877,
      "ush": 1878,
      "fund": 1879,
      "ded": 1880,
      "ribut": 1881,
      "market": 1882,
      "viet": 1883,
      "secur": 1884,
      "mary": 1885,
      "ators": 1886,
      "reported": 1887,
      "china": 1888,
      "execut": 1889,
      "express": 1890,
      "()": 1891,
      "race": 1892,
      "itive": 1893,
      "strong": 1894,
      "schools": 1895,
      "hot": 1896,
      "bed": 1897,
      "southern": 1898,
      "dle": 1899,
      "exper": 1900,
      "novel": 1901,
      ",\"": 1902,
      "campaign": 1903,
      "currently": 1904,
      "ville": 1905,
      "angel": 1906,
      "forces": 1907,
      "hous": 1908,
      "gun": 1909,
      "tourn": 1910,
      "usually": 1911,
      "significant": 1912,
      "material": 1913,
      "ops": 1914,
      "native": 1915,
      "ples": 1916,
      "hab": 1917,
      "anti": 1918,
      "xic": 1919,
      "suf": 1920,
      "regular": 1921,
      "abo": 1922,
      "look": 1923,
      "desp": 1924,
      "fif": 1925,
      "section": 1926,
      "31": 1927,
      "relation": 1928,
      "inv": 1929,
      "records": 1930,
      "object": 1931,
      "libr": 1932,
      "related": 1933,
      "belie": 1934,
      "distribut": 1935,
      "mes": 1936,
      "ene": 1937,
      "promo": 1938,
      "taken": 1939,
      "code": 1940,
      "syn": 1941,
      "recent": 1942,
      "ki": 1943,
      "rights": 1944,
      "democr": 1945,
      "manu": 1946,
      "ature": 1947,
      "via": 1948,
      "bon": 1949,
      "medical": 1950,
      "bour": 1951,
      "scr": 1952,
      "cul": 1953,
      "ener": 1954,
      "daughter": 1955,
      "box": 1956,
      "includes": 1957,
      "treat": 1958,
      "parli": 1959,
      "throughout": 1960,
      "ites": 1961,
      "windo": 1962,
      "environment": 1963,
      "condu": 1964,
      "polic": 1965,
      "instead": 1966,
      "burg": 1967,
      "count": 1968,
      "inte": 1969,
      "know": 1970,
      "subsequ": 1971,
      "manag": 1972,
      "anch": 1973,
      "cou": 1974,
      "ising": 1975,
      "craft": 1976,
      "himself": 1977,
      "card": 1978,
      "stone": 1979,
      "parliament": 1980,
      "love": 1981,
      "kes": 1982,
      "mix": 1983,
      "ya": 1984,
      "standard": 1985,
      "anted": 1986,
      "despite": 1987,
      "wash": 1988,
      "chann": 1989,
      "aut": 1990,
      "draw": 1991,
      "cand": 1992,
      "consist": 1993,
      "sea": 1994,
      "fut": 1995,
      "lad": 1996,
      "goal": 1997,
      "bay": 1998,
      "bir": 1999,
      "david": 2000,
      "songs": 2001,
      "contract": 2002,
      "magaz": 2003,
      "alter": 2004,
      "eventually": 2005,
      "rank": 2006,
      "aver": 2007,
      "ances": 2008,
      "leading": 2009,
      "stage": 2010,
      "security": 2011,
      "little": 2012,
      "cis": 2013,
      "academy": 2014,
      "theat": 2015,
      "prior": 2016,
      "atory": 2017,
      "rap": 2018,
      "private": 2019,
      "complex": 2020,
      "ceed": 2021,
      "photo": 2022,
      "books": 2023,
      "broadcast": 2024,
      "1999": 2025,
      "hind": 2026,
      "ique": 2027,
      "groups": 2028,
      "railway": 2029,
      "sus": 2030,
      "pay": 2031,
      "lect": 2032,
      "quest": 2033,
      "hi": 2034,
      "artic": 2035,
      "fle": 2036,
      "ply": 2037,
      "heav": 2038,
      "bell": 2039,
      "germany": 2040,
      "personal": 2041,
      "performed": 2042,
      "relig": 2043,
      "exam": 2044,
      "scre": 2045,
      "sug": 2046,
      "saw": 2047,
      "introduced": 2048,
      "followed": 2049,
      "tail": 2050,
      "achie": 2051,
      "munic": 2052,
      "organization": 2053,
      "middle": 2054,
      "natural": 2055,
      "meas": 2056,
      "leav": 2057,
      "ax": 2058,
      "municipal": 2059,
      "festival": 2060,
      "ica": 2061,
      "umb": 2062,
      "seen": 2063,
      "coast": 2064,
      "vin": 2065,
      "ever": 2066,
      "defe": 2067,
      "respons": 2068,
      "lines": 2069,
      "inese": 2070,
      "span": 2071,
      "australian": 2072,
      "sun": 2073,
      "ius": 2074,
      "cam": 2075,
      "pie": 2076,
      "approach": 2077,
      "completed": 2078,
      "iction": 2079,
      "wil": 2080,
      "lic": 2081,
      "industry": 2082,
      "capital": 2083,
      "say": 2084,
      "liber": 2085,
      "independent": 2086,
      "added": 2087,
      "countries": 2088,
      "1998": 2089,
      "months": 2090,
      "60": 2091,
      "largest": 2092,
      "suggest": 2093,
      "ink": 2094,
      "gave": 2095,
      "eastern": 2096,
      "past": 2097,
      "chinese": 2098,
      "either": 2099,
      "enced": 2100,
      "disc": 2101,
      "olic": 2102,
      "ids": 2103,
      "domin": 2104,
      "hour": 2105,
      "provide": 2106,
      "web": 2107,
      "jer": 2108,
      "mir": 2109,
      "eight": 2110,
      "phy": 2111,
      "involved": 2112,
      "certain": 2113,
      "ye": 2114,
      "intell": 2115,
      "awarded": 2116,
      "bio": 2117,
      "dut": 2118,
      "aint": 2119,
      "directed": 2120,
      "ishing": 2121,
      "conference": 2122,
      "operation": 2123,
      "fight": 2124,
      "tempor": 2125,
      "federal": 2126,
      "jack": 2127,
      "lower": 2128,
      "cially": 2129,
      "ali": 2130,
      "review": 2131,
      "bot": 2132,
      "featured": 2133,
      "proved": 2134,
      "plement": 2135,
      "tournament": 2136,
      "iate": 2137,
      "intellig": 2138,
      "competition": 2139,
      "word": 2140,
      "rather": 2141,
      "spir": 2142,
      "subject": 2143,
      "chem": 2144,
      "here": 2145,
      "asing": 2146,
      "hospital": 2147,
      "digital": 2148,
      "programs": 2149,
      "user": 2150,
      "gal": 2151,
      "writing": 2152,
      "route": 2153,
      "attr": 2154,
      "iding": 2155,
      "eth": 2156,
      "transfer": 2157,
      "mountain": 2158,
      "tom": 2159,
      "sports": 2160,
      "finan": 2161,
      "awards": 2162,
      "episode": 2163,
      "higher": 2164,
      "legal": 2165,
      "nel": 2166,
      "ida": 2167,
      "block": 2168,
      "finished": 2169,
      "1996": 2170,
      "hun": 2171,
      "oney": 2172,
      "deal": 2173,
      "comes": 2174,
      "opt": 2175,
      "aring": 2176,
      "loss": 2177,
      "ox": 2178,
      "provided": 2179,
      "comput": 2180,
      "mathe": 2181,
      "espe": 2182,
      "hop": 2183,
      "date": 2184,
      "governor": 2185,
      "1997": 2186,
      "ases": 2187,
      "respect": 2188,
      "entire": 2189,
      "too": 2190,
      "mob": 2191,
      "speak": 2192,
      "writer": 2193,
      "capt": 2194,
      "stra": 2195,
      "argu": 2196,
      "russian": 2197,
      "psy": 2198,
      "iting": 2199,
      "fav": 2200,
      "frequ": 2201,
      "province": 2202,
      "saf": 2203,
      "gg": 2204,
      "remained": 2205,
      "cust": 2206,
      "plant": 2207,
      "listed": 2208,
      "paul": 2209,
      "era": 2210,
      "cath": 2211,
      "stated": 2212,
      "ael": 2213,
      "emer": 2214,
      "strate": 2215,
      "plann": 2216,
      "fellow": 2217,
      "arm": 2218,
      "standing": 2219,
      "die": 2220,
      "brand": 2221,
      "bud": 2222,
      "bish": 2223,
      "berg": 2224,
      "previously": 2225,
      "fourth": 2226,
      "document": 2227,
      "expl": 2228,
      "limited": 2229,
      "hit": 2230,
      "critic": 2231,
      "185": 2232,
      "hood": 2233,
      "prison": 2234,
      "vert": 2235,
      "student": 2236,
      "senior": 2237,
      "prin": 2238,
      "reason": 2239,
      "colon": 2240,
      "tax": 2241,
      "erous": 2242,
      "ping": 2243,
      "staff": 2244,
      "companies": 2245,
      "viol": 2246,
      "perform": 2247,
      "lake": 2248,
      "trade": 2249,
      "magazine": 2250,
      "igned": 2251,
      "approxim": 2252,
      "lt": 2253,
      "integr": 2254,
      "gian": 2255,
      "japanese": 2256,
      "uch": 2257,
      "least": 2258,
      "schol": 2259,
      "regard": 2260,
      "kingdom": 2261,
      "mig": 2262,
      "movement": 2263,
      "learning": 2264,
      "operations": 2265,
      "films": 2266,
      "paren": 2267,
      "color": 2268,
      "future": 2269,
      "source": 2270,
      "zer": 2271,
      "canadian": 2272,
      "uel": 2273,
      "mathemat": 2274,
      "primary": 2275,
      "washington": 2276,
      "exhib": 2277,
      "surv": 2278,
      "ends": 2279,
      "vic": 2280,
      "bound": 2281,
      "parts": 2282,
      "aries": 2283,
      "unit": 2284,
      "mexic": 2285,
      "report": 2286,
      "mas": 2287,
      "ready": 2288,
      "step": 2289,
      "views": 2290,
      "candid": 2291,
      "robert": 2292,
      "bat": 2293,
      "specific": 2294,
      "course": 2295,
      "respon": 2296,
      "1995": 2297,
      "arily": 2298,
      "lay": 2299,
      "chap": 2300,
      "ald": 2301,
      "memor": 2302,
      "collection": 2303,
      "airs": 2304,
      "christian": 2305,
      "plays": 2306,
      "shire": 2307,
      "replaced": 2308,
      "today": 2309,
      "foundation": 2310,
      "beginning": 2311,
      "pac": 2312,
      "plied": 2313,
      "ses": 2314,
      "ara": 2315,
      "commercial": 2316,
      "economic": 2317,
      "1994": 2318,
      "wr": 2319,
      "soon": 2320,
      "food": 2321,
      "theory": 2322,
      "prem": 2323,
      "nine": 2324,
      "ician": 2325,
      "championships": 2326,
      "bin": 2327,
      "thomas": 2328,
      "charles": 2329,
      "energy": 2330,
      "investig": 2331,
      "electron": 2332,
      "situ": 2333,
      "winning": 2334,
      "ners": 2335,
      "establish": 2336,
      "1992": 2337,
      "above": 2338,
      "woman": 2339,
      "victor": 2340,
      "relationship": 2341,
      "create": 2342,
      "cred": 2343,
      "ni": 2344,
      "foreign": 2345,
      "blue": 2346,
      "assemb": 2347,
      "shows": 2348,
      "stad": 2349,
      "manufact": 2350,
      "reser": 2351,
      "library": 2352,
      "changed": 2353,
      "smith": 2354,
      "boy": 2355,
      "traditional": 2356,
      "chall": 2357,
      "80": 2358,
      "iers": 2359,
      "agree": 2360,
      "algorithm": 2361,
      "mr": 2362,
      "nd": 2363,
      "graphy": 2364,
      "alex": 2365,
      "living": 2366,
      "multiple": 2367,
      "purch": 2368,
      "tu": 2369,
      "bad": 2370,
      "machine": 2371,
      "revol": 2372,
      "bow": 2373,
      "individual": 2374,
      "join": 2375,
      "scott": 2376,
      "italian": 2377,
      "lik": 2378,
      "nic": 2379,
      "louis": 2380,
      "cry": 2381,
      "mechan": 2382,
      "closed": 2383,
      "god": 2384,
      "initially": 2385,
      "istan": 2386,
      "sometimes": 2387,
      "taking": 2388,
      "indic": 2389,
      "tained": 2390,
      "screen": 2391,
      "fast": 2392,
      "channel": 2393,
      "sey": 2394,
      "ror": 2395,
      "implement": 2396,
      "generally": 2397,
      "custom": 2398,
      "ome": 2399,
      "utes": 2400,
      "artist": 2401,
      "atives": 2402,
      "culture": 2403,
      "earth": 2404,
      "owned": 2405,
      "peter": 2406,
      "ades": 2407,
      "wel": 2408,
      "brown": 2409,
      "conserv": 2410,
      "attended": 2411,
      "whose": 2412,
      "nomin": 2413,
      "issues": 2414,
      "1993": 2415,
      "occup": 2416,
      "assembly": 2417,
      "pose": 2418,
      "prove": 2419,
      "analys": 2420,
      "rew": 2421,
      "actions": 2422,
      "(,": 2423,
      "ake": 2424,
      "sis": 2425,
      "medal": 2426,
      "va": 2427,
      "cru": 2428,
      "african": 2429,
      "scal": 2430,
      "outside": 2431,
      "rup": 2432,
      "ray": 2433,
      "ength": 2434,
      "rael": 2435,
      "allowed": 2436,
      "reve": 2437,
      "branch": 2438,
      "decided": 2439,
      "inal": 2440,
      "motion": 2441,
      "leader": 2442,
      "cape": 2443,
      "prob": 2444,
      "rought": 2445,
      "share": 2446,
      "especially": 2447,
      "spo": 2448,
      "location": 2449,
      "israel": 2450,
      "stop": 2451,
      "ado": 2452,
      "windows": 2453,
      "itution": 2454,
      "fan": 2455,
      "gard": 2456,
      "feature": 2457,
      "represented": 2458,
      "greg": 2459,
      "almost": 2460,
      "reached": 2461,
      "michael": 2462,
      "bers": 2463,
      "congress": 2464,
      "itself": 2465,
      "required": 2466,
      "quarter": 2467,
      "1990": 2468,
      "onto": 2469,
      "complete": 2470,
      "35": 2471,
      "regional": 2472,
      "africa": 2473,
      "stream": 2474,
      "virgin": 2475,
      "keep": 2476,
      "killed": 2477,
      "issue": 2478,
      "squad": 2479,
      "running": 2480,
      "ibility": 2481,
      "recording": 2482,
      "poly": 2483,
      "path": 2484,
      "forest": 2485,
      "results": 2486,
      "spanish": 2487,
      "additional": 2488,
      "scored": 2489,
      "frank": 2490,
      "gas": 2491,
      "collabor": 2492,
      "intelligence": 2493,
      "graduate": 2494,
      "lord": 2495,
      "neigh": 2496,
      "mem": 2497,
      "ention": 2498,
      "officer": 2499,
      "behind": 2500,
      "territ": 2501,
      "stock": 2502,
      "associated": 2503,
      "1991": 2504,
      "changes": 2505,
      "ipp": 2506,
      "theatre": 2507,
      "francis": 2508,
      "cep": 2509,
      "historic": 2510,
      "acts": 2511,
      "buildings": 2512,
      "claimed": 2513,
      "ols": 2514,
      "quality": 2515,
      "iation": 2516,
      "aircraft": 2517,
      "ems": 2518,
      "means": 2519,
      "kore": 2520,
      "soft": 2521,
      "cele": 2522,
      "anth": 2523,
      "problem": 2524,
      "advan": 2525,
      "load": 2526,
      "better": 2527,
      "hig": 2528,
      "burn": 2529,
      "famil": 2530,
      "campus": 2531,
      "psych": 2532,
      "paris": 2533,
      "lier": 2534,
      "users": 2535,
      "oso": 2536,
      "theast": 2537,
      "wish": 2538,
      "imp": 2539,
      "za": 2540,
      "tell": 2541,
      "launched": 2542,
      "cel": 2543,
      "manager": 2544,
      "practice": 2545,
      "184": 2546,
      "rate": 2547,
      "ware": 2548,
      "jose": 2549,
      "itar": 2550,
      "\"),": 2551,
      "expand": 2552,
      "policy": 2553,
      "stan": 2554,
      "lack": 2555,
      "fish": 2556,
      "grow": 2557,
      "sor": 2558,
      "speed": 2559,
      "organiz": 2560,
      "length": 2561,
      "apt": 2562,
      "characters": 2563,
      "editor": 2564,
      "sar": 2565,
      "princ": 2566,
      "soviet": 2567,
      "terms": 2568,
      "catholic": 2569,
      "executive": 2570,
      "sand": 2571,
      "km": 2572,
      "tery": 2573,
      "problems": 2574,
      "require": 2575,
      "diffic": 2576,
      "cases": 2577,
      "concept": 2578,
      "ireland": 2579,
      "conf": 2580,
      "lee": 2581,
      "brought": 2582,
      "kr": 2583,
      "studied": 2584,
      "towards": 2585,
      "size": 2586,
      "cens": 2587,
      "bach": 2588,
      "travel": 2589,
      "analysis": 2590,
      "1989": 2591,
      "online": 2592,
      "doctor": 2593,
      "bishop": 2594,
      "mont": 2595,
      "lor": 2596,
      "financial": 2597,
      "hest": 2598,
      "amed": 2599,
      "ape": 2600,
      "mod": 2601,
      "bey": 2602,
      "chic": 2603,
      "value": 2604,
      "sky": 2605,
      "connect": 2606,
      "fly": 2607,
      "money": 2608,
      "store": 2609,
      "names": 2610,
      "aland": 2611,
      "mou": 2612,
      "defeated": 2613,
      "tempt": 2614,
      "castle": 2615,
      "clear": 2616,
      "fit": 2617,
      "except": 2618,
      "fair": 2619,
      "ulty": 2620,
      "operating": 2621,
      "aps": 2622,
      "artists": 2623,
      "got": 2624,
      "amoun": 2625,
      "transport": 2626,
      "richard": 2627,
      "henry": 2628,
      "female": 2629,
      "approximately": 2630,
      "cate": 2631,
      "flor": 2632,
      "ano": 2633,
      "mol": 2634,
      "decision": 2635,
      "ledge": 2636,
      "secretary": 2637,
      "property": 2638,
      "supported": 2639,
      "hus": 2640,
      "resour": 2641,
      "edition": 2642,
      "32": 2643,
      "usion": 2644,
      "gall": 2645,
      "1988": 2646,
      "global": 2647,
      "internet": 2648,
      "70": 2649,
      "minor": 2650,
      "mess": 2651,
      "pil": 2652,
      "saint": 2653,
      "guard": 2654,
      "kin": 2655,
      "academic": 2656,
      "500": 2657,
      "subst": 2658,
      "celebr": 2659,
      "counter": 2660,
      "products": 2661,
      "sir": 2662,
      "agon": 2663,
      "sav": 2664,
      "urban": 2665,
      "estim": 2666,
      "athlet": 2667,
      "swed": 2668,
      "administration": 2669,
      "py": 2670,
      "safe": 2671,
      "temporary": 2672,
      "eas": 2673,
      "lived": 2674,
      "gt": 2675,
      "ander": 2676,
      "hic": 2677,
      "chest": 2678,
      "heart": 2679,
      "tun": 2680,
      "transl": 2681,
      "rural": 2682,
      "premier": 2683,
      "numerous": 2684,
      "earlier": 2685,
      "ira": 2686,
      "ension": 2687,
      "stic": 2688,
      "ull": 2689,
      "din": 2690,
      "units": 2691,
      "bass": 2692,
      "ari": 2693,
      "antic": 2694,
      "worth": 2695,
      "spect": 2696,
      "institut": 2697,
      "ption": 2698,
      "cultural": 2699,
      "youth": 2700,
      "applications": 2701,
      "types": 2702,
      "annual": 2703,
      "gent": 2704,
      "honor": 2705,
      "texas": 2706,
      "already": 2707,
      "basket": 2708,
      "happ": 2709,
      "ients": 2710,
      "aught": 2711,
      "zo": 2712,
      "pet": 2713,
      "places": 2714,
      "provides": 2715,
      "install": 2716,
      "behav": 2717,
      "average": 2718,
      "square": 2719,
      "olympics": 2720,
      "pun": 2721,
      "whom": 2722,
      "activities": 2723,
      "pected": 2724,
      "equip": 2725,
      "link": 2726,
      "gs": 2727,
      "ji": 2728,
      "1984": 2729,
      "nation": 2730,
      "noted": 2731,
      "ains": 2732,
      "forced": 2733,
      "spent": 2734,
      "1986": 2735,
      "prince": 2736,
      "subsequently": 2737,
      "goals": 2738,
      "chart": 2739,
      "starting": 2740,
      "notable": 2741,
      "opening": 2742,
      "acted": 2743,
      "increased": 2744,
      "content": 2745,
      "aled": 2746,
      "prevent": 2747,
      "going": 2748,
      "iii": 2749,
      "sciences": 2750,
      "highest": 2751,
      "selected": 2752,
      "spring": 2753,
      "arab": 2754,
      "neg": 2755,
      "1987": 2756,
      "attempt": 2757,
      "fc": 2758,
      "pred": 2759,
      "paper": 2760,
      "particularly": 2761,
      "oh": 2762,
      "bol": 2763,
      "valley": 2764,
      "zealand": 2765,
      "philoso": 2766,
      "uals": 2767,
      "improve": 2768,
      "demon": 2769,
      "...": 2770,
      "variety": 2771,
      "appearance": 2772,
      "convent": 2773,
      "image": 2774,
      "newsp": 2775,
      "majority": 2776,
      "sec": 2777,
      "medic": 2778,
      "physical": 2779,
      "cher": 2780,
      "prime": 2781,
      "progress": 2782,
      "ought": 2783,
      "iff": 2784,
      "atl": 2785,
      "elements": 2786,
      "protest": 2787,
      "iqu": 2788,
      "dim": 2789,
      "musical": 2790,
      "nar": 2791,
      "settle": 2792,
      "vehic": 2793,
      "painting": 2794,
      "dar": 2795,
      "90": 2796,
      "consider": 2797,
      "deb": 2798,
      "neu": 2799,
      "nature": 2800,
      "1985": 2801,
      "ging": 2802,
      "birth": 2803,
      "becoming": 2804,
      "below": 2805,
      "experience": 2806,
      "captain": 2807,
      "rd": 2808,
      "dance": 2809,
      "wis": 2810,
      "serving": 2811,
      "destroy": 2812,
      "actor": 2813,
      "kets": 2814,
      "contains": 2815,
      "36": 2816,
      "thre": 2817,
      "firm": 2818,
      "izing": 2819,
      "ils": 2820,
      "comed": 2821,
      "kh": 2822,
      "evol": 2823,
      "application": 2824,
      "lock": 2825,
      "matches": 2826,
      "attemp": 2827,
      "beat": 2828,
      "rev": 2829,
      "dun": 2830,
      "thought": 2831,
      "ada": 2832,
      "table": 2833,
      "multi": 2834,
      "contest": 2835,
      "farm": 2836,
      "chicago": 2837,
      "models": 2838,
      "wan": 2839,
      "done": 2840,
      "iance": 2841,
      "slo": 2842,
      "ordin": 2843,
      "acquired": 2844,
      "religious": 2845,
      "ultim": 2846,
      "mann": 2847,
      "istics": 2848,
      "typically": 2849,
      "queen": 2850,
      "quick": 2851,
      "words": 2852,
      "syl": 2853,
      "webs": 2854,
      "mobile": 2855,
      "clim": 2856,
      "sens": 2857,
      "carol": 2858,
      "historical": 2859,
      "pap": 2860,
      "evidence": 2861,
      "italy": 2862,
      "dor": 2863,
      "singer": 2864,
      "seat": 2865,
      "ches": 2866,
      "incorpor": 2867,
      "1980": 2868,
      "awa": 2869,
      "give": 2870,
      "si": 2871,
      "entered": 2872,
      "pack": 2873,
      "victory": 2874,
      "\").": 2875,
      "methods": 2876,
      "score": 2877,
      "dead": 2878,
      "1983": 2879,
      "famous": 2880,
      "knowledge": 2881,
      "immed": 2882,
      "empire": 2883,
      "justice": 2884,
      "shown": 2885,
      "alle": 2886,
      "cab": 2887,
      "idents": 2888,
      "response": 2889,
      "ona": 2890,
      "concl": 2891,
      "citiz": 2892,
      "drop": 2893,
      "scot": 2894,
      "takes": 2895,
      "referred": 2896,
      "programming": 2897,
      "enc": 2898,
      "shot": 2899,
      "aging": 2900,
      "necess": 2901,
      "increase": 2902,
      "nas": 2903,
      "basketball": 2904,
      "passed": 2905,
      "format": 2906,
      "chairman": 2907,
      "electric": 2908,
      "sters": 2909,
      "finally": 2910,
      "therefore": 2911,
      "agric": 2912,
      "ime": 2913,
      "deep": 2914,
      "odes": 2915,
      "riage": 2916,
      "democratic": 2917,
      "tho": 2918,
      "vice": 2919,
      "34": 2920,
      "pon": 2921,
      "proposed": 2922,
      "vot": 2923,
      "runs": 2924,
      "presented": 2925,
      "fully": 2926,
      "deliver": 2927,
      "grade": 2928,
      "ump": 2929,
      "cd": 2930,
      "meaning": 2931,
      "iel": 2932,
      "legisl": 2933,
      "anta": 2934,
      "bird": 2935,
      "touch": 2936,
      "iran": 2937,
      "cav": 2938,
      "scientific": 2939,
      "silver": 2940,
      "len": 2941,
      "virginia": 2942,
      "offered": 2943,
      "weight": 2944,
      "stadium": 2945,
      "larger": 2946,
      "platform": 2947,
      "determin": 2948,
      "vey": 2949,
      "technical": 2950,
      "wind": 2951,
      "acting": 2952,
      "ficient": 2953,
      "ened": 2954,
      "likely": 2955,
      "applied": 2956,
      "phone": 2957,
      "olf": 2958,
      "assistant": 2959,
      "suit": 2960,
      "suffer": 2961,
      "projects": 2962,
      "1979": 2963,
      "mostly": 2964,
      "erson": 2965,
      "caused": 2966,
      "selves": 2967,
      "respond": 2968,
      "increasing": 2969,
      "advis": 2970,
      "fill": 2971,
      "greek": 2972,
      "retired": 2973,
      "discuss": 2974,
      "meeting": 2975,
      "mitted": 2976,
      "angeles": 2977,
      "foun": 2978,
      "frame": 2979,
      "kind": 2980,
      "ayed": 2981,
      "overall": 2982,
      "languages": 2983,
      "gam": 2984,
      "sched": 2985,
      "revolution": 2986,
      "lap": 2987,
      "yn": 2988,
      "spl": 2989,
      "initial": 2990,
      "whether": 2991,
      "serve": 2992,
      "rand": 2993,
      "peace": 2994,
      "memory": 2995,
      "trial": 2996,
      "parish": 2997,
      "mut": 2998,
      "operated": 2999,
      "door": 3000,
      "separate": 3001,
      "parents": 3002,
      "agricult": 3003,
      "dise": 3004,
      "sn": 3005,
      "joint": 3006,
      "russia": 3007,
      "earned": 3008,
      "45": 3009,
      "idea": 3010,
      "yl": 3011,
      "1982": 3012,
      "inct": 3013,
      "agre": 3014,
      "longer": 3015,
      "census": 3016,
      "1st": 3017,
      "ships": 3018,
      "winter": 3019,
      "metro": 3020,
      "phen": 3021,
      "difficult": 3022,
      "core": 3023,
      "peak": 3024,
      "wild": 3025,
      "sett": 3026,
      "families": 3027,
      "37": 3028,
      "advanced": 3029,
      "competed": 3030,
      "braz": 3031,
      "address": 3032,
      "always": 3033,
      "allows": 3034,
      "bes": 3035,
      "inj": 3036,
      "entertain": 3037,
      "hur": 3038,
      "mention": 3039,
      "aven": 3040,
      "upper": 3041,
      "shop": 3042,
      "helped": 3043,
      "moving": 3044,
      "might": 3045,
      "dete": 3046,
      "ips": 3047,
      "levels": 3048,
      "trib": 3049,
      "sister": 3050,
      "latter": 3051,
      "remains": 3052,
      "occas": 3053,
      "fix": 3054,
      "rio": 3055,
      "1980s": 3056,
      "status": 3057,
      "percent": 3058,
      "avo": 3059,
      "idae": 3060,
      "rang": 3061,
      "restr": 3062,
      "raised": 3063,
      "build": 3064,
      "focus": 3065,
      "proto": 3066,
      "pict": 3067,
      "ku": 3068,
      "compl": 3069,
      "ckey": 3070,
      "graduated": 3071,
      "patter": 3072,
      "fail": 3073,
      "ises": 3074,
      "houses": 3075,
      "nations": 3076,
      "creation": 3077,
      "complet": 3078,
      "bring": 3079,
      "ey": 3080,
      "yu": 3081,
      "workers": 3082,
      "chester": 3083,
      "dol": 3084,
      "produce": 3085,
      "isions": 3086,
      "gi": 3087,
      "penn": 3088,
      "ll": 3089,
      "girl": 3090,
      "industrial": 3091,
      "themselves": 3092,
      "38": 3093,
      "jr": 3094,
      "irish": 3095,
      "elections": 3096,
      "benef": 3097,
      "hours": 3098,
      "cient": 3099,
      "ola": 3100,
      "prize": 3101,
      "promin": 3102,
      "mexico": 3103,
      "asked": 3104,
      "directly": 3105,
      "joseph": 3106,
      "friends": 3107,
      "wales": 3108,
      "demand": 3109,
      "dedic": 3110,
      "composed": 3111,
      "ena": 3112,
      "akes": 3113,
      "ously": 3114,
      "border": 3115,
      "regiment": 3116,
      "arrest": 3117,
      "compon": 3118,
      "1981": 3119,
      "label": 3120,
      "vote": 3121,
      "isation": 3122,
      "ulated": 3123,
      "numbers": 3124,
      "article": 3125,
      "ables": 3126,
      "vari": 3127,
      "pra": 3128,
      "leaving": 3129,
      "vocal": 3130,
      "pul": 3131,
      "asia": 3132,
      "architecture": 3133,
      "collect": 3134,
      "kn": 3135,
      "1976": 3136,
      "potential": 3137,
      "guitar": 3138,
      "ech": 3139,
      "1972": 3140,
      "twent": 3141,
      "wit": 3142,
      "scor": 3143,
      "blood": 3144,
      "graphic": 3145,
      "regist": 3146,
      "izes": 3147,
      "corporation": 3148,
      "makes": 3149,
      "airport": 3150,
      "camer": 3151,
      "stars": 3152,
      "onom": 3153,
      "wers": 3154,
      "cause": 3155,
      "1975": 3156,
      "1974": 3157,
      "movie": 3158,
      "voice": 3159,
      "initi": 3160,
      "conver": 3161,
      "igan": 3162,
      "poor": 3163,
      "consists": 3164,
      "heavy": 3165,
      "effects": 3166,
      "stations": 3167,
      "circ": 3168,
      "genus": 3169,
      "1968": 3170,
      "1978": 3171,
      "aur": 3172,
      "drug": 3173,
      "rat": 3174,
      "mainly": 3175,
      "33": 3176,
      "habit": 3177,
      "page": 3178,
      "influence": 3179,
      "fifth": 3180,
      "rical": 3181,
      "brazil": 3182,
      "ministry": 3183,
      "nis": 3184,
      "singles": 3185,
      "male": 3186,
      "ancient": 3187,
      "onic": 3188,
      "rome": 3189,
      "faculty": 3190,
      "belong": 3191,
      "excl": 3192,
      "highway": 3193,
      "visit": 3194,
      "ini": 3195,
      "cript": 3196,
      "positive": 3197,
      "navy": 3198,
      "positions": 3199,
      "defense": 3200,
      "ukrain": 3201,
      "wed": 3202,
      "cham": 3203,
      "gue": 3204,
      "mental": 3205,
      "responsible": 3206,
      "alleg": 3207,
      "promoted": 3208,
      "ather": 3209,
      "municipality": 3210,
      "dra": 3211,
      "bron": 3212,
      "fields": 3213,
      "cities": 3214,
      "75": 3215,
      "agreement": 3216,
      "capac": 3217,
      "junior": 3218,
      "beth": 3219,
      "sell": 3220,
      "phas": 3221,
      "surface": 3222,
      "matic": 3223,
      "ume": 3224,
      "conditions": 3225,
      "appears": 3226,
      "jewish": 3227,
      "symb": 3228,
      "1970": 3229,
      "zy": 3230,
      "rot": 3231,
      "ota": 3232,
      "fal": 3233,
      "defined": 3234,
      "1977": 3235,
      "dark": 3236,
      "weeks": 3237,
      "account": 3238,
      "1970s": 3239,
      "1990s": 3240,
      "oil": 3241,
      "hero": 3242,
      "rect": 3243,
      "request": 3244,
      "gene": 3245,
      "analy": 3246,
      "lam": 3247,
      "amount": 3248,
      "jim": 3249,
      "rose": 3250,
      "dat": 3251,
      "failed": 3252,
      "alongside": 3253,
      "64": 3254,
      "plans": 3255,
      "greater": 3256,
      "letter": 3257,
      "believed": 3258,
      "spain": 3259,
      "scholar": 3260,
      "anne": 3261,
      "cric": 3262,
      "succeed": 3263,
      "turned": 3264,
      "brig": 3265,
      "bomb": 3266,
      "martin": 3267,
      "charge": 3268,
      "marriage": 3269,
      "pak": 3270,
      "deput": 3271,
      "tam": 3272,
      "florida": 3273,
      "ario": 3274,
      "asian": 3275,
      "primarily": 3276,
      "pair": 3277,
      "rule": 3278,
      "enough": 3279,
      "skill": 3280,
      "nuc": 3281,
      "explo": 3282,
      "19th": 3283,
      "bles": 3284,
      "1973": 3285,
      "flight": 3286,
      "tree": 3287,
      "dip": 3288,
      "generation": 3289,
      "tracks": 3290,
      "politician": 3291,
      "remaining": 3292,
      "holds": 3293,
      "anton": 3294,
      "mayor": 3295,
      "shar": 3296,
      "bury": 3297,
      "yard": 3298,
      "threat": 3299,
      "drama": 3300,
      "motor": 3301,
      "sport": 3302,
      "wanted": 3303,
      "nick": 3304,
      "commonly": 3305,
      "issued": 3306,
      "pit": 3307,
      "sid": 3308,
      "rug": 3309,
      "offers": 3310,
      "folk": 3311,
      "individuals": 3312,
      "resol": 3313,
      "hum": 3314,
      "constructed": 3315,
      "shi": 3316,
      "atively": 3317,
      "ole": 3318,
      "producer": 3319,
      "wealth": 3320,
      "extended": 3321,
      "distribution": 3322,
      "tel": 3323,
      "scale": 3324,
      "ml": 3325,
      "basic": 3326,
      "growth": 3327,
      "uck": 3328,
      "communication": 3329,
      "ories": 3330,
      "senate": 3331,
      "anda": 3332,
      "itation": 3333,
      "intended": 3334,
      "administrative": 3335,
      "compared": 3336,
      "iger": 3337,
      "ala": 3338,
      "print": 3339,
      "yet": 3340,
      "double": 3341,
      "rupt": 3342,
      "marine": 3343,
      "simple": 3344,
      "founder": 3345,
      "secondary": 3346,
      "artific": 3347,
      "forts": 3348,
      "murder": 3349,
      "colum": 3350,
      "map": 3351,
      "180": 3352,
      "neighbor": 3353,
      "adop": 3354,
      "cere": 3355,
      "migr": 3356,
      "metal": 3357,
      "pic": 3358,
      "1969": 3359,
      "sons": 3360,
      "nearly": 3361,
      "ifying": 3362,
      "activity": 3363,
      "2nd": 3364,
      "minim": 3365,
      "1920": 3366,
      "visual": 3367,
      "minutes": 3368,
      "virt": 3369,
      "literature": 3370,
      "latin": 3371,
      "achieve": 3372,
      "basis": 3373,
      "prie": 3374,
      "highly": 3375,
      "hockey": 3376,
      "maxim": 3377,
      "experiment": 3378,
      "rick": 3379,
      "resources": 3380,
      "forward": 3381,
      "comment": 3382,
      "organized": 3383,
      "inde": 3384,
      "husband": 3385,
      "hong": 3386,
      "expected": 3387,
      "officially": 3388,
      "ura": 3389,
      "confl": 3390,
      "dies": 3391,
      "ibe": 3392,
      "carried": 3393,
      "coal": 3394,
      "quant": 3395,
      "ires": 3396,
      "scen": 3397,
      "pc": 3398,
      "brief": 3399,
      "geo": 3400,
      "titled": 3401,
      "provin": 3402,
      "versions": 3403,
      "managed": 3404,
      "yer": 3405,
      "website": 3406,
      "critical": 3407,
      "iron": 3408,
      "1945": 3409,
      "inside": 3410,
      "watch": 3411,
      "true": 3412,
      "1971": 3413,
      "wise": 3414,
      "\"\"": 3415,
      "rules": 3416,
      "sets": 3417,
      "preser": 3418,
      "seasons": 3419,
      "1967": 3420,
      "disco": 3421,
      "treatment": 3422,
      "corps": 3423,
      "maintain": 3424,
      "interpre": 3425,
      "audi": 3426,
      "islam": 3427,
      "sin": 3428,
      "candidate": 3429,
      "jam": 3430,
      "insp": 3431,
      "temple": 3432,
      "question": 3433,
      "bil": 3434,
      "1964": 3435,
      "islands": 3436,
      "ingu": 3437,
      "repe": 3438,
      "sess": 3439,
      "commander": 3440,
      "algorithms": 3441,
      "quarters": 3442,
      "artificial": 3443,
      "ato": 3444,
      "sexual": 3445,
      "pool": 3446,
      "discovered": 3447,
      "divided": 3448,
      "drum": 3449,
      "cha": 3450,
      "note": 3451,
      "needed": 3452,
      "ador": 3453,
      "39": 3454,
      "billion": 3455,
      "brothers": 3456,
      "haw": 3457,
      "chos": 3458,
      "colo": 3459,
      "lives": 3460,
      "judge": 3461,
      "bra": 3462,
      "thr": 3463,
      "leave": 3464,
      "follows": 3465,
      "whole": 3466,
      "sole": 3467,
      "entertainment": 3468,
      "widely": 3469,
      "contemporary": 3470,
      "rovers": 3471,
      "formerly": 3472,
      "ets": 3473,
      "ike": 3474,
      "normal": 3475,
      "dutch": 3476,
      "formal": 3477,
      "stories": 3478,
      "kel": 3479,
      "renamed": 3480,
      "ee": 3481,
      "joy": 3482,
      "dedicated": 3483,
      "enn": 3484,
      "20th": 3485,
      "mm": 3486,
      "ita": 3487,
      "gain": 3488,
      "replace": 3489,
      "communications": 3490,
      "sales": 3491,
      "direction": 3492,
      "thur": 3493,
      "switch": 3494,
      "dio": 3495,
      "continue": 3496,
      "gia": 3497,
      "ero": 3498,
      "purpose": 3499,
      "invent": 3500,
      "authority": 3501,
      "weap": 3502,
      "hotel": 3503,
      "icted": 3504,
      "appearances": 3505,
      "gate": 3506,
      "scene": 3507,
      "pick": 3508,
      "accep": 3509,
      "kings": 3510,
      "favor": 3511,
      "iang": 3512,
      "leadership": 3513,
      "freed": 3514,
      "vania": 3515,
      "edge": 3516,
      "bac": 3517,
      "carry": 3518,
      "smaller": 3519,
      "isa": 3520,
      "feel": 3521,
      "lyn": 3522,
      "resist": 3523,
      "risk": 3524,
      "portun": 3525,
      "extre": 3526,
      "connected": 3527,
      "1965": 3528,
      "opportun": 3529,
      "ulations": 3530,
      "burgh": 3531,
      "mond": 3532,
      "organizations": 3533,
      "herit": 3534,
      "microsoft": 3535,
      "ider": 3536,
      "edward": 3537,
      "supre": 3538,
      "sac": 3539,
      "exchange": 3540,
      "poland": 3541,
      "traff": 3542,
      "ift": 3543,
      "ots": 3544,
      "drive": 3545,
      "mode": 3546,
      "iques": 3547,
      "your": 3548,
      "bang": 3549,
      "itude": 3550,
      "hund": 3551,
      "vid": 3552,
      "1960s": 3553,
      "daily": 3554,
      "feed": 3555,
      "aust": 3556,
      "teaching": 3557,
      "ustr": 3558,
      "grew": 3559,
      "kil": 3560,
      "cert": 3561,
      "aves": 3562,
      "affairs": 3563,
      "kir": 3564,
      "guest": 3565,
      "troops": 3566,
      "ologies": 3567,
      "devices": 3568,
      "bbc": 3569,
      "aug": 3570,
      "mouth": 3571,
      "participated": 3572,
      "defeat": 3573,
      "estate": 3574,
      "element": 3575,
      "aka": 3576,
      "publish": 3577,
      "mixed": 3578,
      "medicine": 3579,
      "girls": 3580,
      "newspaper": 3581,
      "jul": 3582,
      "ranked": 3583,
      "functions": 3584,
      "dome": 3585,
      "lies": 3586,
      "iately": 3587,
      "officers": 3588,
      "older": 3589,
      "conducted": 3590,
      "agency": 3591,
      "setting": 3592,
      "trust": 3593,
      "partner": 3594,
      "efforts": 3595,
      "tower": 3596,
      "principal": 3597,
      "cree": 3598,
      "constitu": 3599,
      "kong": 3600,
      "footballer": 3601,
      "distance": 3602,
      "combined": 3603,
      "transferred": 3604,
      "sumed": 3605,
      "cycl": 3606,
      "constant": 3607,
      "fine": 3608,
      "condition": 3609,
      "nu": 3610,
      "sr": 3611,
      "scotland": 3612,
      "1966": 3613,
      "emper": 3614,
      "iza": 3615,
      "signal": 3616,
      "existing": 3617,
      "hundred": 3618,
      "nan": 3619,
      "iter": 3620,
      "recently": 3621,
      "scul": 3622,
      "roll": 3623,
      "egy": 3624,
      "pin": 3625,
      "perman": 3626,
      "revealed": 3627,
      "brook": 3628,
      "orient": 3629,
      "smo": 3630,
      "hr": 3631,
      "job": 3632,
      "protect": 3633,
      "electronic": 3634,
      "relations": 3635,
      "saying": 3636,
      "traffic": 3637,
      "enem": 3638,
      "planned": 3639,
      "abilities": 3640,
      "yan": 3641,
      "pacific": 3642,
      "tric": 3643,
      "1960": 3644,
      "flag": 3645,
      "circu": 3646,
      "nearby": 3647,
      "carolina": 3648,
      "apple": 3649,
      "aware": 3650,
      "britain": 3651,
      "mathematics": 3652,
      "ries": 3653,
      "las": 3654,
      "protection": 3655,
      "boys": 3656,
      "quickly": 3657,
      "holding": 3658,
      "iga": 3659,
      "encies": 3660,
      "inspired": 3661,
      "apart": 3662,
      "recomm": 3663,
      "measure": 3664,
      "48": 3665,
      "territory": 3666,
      "polish": 3667,
      "observ": 3668,
      "spirit": 3669,
      "elled": 3670,
      "advert": 3671,
      "shortly": 3672,
      "clin": 3673,
      "ost": 3674,
      "uries": 3675,
      "nast": 3676,
      "orche": 3677,
      "capacity": 3678,
      "told": 3679,
      "beach": 3680,
      "distingu": 3681,
      "assigned": 3682,
      "albums": 3683,
      "removed": 3684,
      "dynam": 3685,
      "impact": 3686,
      "temper": 3687,
      "demonstr": 3688,
      "sources": 3689,
      "equipment": 3690,
      "prominent": 3691,
      "giving": 3692,
      "columb": 3693,
      "interview": 3694,
      "affil": 3695,
      "respectively": 3696,
      "educational": 3697,
      "republican": 3698,
      "iana": 3699,
      "tank": 3700,
      "wrest": 3701,
      "attention": 3702,
      "azz": 3703,
      "facilities": 3704,
      "challeng": 3705,
      "oth": 3706,
      "bak": 3707,
      "65": 3708,
      "verse": 3709,
      "confir": 3710,
      "piece": 3711,
      "hat": 3712,
      "imper": 3713,
      "networks": 3714,
      "agreed": 3715,
      "rare": 3716,
      "jones": 3717,
      "optim": 3718,
      "rence": 3719,
      "egypt": 3720,
      "deputy": 3721,
      "allowing": 3722,
      "sites": 3723,
      "teacher": 3724,
      "interface": 3725,
      "chemical": 3726,
      "reviews": 3727,
      "hosted": 3728,
      "gely": 3729,
      "prop": 3730,
      "processing": 3731,
      "fox": 3732,
      "prom": 3733,
      "ugu": 3734,
      "adam": 3735,
      "rugby": 3736,
      "kal": 3737,
      "bachel": 3738,
      "sequence": 3739,
      "sche": 3740,
      "ros": 3741,
      "marked": 3742,
      "elim": 3743,
      "alph": 3744,
      "conduct": 3745,
      "usa": 3746,
      "settlement": 3747,
      "split": 3748,
      "thir": 3749,
      "stein": 3750,
      "classes": 3751,
      "dur": 3752,
      "twenty": 3753,
      "leaders": 3754,
      "immediately": 3755,
      "environmental": 3756,
      "creating": 3757,
      "figure": 3758,
      "ivity": 3759,
      "floor": 3760,
      "iles": 3761,
      "memorial": 3762,
      "advant": 3763,
      "providing": 3764,
      "stren": 3765,
      "philipp": 3766,
      "scottish": 3767,
      "expanded": 3768,
      "mail": 3769,
      "pakistan": 3770,
      "fred": 3771,
      "winner": 3772,
      "detail": 3773,
      "identified": 3774,
      "device": 3775,
      "ange": 3776,
      "spread": 3777,
      "secut": 3778,
      "pennsyl": 3779,
      "rus": 3780,
      "adopted": 3781,
      "owner": 3782,
      "soldiers": 3783,
      "max": 3784,
      "clubs": 3785,
      "thous": 3786,
      "fell": 3787,
      "cip": 3788,
      "render": 3789,
      "glass": 3790,
      "purchased": 3791,
      "featuring": 3792,
      "taught": 3793,
      "supreme": 3794,
      "thin": 3795,
      "critics": 3796,
      "comedy": 3797,
      "mine": 3798,
      "emperor": 3799,
      "iring": 3800,
      "computing": 3801,
      "passeng": 3802,
      "safety": 3803,
      "3rd": 3804,
      "behavior": 3805,
      "accept": 3806,
      "pennsylvania": 3807,
      "ua": 3808,
      "kee": 3809,
      "solo": 3810,
      "iano": 3811,
      "thesis": 3812,
      "gins": 3813,
      "1963": 3814,
      "opera": 3815,
      "resulting": 3816,
      "computers": 3817,
      "horse": 3818,
      "francisco": 3819,
      "boston": 3820,
      "recognized": 3821,
      "lying": 3822,
      "focused": 3823,
      "crime": 3824,
      "recognition": 3825,
      "portion": 3826,
      "laws": 3827,
      "49": 3828,
      "chi": 3829,
      "largely": 3830,
      "streng": 3831,
      "materials": 3832,
      "communities": 3833,
      "cannot": 3834,
      "cks": 3835,
      "arms": 3836,
      "liberal": 3837,
      "gained": 3838,
      "mind": 3839,
      "diplo": 3840,
      "fu": 3841,
      "titles": 3842,
      "kent": 3843,
      "accepted": 3844,
      "innov": 3845,
      "disci": 3846,
      "yel": 3847,
      "cin": 3848,
      "techniques": 3849,
      "necessary": 3850,
      "gets": 3851,
      "anna": 3852,
      "jected": 3853,
      "encour": 3854,
      "infr": 3855,
      "ione": 3856,
      "jersey": 3857,
      "disease": 3858,
      "1962": 3859,
      "arrived": 3860,
      "crown": 3861,
      "cells": 3862,
      "grant": 3863,
      "representatives": 3864,
      "mentioned": 3865,
      "growing": 3866,
      "roles": 3867,
      "finals": 3868,
      "columbia": 3869,
      "oce": 3870,
      "aya": 3871,
      "uten": 3872,
      ".)": 3873,
      "paid": 3874,
      "things": 3875,
      "gers": 3876,
      "ec": 3877,
      "bachelor": 3878,
      "cars": 3879,
      "thousand": 3880,
      "jes": 3881,
      "affe": 3882,
      "duke": 3883,
      "ani": 3884,
      "examples": 3885,
      "presence": 3886,
      "muslim": 3887,
      "obtained": 3888,
      "display": 3889,
      "ordered": 3890,
      "dial": 3891,
      "universities": 3892,
      "voted": 3893,
      "dream": 3894,
      "values": 3895,
      "nik": 3896,
      "solution": 3897,
      "ceremon": 3898,
      "slow": 3899,
      "yo": 3900,
      "shap": 3901,
      "standards": 3902,
      "55": 3903,
      "actress": 3904,
      "reserve": 3905,
      "kept": 3906,
      "1948": 3907,
      "parties": 3908,
      "advent": 3909,
      "ogle": 3910,
      "mole": 3911,
      "plants": 3912,
      "fighting": 3913,
      "semi": 3914,
      "federation": 3915,
      "unique": 3916,
      "yards": 3917,
      "bob": 3918,
      "trail": 3919,
      "phase": 3920,
      "infan": 3921,
      "expans": 3922,
      "endo": 3923,
      "astic": 3924,
      "classical": 3925,
      "dal": 3926,
      "roun": 3927,
      "planning": 3928,
      "vard": 3929,
      "ava": 3930,
      "johnson": 3931,
      "sab": 3932,
      "input": 3933,
      "ert": 3934,
      "aspect": 3935,
      "reduced": 3936,
      "une": 3937,
      "berlin": 3938,
      "possess": 3939,
      "catal": 3940,
      "register": 3941,
      "headquarters": 3942,
      "tts": 3943,
      "44": 3944,
      "stal": 3945,
      "simply": 3946,
      "marsh": 3947,
      "fiction": 3948,
      "episodes": 3949,
      "southeast": 3950,
      "speech": 3951,
      "schedul": 3952,
      "zone": 3953,
      "resident": 3954,
      "cc": 3955,
      "1961": 3956,
      "tas": 3957,
      "rey": 3958,
      "aid": 3959,
      "rapid": 3960,
      "1944": 3961,
      "fare": 3962,
      "uded": 3963,
      "properties": 3964,
      "179": 3965,
      "profit": 3966,
      "competit": 3967,
      "garden": 3968,
      "brain": 3969,
      "golden": 3970,
      "adapt": 3971,
      "sculpt": 3972,
      "physics": 3973,
      "internal": 3974,
      "google": 3975,
      "esh": 3976,
      "distinct": 3977,
      "controvers": 3978,
      "cancer": 3979,
      "specif": 3980,
      "cycle": 3981,
      "zz": 3982,
      "von": 3983,
      "pressure": 3984,
      "glas": 3985,
      "graphics": 3986,
      "fres": 3987,
      "serves": 3988,
      "ania": 3989,
      "volume": 3990,
      "ria": 3991,
      "domain": 3992,
      "williams": 3993,
      "confirmed": 3994,
      "racing": 3995,
      "developing": 3996,
      "remo": 3997,
      "regions": 3998,
      "reven": 3999,
      "aband": 4000,
      "dney": 4001,
      "rum": 4002,
      "alu": 4003,
      "cricket": 4004,
      "eliza": 4005,
      "copy": 4006,
      "ohio": 4007,
      "combat": 4008,
      "want": 4009,
      "theater": 4010,
      "avenue": 4011,
      "probably": 4012,
      "prep": 4013,
      "sense": 4014,
      "mount": 4015,
      "1958": 4016,
      "michigan": 4017,
      "300": 4018,
      "estimated": 4019,
      "olympic": 4020,
      "achuse": 4021,
      "labour": 4022,
      "agent": 4023,
      "sym": 4024,
      "alternative": 4025,
      "leaves": 4026,
      "performing": 4027,
      "appoint": 4028,
      "strateg": 4029,
      "freedom": 4030,
      "iverse": 4031,
      "resulted": 4032,
      "massachuse": 4033,
      "borough": 4034,
      "institutions": 4035,
      "rounding": 4036,
      "effort": 4037,
      "ux": 4038,
      "suggested": 4039,
      "gon": 4040,
      "adel": 4041,
      "massachusetts": 4042,
      "inois": 4043,
      "nie": 4044,
      "captured": 4045,
      "1959": 4046,
      "etc": 4047,
      "structures": 4048,
      "discipl": 4049,
      "seed": 4050,
      "objects": 4051,
      "newly": 4052,
      "enge": 4053,
      "actually": 4054,
      "mers": 4055,
      "receive": 4056,
      "residents": 4057,
      "declared": 4058,
      "images": 4059,
      "felt": 4060,
      "nur": 4061,
      "georgia": 4062,
      "sher": 4063,
      "price": 4064,
      "ili": 4065,
      "kim": 4066,
      "alexander": 4067,
      "becomes": 4068,
      "tag": 4069,
      "illinois": 4070,
      "retire": 4071,
      "tai": 4072,
      "bid": 4073,
      "compar": 4074,
      "champions": 4075,
      "crow": 4076,
      "finish": 4077,
      "facility": 4078,
      "reports": 4079,
      "creek": 4080,
      "attacks": 4081,
      "1956": 4082,
      "tools": 4083,
      "fant": 4084,
      "hang": 4085,
      "votes": 4086,
      "stored": 4087,
      "morning": 4088,
      "nominated": 4089,
      "enna": 4090,
      "reference": 4091,
      "politics": 4092,
      "stay": 4093,
      "aces": 4094,
      "showed": 4095,
      "rise": 4096,
      "dated": 4097,
      "advoc": 4098,
      "file": 4099,
      "ibly": 4100,
      "elder": 4101,
      "iro": 4102,
      "lady": 4103,
      "lieuten": 4104,
      "kins": 4105,
      "crew": 4106,
      "attend": 4107,
      "concentr": 4108,
      "claims": 4109,
      "nap": 4110,
      "pursu": 4111,
      "effective": 4112,
      "beyond": 4113,
      "1950": 4114,
      "ez": 4115,
      "founding": 4116,
      "sem": 4117,
      "spot": 4118,
      "sund": 4119,
      "cub": 4120,
      "scoring": 4121,
      "ees": 4122,
      "jon": 4123,
      "destroyed": 4124,
      "jean": 4125,
      "orders": 4126,
      "presents": 4127,
      "tan": 4128,
      "advance": 4129,
      "surrounding": 4130,
      "oul": 4131,
      "technologies": 4132,
      "script": 4133,
      "cook": 4134,
      "ansas": 4135,
      "yellow": 4136,
      "korea": 4137,
      "poses": 4138,
      "heritage": 4139,
      "incorporated": 4140,
      "hydro": 4141,
      "funding": 4142,
      "igen": 4143,
      "sust": 4144,
      "1946": 4145,
      "beaut": 4146,
      "argent": 4147,
      "articles": 4148,
      "rating": 4149,
      "marke": 4150,
      "47": 4151,
      "cod": 4152,
      "philosophy": 4153,
      "seg": 4154,
      "server": 4155,
      "granted": 4156,
      "goes": 4157,
      "shared": 4158,
      "pi": 4159,
      "ella": 4160,
      "gory": 4161,
      "chosen": 4162,
      "entry": 4163,
      "1957": 4164,
      "400": 4165,
      "iant": 4166,
      "subsequent": 4167,
      "courses": 4168,
      "rob": 4169,
      "1947": 4170,
      "shoot": 4171,
      "classic": 4172,
      "drew": 4173,
      "frequently": 4174,
      "jur": 4175,
      "needs": 4176,
      "figh": 4177,
      "lau": 4178,
      "infantry": 4179,
      "swe": 4180,
      "independence": 4181,
      "1939": 4182,
      "hay": 4183,
      "bled": 4184,
      "genet": 4185,
      "choice": 4186,
      "cs": 4187,
      "buried": 4188,
      "sit": 4189,
      "intel": 4190,
      "tay": 4191,
      "supply": 4192,
      "serious": 4193,
      "conflict": 4194,
      "gives": 4195,
      "baseball": 4196,
      "opposition": 4197,
      "portr": 4198,
      "neur": 4199,
      "representative": 4200,
      "ios": 4201,
      "fat": 4202,
      "something": 4203,
      "gil": 4204,
      "consult": 4205,
      "1940": 4206,
      "exter": 4207,
      "prise": 4208,
      "urer": 4209,
      "abandon": 4210,
      "inary": 4211,
      "challenge": 4212,
      "sixth": 4213,
      "electrical": 4214,
      "occurred": 4215,
      "rooms": 4216,
      "miles": 4217,
      "obl": 4218,
      "correct": 4219,
      "pitch": 4220,
      "lieutenant": 4221,
      "successfully": 4222,
      "1942": 4223,
      "constitut": 4224,
      "jackson": 4225,
      "testing": 4226,
      "46": 4227,
      "astr": 4228,
      "naz": 4229,
      "suffered": 4230,
      "output": 4231,
      "achieved": 4232,
      "distributed": 4233,
      "circuit": 4234,
      "write": 4235,
      "notes": 4236,
      "supporting": 4237,
      "accoun": 4238,
      "hardware": 4239,
      "iced": 4240,
      "pier": 4241,
      "loan": 4242,
      "hl": 4243,
      "survey": 4244,
      "cze": 4245,
      "armed": 4246,
      "sect": 4247,
      "select": 4248,
      "guide": 4249,
      "twice": 4250,
      "1941": 4251,
      "gang": 4252,
      "diag": 4253,
      "wave": 4254,
      "cot": 4255,
      "walk": 4256,
      "metres": 4257,
      "illustr": 4258,
      "strugg": 4259,
      "engineer": 4260,
      "otto": 4261,
      "victoria": 4262,
      "',": 4263,
      "contrast": 4264,
      "calcul": 4265,
      "turk": 4266,
      "expansion": 4267,
      "1952": 4268,
      "sie": 4269,
      "performances": 4270,
      "employed": 4271,
      "gallery": 4272,
      "bourne": 4273,
      "sydney": 4274,
      "couple": 4275,
      "iated": 4276,
      "bag": 4277,
      "pand": 4278,
      "cos": 4279,
      "connection": 4280,
      "specifically": 4281,
      "legislative": 4282,
      "accur": 4283,
      "paralle": 4284,
      "kur": 4285,
      "onia": 4286,
      "rab": 4287,
      "partn": 4288,
      "eigh": 4289,
      "arent": 4290,
      "partnership": 4291,
      "jazz": 4292,
      "younger": 4293,
      "steel": 4294,
      "emphas": 4295,
      "concert": 4296,
      "minute": 4297,
      "battal": 4298,
      "continues": 4299,
      "naval": 4300,
      "1949": 4301,
      "ultimately": 4302,
      "nuclear": 4303,
      "target": 4304,
      "bern": 4305,
      "zen": 4306,
      "1955": 4307,
      "jac": 4308,
      "audio": 4309,
      "unlike": 4310,
      "dates": 4311,
      "completely": 4312,
      "publication": 4313,
      "imperial": 4314,
      "chemist": 4315,
      "programme": 4316,
      "category": 4317,
      "returning": 4318,
      "queens": 4319,
      "ski": 4320,
      "honour": 4321,
      "ceme": 4322,
      "atom": 4323,
      "swedish": 4324,
      "explor": 4325,
      "4th": 4326,
      "economy": 4327,
      "situation": 4328,
      "assess": 4329,
      "inet": 4330,
      "task": 4331,
      "approved": 4332,
      "vation": 4333,
      "constitution": 4334,
      "datab": 4335,
      "succeeded": 4336,
      "pression": 4337,
      "ales": 4338,
      "factor": 4339,
      "vas": 4340,
      "lyric": 4341,
      "vac": 4342,
      "seats": 4343,
      "letters": 4344,
      "poe": 4345,
      "sts": 4346,
      "toronto": 4347,
      "selling": 4348,
      "alliance": 4349,
      "bronze": 4350,
      "protein": 4351,
      "eye": 4352,
      "losing": 4353,
      "oxford": 4354,
      "animals": 4355,
      "theme": 4356,
      "bab": 4357,
      "railroad": 4358,
      "kat": 4359,
      "junction": 4360,
      "audience": 4361,
      "worldwide": 4362,
      "promotion": 4363,
      "1943": 4364,
      "commissioned": 4365,
      "cros": 4366,
      "reading": 4367,
      "ders": 4368,
      "sector": 4369,
      "alone": 4370,
      "attach": 4371,
      "twel": 4372,
      "opposed": 4373,
      "surn": 4374,
      "writers": 4375,
      "officials": 4376,
      "negative": 4377,
      "42": 4378,
      "kid": 4379,
      "damage": 4380,
      "extra": 4381,
      "reform": 4382,
      "exhibition": 4383,
      "northeast": 4384,
      "communist": 4385,
      "institution": 4386,
      "kan": 4387,
      "citizens": 4388,
      "agu": 4389,
      "elizabeth": 4390,
      "swim": 4391,
      "option": 4392,
      "dioces": 4393,
      "draft": 4394,
      "85": 4395,
      "meant": 4396,
      "relatively": 4397,
      "housing": 4398,
      "plus": 4399,
      "licens": 4400,
      "mans": 4401,
      "aints": 4402,
      "talk": 4403,
      "conservative": 4404,
      "determined": 4405,
      "ulate": 4406,
      "figures": 4407,
      "palace": 4408,
      "restaur": 4409,
      "phia": 4410,
      "convention": 4411,
      "criminal": 4412,
      "humans": 4413,
      "korean": 4414,
      "unknown": 4415,
      "tes": 4416,
      "drawn": 4417,
      "factory": 4418,
      "theo": 4419,
      "faces": 4420,
      "ij": 4421,
      "mn": 4422,
      "evolution": 4423,
      "donald": 4424,
      "powers": 4425,
      "presidential": 4426,
      "pione": 4427,
      "stood": 4428,
      "decor": 4429,
      "3d": 4430,
      "identity": 4431,
      "itled": 4432,
      "representing": 4433,
      "nether": 4434,
      "cler": 4435,
      "unte": 4436,
      "invas": 4437,
      "ila": 4438,
      "fash": 4439,
      "1954": 4440,
      "permanent": 4441,
      "wy": 4442,
      "background": 4443,
      "41": 4444,
      "authorities": 4445,
      "attor": 4446,
      "linear": 4447,
      "wick": 4448,
      "controlled": 4449,
      "functional": 4450,
      "thro": 4451,
      "weak": 4452,
      "1950s": 4453,
      "rub": 4454,
      "tried": 4455,
      "illa": 4456,
      "oph": 4457,
      "porter": 4458,
      "extr": 4459,
      "proceed": 4460,
      "cris": 4461,
      "context": 4462,
      "placing": 4463,
      "lis": 4464,
      "68": 4465,
      "matter": 4466,
      "uni": 4467,
      "fm": 4468,
      "locations": 4469,
      "arrested": 4470,
      "95": 4471,
      "volunte": 4472,
      "attle": 4473,
      "faced": 4474,
      "boat": 4475,
      "qualified": 4476,
      "arc": 4477,
      "fleet": 4478,
      "literary": 4479,
      "equival": 4480,
      "ias": 4481,
      "2023": 4482,
      "bia": 4483,
      "ening": 4484,
      "fame": 4485,
      "garian": 4486,
      "equal": 4487,
      "attempts": 4488,
      "studios": 4489,
      "influenced": 4490,
      "processes": 4491,
      "pieces": 4492,
      "slight": 4493,
      "santa": 4494,
      "shor": 4495,
      "think": 4496,
      "nego": 4497,
      "sides": 4498,
      "ras": 4499,
      "receiving": 4500,
      "patients": 4501,
      "unable": 4502,
      "injury": 4503,
      "selection": 4504,
      "1953": 4505,
      "orchestra": 4506,
      "random": 4507,
      "powerful": 4508,
      "anger": 4509,
      "push": 4510,
      "joining": 4511,
      "climate": 4512,
      "colour": 4513,
      "cemetery": 4514,
      "elimin": 4515,
      "desc": 4516,
      "falls": 4517,
      "bought": 4518,
      "dv": 4519,
      "corn": 4520,
      "animal": 4521,
      "joe": 4522,
      "regarding": 4523,
      "proced": 4524,
      "laboratory": 4525,
      "evalu": 4526,
      "99": 4527,
      "lind": 4528,
      "pas": 4529,
      "ule": 4530,
      "daniel": 4531,
      "designated": 4532,
      "provincial": 4533,
      "occasion": 4534,
      "publishing": 4535,
      "surname": 4536,
      "plies": 4537,
      "gency": 4538,
      "asy": 4539,
      "avoid": 4540,
      "insur": 4541,
      "narr": 4542,
      "documentary": 4543,
      "employees": 4544,
      "ody": 4545,
      "(),": 4546,
      "containing": 4547,
      "exclus": 4548,
      "fashion": 4549,
      "rif": 4550,
      "understanding": 4551,
      "ideas": 4552,
      "decre": 4553,
      "lers": 4554,
      "degre": 4555,
      "wart": 4556,
      "researchers": 4557,
      "calls": 4558,
      "vised": 4559,
      "150": 4560,
      "aired": 4561,
      "tend": 4562,
      "domestic": 4563,
      "degrees": 4564,
      "economics": 4565,
      "robin": 4566,
      "poet": 4567,
      "strategy": 4568,
      "lane": 4569,
      "arthur": 4570,
      "copies": 4571,
      "kers": 4572,
      "modif": 4573,
      "prepar": 4574,
      "defence": 4575,
      "66": 4576,
      "trip": 4577,
      "bing": 4578,
      "aster": 4579,
      "1951": 4580,
      "contributed": 4581,
      "indones": 4582,
      "cers": 4583,
      "brad": 4584,
      "pod": 4585,
      "oldest": 4586,
      "ontario": 4587,
      "victim": 4588,
      "refers": 4589,
      "looking": 4590,
      "gender": 4591,
      "adap": 4592,
      "virtual": 4593,
      "ying": 4594,
      "negoti": 4595,
      "advantage": 4596,
      "archae": 4597,
      "dog": 4598,
      "dean": 4599,
      "starring": 4600,
      "compil": 4601,
      "trees": 4602,
      "wound": 4603,
      "slav": 4604,
      "expressed": 4605,
      "contributions": 4606,
      "netherlands": 4607,
      "rig": 4608,
      "consum": 4609,
      "ien": 4610,
      "iments": 4611,
      "ogy": 4612,
      "andre": 4613,
      "investment": 4614,
      "cash": 4615,
      "hart": 4616,
      "tells": 4617,
      "holy": 4618,
      "coordin": 4619,
      "soccer": 4620,
      "brigade": 4621,
      "fans": 4622,
      "jay": 4623,
      "propos": 4624,
      "chamber": 4625,
      "extensive": 4626,
      "wins": 4627,
      "components": 4628,
      "rh": 4629,
      "occupied": 4630,
      "oppos": 4631,
      "seem": 4632,
      "offices": 4633,
      "76": 4634,
      "bann": 4635,
      "vehicles": 4636,
      "attribut": 4637,
      "ek": 4638,
      "deploy": 4639,
      "entially": 4640,
      "doing": 4641,
      "vehicle": 4642,
      "derived": 4643,
      "income": 4644,
      "reasons": 4645,
      "utions": 4646,
      "uit": 4647,
      "hands": 4648,
      "monu": 4649,
      "'.": 4650,
      "wheel": 4651,
      "luc": 4652,
      "ocean": 4653,
      "mist": 4654,
      "says": 4655,
      "additionally": 4656,
      "squadron": 4657,
      "liver": 4658,
      "appropr": 4659,
      "entitled": 4660,
      "refused": 4661,
      "covid": 4662,
      "reality": 4663,
      "broke": 4664,
      "1938": 4665,
      "apol": 4666,
      "visited": 4667,
      "itz": 4668,
      "reduce": 4669,
      "semin": 4670,
      "sweden": 4671,
      "billboard": 4672,
      "1918": 4673,
      "corner": 4674,
      "chain": 4675,
      "integrated": 4676,
      "investigation": 4677,
      "items": 4678,
      "ceo": 4679,
      "roof": 4680,
      "check": 4681,
      "plot": 4682,
      "ental": 4683,
      "dynast": 4684,
      "contact": 4685,
      "lets": 4686,
      "recru": 4687,
      "util": 4688,
      "baby": 4689,
      "prefer": 4690,
      "ibm": 4691,
      "poetry": 4692,
      "bond": 4693,
      "sale": 4694,
      "establishment": 4695,
      "fab": 4696,
      "reflect": 4697,
      "andro": 4698,
      "oak": 4699,
      "ng": 4700,
      "moon": 4701,
      "shel": 4702,
      "oppon": 4703,
      "88": 4704,
      "storage": 4705,
      "merged": 4706,
      "khan": 4707,
      "politan": 4708,
      "susp": 4709,
      "cambridge": 4710,
      "involve": 4711,
      "arian": 4712,
      "installed": 4713,
      "retirement": 4714,
      "pm": 4715,
      "pilot": 4716,
      "begins": 4717,
      "exped": 4718,
      "ares": 4719,
      "sha": 4720,
      "wilson": 4721,
      "1936": 4722,
      "opin": 4723,
      "improved": 4724,
      "grav": 4725,
      "why": 4726,
      "straight": 4727,
      "skills": 4728,
      "mate": 4729,
      "kam": 4730,
      "isms": 4731,
      "ologist": 4732,
      "accident": 4733,
      "factors": 4734,
      "typical": 4735,
      "technique": 4736,
      "situated": 4737,
      "existence": 4738,
      "heim": 4739,
      "crete": 4740,
      "tool": 4741,
      "77": 4742,
      "elector": 4743,
      "composition": 4744,
      "aga": 4745,
      "graphical": 4746,
      "maximum": 4747,
      "86": 4748,
      "collaboration": 4749,
      "limit": 4750,
      "else": 4751,
      "stro": 4752,
      "itzer": 4753,
      "feet": 4754,
      "rian": 4755,
      "atlantic": 4756,
      "associate": 4757,
      "cular": 4758,
      "weapons": 4759,
      "dram": 4760,
      "attempted": 4761,
      "leon": 4762,
      "aux": 4763,
      "43": 4764,
      "exact": 4765,
      "categor": 4766,
      "bou": 4767,
      "settled": 4768,
      "valu": 4769,
      "districts": 4770,
      "agricultural": 4771,
      "kit": 4772,
      "bush": 4773,
      "parallel": 4774,
      "affect": 4775,
      "pad": 4776,
      "fresh": 4777,
      "satis": 4778,
      "dropped": 4779,
      "operate": 4780,
      "bru": 4781,
      "incident": 4782,
      "towns": 4783,
      "descript": 4784,
      "candidates": 4785,
      "bt": 4786,
      "gul": 4787,
      "passing": 4788,
      "rison": 4789,
      "weather": 4790,
      "alan": 4791,
      "kick": 4792,
      "bure": 4793,
      "clean": 4794,
      "inaug": 4795,
      "actors": 4796,
      "township": 4797,
      "elling": 4798,
      "religion": 4799,
      "machines": 4800,
      "extension": 4801,
      "documents": 4802,
      "marks": 4803,
      "failure": 4804,
      "ito": 4805,
      "introduction": 4806,
      "trained": 4807,
      "mile": 4808,
      "profession": 4809,
      "trains": 4810,
      "universal": 4811,
      "neighborhood": 4812,
      "scheduled": 4813,
      "fro": 4814,
      "shan": 4815,
      "producing": 4816,
      "heat": 4817,
      "colonial": 4818,
      "combination": 4819,
      "taylor": 4820,
      "detect": 4821,
      "spin": 4822,
      "faith": 4823,
      "iet": 4824,
      "1937": 4825,
      "consisted": 4826,
      "hag": 4827,
      "weekly": 4828,
      "1919": 4829,
      "mike": 4830,
      "iary": 4831,
      "alty": 4832,
      "52": 4833,
      "bian": 4834,
      "cathe": 4835,
      "raf": 4836,
      "covering": 4837,
      "decades": 4838,
      "tall": 4839,
      "alleged": 4840,
      "teenth": 4841,
      "ining": 4842,
      "bun": 4843,
      "alo": 4844,
      "cus": 4845,
      "flat": 4846,
      "pel": 4847,
      "abol": 4848,
      "credit": 4849,
      "strip": 4850,
      "excell": 4851,
      "grap": 4852,
      "smart": 4853,
      "flood": 4854,
      "mountains": 4855,
      "maria": 4856,
      "birds": 4857,
      "ethnic": 4858,
      "chemistry": 4859,
      "fee": 4860,
      "protocol": 4861,
      "educated": 4862,
      "aa": 4863,
      "1930": 4864,
      "rance": 4865,
      "villages": 4866,
      "hann": 4867,
      "jar": 4868,
      "aste": 4869,
      "efficient": 4870,
      "chris": 4871,
      "favour": 4872,
      "adult": 4873,
      "pope": 4874,
      "philadel": 4875,
      "dimens": 4876,
      "aqu": 4877,
      "obtain": 4878,
      "termine": 4879,
      "lev": 4880,
      "ht": 4881,
      "fear": 4882,
      "determine": 4883,
      "americans": 4884,
      "constituency": 4885,
      "contained": 4886,
      "importance": 4887,
      "requires": 4888,
      "transition": 4889,
      "yi": 4890,
      "budd": 4891,
      "sle": 4892,
      "bodies": 4893,
      "infra": 4894,
      "andrew": 4895,
      "attorney": 4896,
      "blin": 4897,
      "argued": 4898,
      "treaty": 4899,
      "dominant": 4900,
      "steve": 4901,
      "ght": 4902,
      "apparent": 4903,
      "budget": 4904,
      "distinguished": 4905,
      "rush": 4906,
      "rein": 4907,
      "requirements": 4908,
      "tran": 4909,
      "enemy": 4910,
      "atest": 4911,
      "philadelphia": 4912,
      "18th": 4913,
      "dale": 4914,
      "collected": 4915,
      "promote": 4916,
      "onso": 4917,
      "shape": 4918,
      "covers": 4919,
      "valid": 4920,
      "aer": 4921,
      "touchdown": 4922,
      "sri": 4923,
      "comic": 4924,
      "enjoy": 4925,
      "ende": 4926,
      "fought": 4927,
      "ukraine": 4928,
      "usual": 4929,
      "veter": 4930,
      "pse": 4931,
      "roc": 4932,
      "missed": 4933,
      "poser": 4934,
      "solid": 4935,
      "78": 4936,
      "sought": 4937,
      "diocese": 4938,
      "medium": 4939,
      "hired": 4940,
      "apping": 4941,
      "mosco": 4942,
      "occurs": 4943,
      "compr": 4944,
      "oud": 4945,
      "index": 4946,
      "iat": 4947,
      "funds": 4948,
      "resistance": 4949,
      "greatest": 4950,
      "battalion": 4951,
      "correspond": 4952,
      "plate": 4953,
      "vessel": 4954,
      "auth": 4955,
      "dc": 4956,
      "ilton": 4957,
      "cold": 4958,
      "scholars": 4959,
      "mining": 4960,
      "clar": 4961,
      "scenes": 4962,
      "cles": 4963,
      "hamp": 4964,
      "alum": 4965,
      "caa": 4966,
      "eco": 4967,
      "athletic": 4968,
      "expression": 4969,
      "missions": 4970,
      "metropolitan": 4971,
      "chen": 4972,
      "1935": 4973,
      "sufficient": 4974,
      "actual": 4975,
      "instance": 4976,
      "eag": 4977,
      "ender": 4978,
      "symp": 4979,
      "observed": 4980,
      "converted": 4981,
      "registered": 4982,
      "1933": 4983,
      "walls": 4984,
      "affected": 4985,
      "resolution": 4986,
      "composer": 4987,
      "illery": 4988,
      "abs": 4989,
      "stating": 4990,
      "holly": 4991,
      "ati": 4992,
      "ults": 4993,
      "maintained": 4994,
      "hypo": 4995,
      "clu": 4996,
      "tin": 4997,
      "praised": 4998,
      "anian": 4999,
      "cited": 5000,
      "gab": 5001,
      "charged": 5002,
      "chapel": 5003,
      "statement": 5004,
      "iday": 5005,
      "raj": 5006,
      "construct": 5007,
      "violence": 5008,
      "moscow": 5009,
      "shut": 5010,
      "banks": 5011,
      "hope": 5012,
      "broadcasting": 5013,
      "bands": 5014,
      "journalist": 5015,
      "aling": 5016,
      "message": 5017,
      "definition": 5018,
      "cock": 5019,
      "pattern": 5020,
      "manufacturing": 5021,
      "organisation": 5022,
      "rix": 5023,
      "finds": 5024,
      "measures": 5025,
      "fixed": 5026,
      "crash": 5027,
      "invited": 5028,
      "pes": 5029,
      "exer": 5030,
      "ictions": 5031,
      "freder": 5032,
      "56": 5033,
      "forming": 5034,
      "creative": 5035,
      "arrange": 5036,
      "singap": 5037,
      "cine": 5038,
      "bright": 5039,
      "photograph": 5040,
      "thes": 5041,
      "interior": 5042,
      "pav": 5043,
      "hair": 5044,
      "belief": 5045,
      "finance": 5046,
      "escape": 5047,
      "plane": 5048,
      "1917": 5049,
      "brick": 5050,
      "liest": 5051,
      "pup": 5052,
      "cathedr": 5053,
      "speaking": 5054,
      "1900": 5055,
      "icians": 5056,
      "attacked": 5057,
      "headed": 5058,
      "bowl": 5059,
      "deleg": 5060,
      "cious": 5061,
      "closely": 5062,
      "astro": 5063,
      "pir": 5064,
      "51": 5065,
      "breed": 5066,
      "whit": 5067,
      "notably": 5068,
      "string": 5069,
      "franch": 5070,
      "reign": 5071,
      "calling": 5072,
      "costs": 5073,
      "agriculture": 5074,
      "centuries": 5075,
      "strength": 5076,
      "describes": 5077,
      "finding": 5078,
      "easily": 5079,
      "dic": 5080,
      "bear": 5081,
      "singapore": 5082,
      "dry": 5083,
      "vary": 5084,
      "tennis": 5085,
      "dna": 5086,
      "ceremony": 5087,
      "mos": 5088,
      "err": 5089,
      "rober": 5090,
      "inity": 5091,
      "imag": 5092,
      "subsid": 5093,
      "teachers": 5094,
      "inn": 5095,
      "1928": 5096,
      "colonel": 5097,
      "manchester": 5098,
      "1934": 5099,
      "cum": 5100,
      "publications": 5101,
      "ogue": 5102,
      "regarded": 5103,
      "grey": 5104,
      "engineers": 5105,
      "iling": 5106,
      "terror": 5107,
      "seventh": 5108,
      "resigned": 5109,
      "symbol": 5110,
      "lyrics": 5111,
      "resc": 5112,
      "twelve": 5113,
      "edin": 5114,
      "consisting": 5115,
      "license": 5116,
      "jaco": 5117,
      "expert": 5118,
      "dynasty": 5119,
      "planet": 5120,
      "interpret": 5121,
      "nin": 5122,
      "frequency": 5123,
      "designs": 5124,
      "slightly": 5125,
      "philip": 5126,
      "cyber": 5127,
      "rival": 5128,
      "davis": 5129,
      "athan": 5130,
      "maker": 5131,
      "wol": 5132,
      "aran": 5133,
      "diagno": 5134,
      "1929": 5135,
      "ivals": 5136,
      "dia": 5137,
      "trying": 5138,
      "alpha": 5139,
      "equivalent": 5140,
      "session": 5141,
      "turkey": 5142,
      "satell": 5143,
      "aret": 5144,
      "niger": 5145,
      "subjects": 5146,
      "camera": 5147,
      "cards": 5148,
      "math": 5149,
      "57": 5150,
      "strike": 5151,
      "philippines": 5152,
      "crisis": 5153,
      "nfl": 5154,
      "genes": 5155,
      "diction": 5156,
      "poll": 5157,
      "codice": 5158,
      "broken": 5159,
      "codice_": 5160,
      "compete": 5161,
      "picture": 5162,
      "ensity": 5163,
      "employment": 5164,
      "mexican": 5165,
      "carbon": 5166,
      "neuro": 5167,
      "wings": 5168,
      "1914": 5169,
      "purchase": 5170,
      "hills": 5171,
      "infe": 5172,
      "save": 5173,
      "skin": 5174,
      "arrang": 5175,
      "entirely": 5176,
      "citizen": 5177,
      "aki": 5178,
      "possibly": 5179,
      "marketing": 5180,
      "flying": 5181,
      "hans": 5182,
      "inhabit": 5183,
      "ateur": 5184,
      "shell": 5185,
      "invasion": 5186,
      "1922": 5187,
      "driver": 5188,
      "formally": 5189,
      "hung": 5190,
      "una": 5191,
      "aspects": 5192,
      "believe": 5193,
      "portugu": 5194,
      "swiss": 5195,
      "concerns": 5196,
      "details": 5197,
      "implementation": 5198,
      "1924": 5199,
      "capture": 5200,
      "dub": 5201,
      "piano": 5202,
      "opportunity": 5203,
      "wrestling": 5204,
      "satur": 5205,
      "jews": 5206,
      "decade": 5207,
      "stores": 5208,
      "toward": 5209,
      "ora": 5210,
      "stephen": 5211,
      "1927": 5212,
      "nothing": 5213,
      "leads": 5214,
      "ancy": 5215,
      "causes": 5216,
      "northwest": 5217,
      "authors": 5218,
      "parliamentary": 5219,
      "cathedral": 5220,
      "58": 5221,
      "sustain": 5222,
      "abandoned": 5223,
      "mam": 5224,
      "rho": 5225,
      "kyo": 5226,
      "owners": 5227,
      "vs": 5228,
      "harvard": 5229,
      "annivers": 5230,
      "consecut": 5231,
      "engage": 5232,
      "herself": 5233,
      "eleven": 5234,
      "bapt": 5235,
      "learn": 5236,
      "infrastructure": 5237,
      "shah": 5238,
      "capable": 5239,
      "malays": 5240,
      "mechanical": 5241,
      "59": 5242,
      "earl": 5243,
      "anthro": 5244,
      "maryland": 5245,
      "earliest": 5246,
      "historian": 5247,
      "dox": 5248,
      "causing": 5249,
      "trou": 5250,
      "norwe": 5251,
      "mathematical": 5252,
      "heavily": 5253,
      "nich": 5254,
      "ouse": 5255,
      "directors": 5256,
      "computational": 5257,
      "sud": 5258,
      "significantly": 5259,
      "5th": 5260,
      "narrow": 5261,
      "finishing": 5262,
      "ilit": 5263,
      "gill": 5264,
      "harmon": 5265,
      "portuguese": 5266,
      "albert": 5267,
      "refle": 5268,
      "rhy": 5269,
      "cabinet": 5270,
      "residence": 5271,
      "ivan": 5272,
      "adding": 5273,
      "pto": 5274,
      "scheme": 5275,
      "charter": 5276,
      "storm": 5277,
      "interests": 5278,
      "quite": 5279,
      "anniversary": 5280,
      "steam": 5281,
      "jeff": 5282,
      "witness": 5283,
      "renew": 5284,
      "entrance": 5285,
      "iraq": 5286,
      "1932": 5287,
      "isol": 5288,
      "melbourne": 5289,
      "emic": 5290,
      "67": 5291,
      "understand": 5292,
      "cm": 5293,
      "bull": 5294,
      "hyper": 5295,
      "logic": 5296,
      "ranking": 5297,
      "database": 5298,
      "alt": 5299,
      "generated": 5300,
      "roads": 5301,
      "discovery": 5302,
      "bureau": 5303,
      "turkish": 5304,
      "genetic": 5305,
      "wright": 5306,
      "usal": 5307,
      "races": 5308,
      "vit": 5309,
      "concluded": 5310,
      "none": 5311,
      "snow": 5312,
      "monitor": 5313,
      "getting": 5314,
      "depending": 5315,
      "portra": 5316,
      "legend": 5317,
      "austria": 5318,
      "ensure": 5319,
      "1931": 5320,
      "ieval": 5321,
      "eral": 5322,
      "1910": 5323,
      "window": 5324,
      "churches": 5325,
      "rates": 5326,
      "norwegian": 5327,
      "pictures": 5328,
      "representation": 5329,
      "assa": 5330,
      "acid": 5331,
      "substant": 5332,
      "paintings": 5333,
      "islamic": 5334,
      "gran": 5335,
      "heard": 5336,
      "cise": 5337,
      "chapter": 5338,
      "premi": 5339,
      "grounds": 5340,
      "frag": 5341,
      "wiscons": 5342,
      "artillery": 5343,
      "perfect": 5344,
      "uge": 5345,
      "ette": 5346,
      "papers": 5347,
      "repeated": 5348,
      "zero": 5349,
      "starred": 5350,
      "shaped": 5351,
      "63": 5352,
      "scientist": 5353,
      "heads": 5354,
      "difference": 5355,
      "immigr": 5356,
      "akh": 5357,
      "lum": 5358,
      "lewis": 5359,
      "column": 5360,
      "personnel": 5361,
      "neighbour": 5362,
      "sections": 5363,
      "retail": 5364,
      "89": 5365,
      "1925": 5366,
      "aska": 5367,
      "represents": 5368,
      "engaged": 5369,
      "wisconsin": 5370,
      "fuel": 5371,
      "1921": 5372,
      "playoff": 5373,
      "gay": 5374,
      "grass": 5375,
      "reaching": 5376,
      "ahead": 5377,
      "israeli": 5378,
      "sunday": 5379,
      "laid": 5380,
      "height": 5381,
      "kol": 5382,
      "extrem": 5383,
      "developers": 5384,
      "nings": 5385,
      "implemented": 5386,
      "businesses": 5387,
      "mia": 5388,
      "1926": 5389,
      "defend": 5390,
      "secure": 5391,
      "otherwise": 5392,
      "linked": 5393,
      "alab": 5394,
      "62": 5395,
      "assum": 5396,
      "vietnam": 5397,
      "moth": 5398,
      "rated": 5399,
      "starts": 5400,
      "79": 5401,
      "canal": 5402,
      "consecutive": 5403,
      "really": 5404,
      "minnes": 5405,
      "productions": 5406,
      "cooper": 5407,
      "external": 5408,
      "passes": 5409,
      "credited": 5410,
      "goods": 5411,
      "consu": 5412,
      "biology": 5413,
      "preced": 5414,
      "ncaa": 5415,
      "ortho": 5416,
      "pson": 5417,
      "sequences": 5418,
      "chronic": 5419,
      "amaz": 5420,
      "criticized": 5421,
      "mud": 5422,
      "pp": 5423,
      "53": 5424,
      "myth": 5425,
      "sax": 5426,
      "streets": 5427,
      "iders": 5428,
      "moment": 5429,
      "compress": 5430,
      "sul": 5431,
      "practices": 5432,
      "lith": 5433,
      "treas": 5434,
      "iar": 5435,
      "brian": 5436,
      "oured": 5437,
      "rier": 5438,
      "cous": 5439,
      "tennes": 5440,
      "amateur": 5441,
      "69": 5442,
      "doct": 5443,
      "pine": 5444,
      "ariz": 5445,
      "supports": 5446,
      "minnesota": 5447,
      "tz": 5448,
      "divers": 5449,
      "vak": 5450,
      "coll": 5451,
      "tests": 5452,
      "parame": 5453,
      "questions": 5454,
      "classified": 5455,
      "offering": 5456,
      "pip": 5457,
      "abled": 5458,
      "robot": 5459,
      "jane": 5460,
      "ika": 5461,
      "54": 5462,
      "killing": 5463,
      "logical": 5464,
      "tact": 5465,
      "premiered": 5466,
      "phe": 5467,
      "regularly": 5468,
      "bath": 5469,
      "brow": 5470,
      "dish": 5471,
      "haps": 5472,
      "cool": 5473,
      "1923": 5474,
      "winners": 5475,
      "tennessee": 5476,
      "shore": 5477,
      "purposes": 5478,
      "indigen": 5479,
      "ruled": 5480,
      "platforms": 5481,
      "nest": 5482,
      "policies": 5483,
      "changing": 5484,
      "clark": 5485,
      "adapted": 5486,
      "waters": 5487,
      "perhaps": 5488,
      "autonom": 5489,
      "easy": 5490,
      "stead": 5491,
      "hosts": 5492,
      "agues": 5493,
      "eric": 5494,
      "interested": 5495,
      "det": 5496,
      "improv": 5497,
      "markets": 5498,
      "dem": 5499,
      "boards": 5500,
      "trig": 5501,
      "fried": 5502,
      "files": 5503,
      "divisions": 5504,
      "emergency": 5505,
      "useful": 5506,
      "legis": 5507,
      "expedition": 5508,
      "icts": 5509,
      "1912": 5510,
      "miller": 5511,
      "norway": 5512,
      "transportation": 5513,
      "phd": 5514,
      "scientists": 5515,
      "initiative": 5516,
      "homes": 5517,
      "bottom": 5518,
      "temperature": 5519,
      "eries": 5520,
      "tony": 5521,
      "cad": 5522,
      "circum": 5523,
      "partners": 5524,
      "electronics": 5525,
      "chose": 5526,
      "%.": 5527,
      "popularity": 5528,
      "experienced": 5529,
      "kansas": 5530,
      "och": 5531,
      "harry": 5532,
      "priest": 5533,
      "kon": 5534,
      "statistics": 5535,
      "theless": 5536,
      "hut": 5537,
      "croat": 5538,
      "encing": 5539,
      "walter": 5540,
      "compat": 5541,
      "switzer": 5542,
      "wars": 5543,
      "umes": 5544,
      "rice": 5545,
      "simon": 5546,
      "christmas": 5547,
      "reh": 5548,
      "orange": 5549,
      "mov": 5550,
      "rod": 5551,
      "nag": 5552,
      "atures": 5553,
      "hugh": 5554,
      "rout": 5555,
      "participate": 5556,
      "appeal": 5557,
      "acquis": 5558,
      "inju": 5559,
      "clinical": 5560,
      "filled": 5561,
      "ami": 5562,
      "relev": 5563,
      "iva": 5564,
      "norm": 5565,
      "differences": 5566,
      "ifications": 5567,
      "indigenous": 5568,
      "sphere": 5569,
      "accused": 5570,
      "consol": 5571,
      "dating": 5572,
      "tons": 5573,
      "dick": 5574,
      "bah": 5575,
      "charges": 5576,
      "wolf": 5577,
      "psychology": 5578,
      "mah": 5579,
      "gym": 5580,
      "translation": 5581,
      "switzerland": 5582,
      "solutions": 5583,
      "membership": 5584,
      "72": 5585,
      "pure": 5586,
      "icon": 5587,
      "hell": 5588,
      "myster": 5589,
      "outstanding": 5590,
      "rear": 5591,
      "relative": 5592,
      "stable": 5593,
      "princi": 5594,
      "oral": 5595,
      "patent": 5596,
      "qualifying": 5597,
      "aly": 5598,
      "legislat": 5599,
      "briefly": 5600,
      "carl": 5601,
      "biological": 5602,
      "chance": 5603,
      "ighted": 5604,
      "experimental": 5605,
      "customers": 5606,
      "flash": 5607,
      "ambass": 5608,
      "brun": 5609,
      "chess": 5610,
      "restor": 5611,
      "rib": 5612,
      "tren": 5613,
      "patrick": 5614,
      "beng": 5615,
      "pandemic": 5616,
      "stages": 5617,
      "ouri": 5618,
      "1930s": 5619,
      "disney": 5620,
      "magn": 5621,
      "dow": 5622,
      "bind": 5623,
      "effic": 5624,
      "terminal": 5625,
      "lav": 5626,
      "wid": 5627,
      "adjac": 5628,
      "bling": 5629,
      "vul": 5630,
      "soul": 5631,
      "renov": 5632,
      "iful": 5633,
      "component": 5634,
      "ched": 5635,
      "artistic": 5636,
      "elle": 5637,
      "oreg": 5638,
      "eland": 5639,
      "assumed": 5640,
      "queensland": 5641,
      "porters": 5642,
      "ridge": 5643,
      "oted": 5644,
      "shir": 5645,
      "colorado": 5646,
      "driving": 5647,
      "coln": 5648,
      "arena": 5649,
      "marg": 5650,
      "conservation": 5651,
      "depth": 5652,
      "painted": 5653,
      "61": 5654,
      "iot": 5655,
      "bis": 5656,
      "mous": 5657,
      "igation": 5658,
      "rivers": 5659,
      "arizona": 5660,
      "eds": 5661,
      "extens": 5662,
      "learned": 5663,
      "undergraduate": 5664,
      "cia": 5665,
      "admitted": 5666,
      "liqu": 5667,
      "dvd": 5668,
      "ltd": 5669,
      "identify": 5670,
      "lists": 5671,
      "seas": 5672,
      "inhabitants": 5673,
      "framework": 5674,
      "onet": 5675,
      "grapher": 5676,
      "rud": 5677,
      "wear": 5678,
      "collections": 5679,
      "margin": 5680,
      "courts": 5681,
      "assign": 5682,
      "ture": 5683,
      "operates": 5684,
      "masters": 5685,
      "drawing": 5686,
      "buy": 5687,
      "steps": 5688,
      "aria": 5689,
      "taiwan": 5690,
      "7th": 5691,
      "chant": 5692,
      "answer": 5693,
      "hear": 5694,
      "gery": 5695,
      "ghan": 5696,
      "allen": 5697,
      "orn": 5698,
      "tailed": 5699,
      "reput": 5700,
      "talent": 5701,
      "stu": 5702,
      "egg": 5703,
      "increasingly": 5704,
      "appointment": 5705,
      "pressed": 5706,
      "jos": 5707,
      "wich": 5708,
      "modified": 5709,
      "lingu": 5710,
      "thetic": 5711,
      "laho": 5712,
      "aus": 5713,
      "demol": 5714,
      "rounded": 5715,
      "plicit": 5716,
      "rs": 5717,
      "afford": 5718,
      "nn": 5719,
      "senator": 5720,
      "instruments": 5721,
      "shops": 5722,
      "hamilton": 5723,
      "oregon": 5724,
      "rants": 5725,
      "dul": 5726,
      "showing": 5727,
      "indiana": 5728,
      "involving": 5729,
      "singing": 5730,
      "iency": 5731,
      "printed": 5732,
      "electoral": 5733,
      "greece": 5734,
      "commonwealth": 5735,
      "tie": 5736,
      "admir": 5737,
      "alco": 5738,
      "adjacent": 5739,
      "southwest": 5740,
      "1915": 5741,
      "shif": 5742,
      "truth": 5743,
      "buck": 5744,
      "homo": 5745,
      "whereas": 5746,
      "ownership": 5747,
      "meanwhile": 5748,
      "nad": 5749,
      "flowers": 5750,
      "solar": 5751,
      "bic": 5752,
      "golf": 5753,
      "knock": 5754,
      "entre": 5755,
      "shak": 5756,
      "xi": 5757,
      "reaction": 5758,
      "speaker": 5759,
      "circle": 5760,
      "17th": 5761,
      "principles": 5762,
      "musicians": 5763,
      "coalition": 5764,
      "refuge": 5765,
      "bone": 5766,
      "]]": 5767,
      "centers": 5768,
      "practical": 5769,
      "colleges": 5770,
      "thousands": 5771,
      "patient": 5772,
      "fing": 5773,
      "designer": 5774,
      "injured": 5775,
      "ceived": 5776,
      "delivered": 5777,
      "passenger": 5778,
      "cp": 5779,
      "matrix": 5780,
      "\"-": 5781,
      "instrument": 5782,
      "oy": 5783,
      "genre": 5784,
      "compos": 5785,
      "crossing": 5786,
      "[[": 5787,
      "howard": 5788,
      "1916": 5789,
      "armen": 5790,
      "shad": 5791,
      "gather": 5792,
      "athletics": 5793,
      "strategic": 5794,
      "tap": 5795,
      "friendly": 5796,
      "survived": 5797,
      "successor": 5798,
      "tier": 5799,
      "chand": 5800,
      "czech": 5801,
      "industries": 5802,
      "statist": 5803,
      "corporate": 5804,
      "guns": 5805,
      "driven": 5806,
      "quantum": 5807,
      "protected": 5808,
      "attached": 5809,
      "seconds": 5810,
      "collap": 5811,
      "alabama": 5812,
      "hes": 5813,
      "hammad": 5814,
      "committed": 5815,
      "hil": 5816,
      "approv": 5817,
      "returns": 5818,
      "missing": 5819,
      "stress": 5820,
      "appearing": 5821,
      "eyes": 5822,
      "600": 5823,
      "ieties": 5824,
      "sist": 5825,
      "emot": 5826,
      "recon": 5827,
      "neo": 5828,
      "thy": 5829,
      "hid": 5830,
      "aviation": 5831,
      "minimum": 5832,
      "fundament": 5833,
      "visible": 5834,
      "800": 5835,
      "kaz": 5836,
      "clay": 5837,
      "spons": 5838,
      "manus": 5839,
      "resign": 5840,
      "lag": 5841,
      "evening": 5842,
      "influential": 5843,
      "cable": 5844,
      "accom": 5845,
      "hs": 5846,
      "agents": 5847,
      "gary": 5848,
      "udes": 5849,
      "orthodox": 5850,
      "trophy": 5851,
      "geome": 5852,
      "responding": 5853,
      "ukrainian": 5854,
      "intellect": 5855,
      "jobs": 5856,
      "lights": 5857,
      "debuted": 5858,
      "manner": 5859,
      "persons": 5860,
      "inner": 5861,
      "missouri": 5862,
      "kov": 5863,
      "defeating": 5864,
      "apy": 5865,
      "sert": 5866,
      "fold": 5867,
      "fron": 5868,
      "palest": 5869,
      "trop": 5870,
      "gio": 5871,
      "6th": 5872,
      "chron": 5873,
      "hd": 5874,
      "raw": 5875,
      "magic": 5876,
      "assistance": 5877,
      "rejected": 5878,
      "wic": 5879,
      "ube": 5880,
      "clock": 5881,
      "stands": 5882,
      "franchise": 5883,
      "accompan": 5884,
      "opposite": 5885,
      "breaking": 5886,
      "offensive": 5887,
      "constitutional": 5888,
      "criticism": 5889,
      "duty": 5890,
      "false": 5891,
      "painter": 5892,
      "urb": 5893,
      "barr": 5894,
      "98": 5895,
      "phan": 5896,
      "texts": 5897,
      "pear": 5898,
      "hollywood": 5899,
      "liga": 5900,
      "drag": 5901,
      "lawyer": 5902,
      "juris": 5903,
      "tri": 5904,
      "honorary": 5905,
      "layer": 5906,
      "suggests": 5907,
      "montre": 5908,
      "advertising": 5909,
      "anks": 5910,
      "1911": 5911,
      "16th": 5912,
      "dollar": 5913,
      "aro": 5914,
      "arranged": 5915,
      "residential": 5916,
      "benefit": 5917,
      "gone": 5918,
      "expect": 5919,
      "responsibility": 5920,
      "dress": 5921,
      "translated": 5922,
      "vocals": 5923,
      "insurance": 5924,
      "males": 5925,
      "figur": 5926,
      "cancell": 5927,
      "aining": 5928,
      "voy": 5929,
      "fighter": 5930,
      "patterns": 5931,
      "lincoln": 5932,
      "edinburgh": 5933,
      "phr": 5934,
      "tha": 5935,
      "studying": 5936,
      "graduating": 5937,
      "lank": 5938,
      "perspect": 5939,
      "shooting": 5940,
      "seems": 5941,
      "daughters": 5942,
      "funded": 5943,
      "1913": 5944,
      "draf": 5945,
      "behavi": 5946,
      "legislation": 5947,
      "pled": 5948,
      "cloud": 5949,
      "inals": 5950,
      "inher": 5951,
      "eler": 5952,
      "sung": 5953,
      "ral": 5954,
      "theoret": 5955,
      "similarly": 5956,
      "orial": 5957,
      "biggest": 5958,
      "filed": 5959,
      "bos": 5960,
      "ugal": 5961,
      "medieval": 5962,
      "appropriate": 5963,
      "tokyo": 5964,
      "solved": 5965,
      "revenue": 5966,
      "amo": 5967,
      "leaf": 5968,
      "trading": 5969,
      "bacter": 5970,
      "scar": 5971,
      "dang": 5972,
      "didn": 5973,
      "welsh": 5974,
      "itors": 5975,
      "musician": 5976,
      "hits": 5977,
      "moral": 5978,
      "wine": 5979,
      "proof": 5980,
      "danish": 5981,
      "haz": 5982,
      "visiting": 5983,
      "accompanied": 5984,
      "describe": 5985,
      "satellite": 5986,
      "reli": 5987,
      "gium": 5988,
      "olas": 5989,
      "extremely": 5990,
      "bast": 5991,
      "cinema": 5992,
      "quebec": 5993,
      "keeping": 5994,
      "hud": 5995,
      "lod": 5996,
      "hire": 5997,
      "salt": 5998,
      "princess": 5999,
      "pent": 6000,
      "panel": 6001,
      "bringing": 6002,
      "rebel": 6003,
      "retained": 6004,
      "dd": 6005,
      "fas": 6006,
      "roughly": 6007,
      "jen": 6008,
      "recept": 6009,
      "ico": 6010,
      "formula_1": 6011,
      "recordings": 6012,
      "restaurant": 6013,
      "predict": 6014,
      "spaces": 6015,
      "rav": 6016,
      "finite": 6017,
      "debate": 6018,
      "anderson": 6019,
      "gol": 6020,
      "edited": 6021,
      "gur": 6022,
      "download": 6023,
      "tos": 6024,
      "caval": 6025,
      "tab": 6026,
      "dublin": 6027,
      "douglas": 6028,
      "ads": 6029,
      "netic": 6030,
      "explained": 6031,
      "arn": 6032,
      "coding": 6033,
      "cole": 6034,
      "engines": 6035,
      "automat": 6036,
      "gaz": 6037,
      "locom": 6038,
      "diego": 6039,
      "hungarian": 6040,
      "matt": 6041,
      "confer": 6042,
      "consumer": 6043,
      "160": 6044,
      "prepared": 6045,
      "pages": 6046,
      "mall": 6047,
      "chile": 6048,
      "departments": 6049,
      "guil": 6050,
      "agan": 6051,
      "classification": 6052,
      "relationships": 6053,
      "locomot": 6054,
      "compound": 6055,
      "everything": 6056,
      "frederick": 6057,
      "sang": 6058,
      "underground": 6059,
      "cof": 6060,
      "error": 6061,
      "relief": 6062,
      "meters": 6063,
      "cart": 6064,
      "oz": 6065,
      "abc": 6066,
      "jab": 6067,
      "montreal": 6068,
      "videos": 6069,
      "71": 6070,
      "superior": 6071,
      "bart": 6072,
      "elev": 6073,
      "replacement": 6074,
      "ching": 6075,
      "journey": 6076,
      "essential": 6077,
      "competitions": 6078,
      "samuel": 6079,
      "chel": 6080,
      "phenom": 6081,
      "recip": 6082,
      "jum": 6083,
      "250": 6084,
      "allied": 6085,
      "1908": 6086,
      "commissioner": 6087,
      "guy": 6088,
      "releg": 6089,
      "conscious": 6090,
      "tang": 6091,
      "adi": 6092,
      "ordinary": 6093,
      "separated": 6094,
      "ored": 6095,
      "electro": 6096,
      "surve": 6097,
      "lux": 6098,
      "abstr": 6099,
      "houston": 6100,
      "puer": 6101,
      "downtown": 6102,
      "autom": 6103,
      "iso": 6104,
      "buff": 6105,
      "instruction": 6106,
      "grown": 6107,
      "commerce": 6108,
      "prix": 6109,
      "amend": 6110,
      "dos": 6111,
      "apers": 6112,
      "saur": 6113,
      "send": 6114,
      "accounts": 6115,
      "thal": 6116,
      "simult": 6117,
      "inations": 6118,
      "operational": 6119,
      "mul": 6120,
      "apo": 6121,
      "afterwards": 6122,
      "involves": 6123,
      "continuing": 6124,
      "ottoman": 6125,
      "rolled": 6126,
      "simultane": 6127,
      "sted": 6128,
      "nish": 6129,
      "ongo": 6130,
      "cott": 6131,
      "dj": 6132,
      "desk": 6133,
      "affiliated": 6134,
      "baron": 6135,
      "ache": 6136,
      "restored": 6137,
      "preneur": 6138,
      "concep": 6139,
      "surgery": 6140,
      "jav": 6141,
      "animation": 6142,
      "bie": 6143,
      "altern": 6144,
      "74": 6145,
      "banglad": 6146,
      "severe": 6147,
      "pairs": 6148,
      "accompl": 6149,
      "routes": 6150,
      "regul": 6151,
      "ambassador": 6152,
      "compreh": 6153,
      "channels": 6154,
      "dee": 6155,
      "marie": 6156,
      "inqu": 6157,
      "sig": 6158,
      "ima": 6159,
      "novels": 6160,
      "mack": 6161,
      "comics": 6162,
      "wen": 6163,
      "entrepreneur": 6164,
      "dynamic": 6165,
      "tat": 6166,
      "lins": 6167,
      "dall": 6168,
      "afghan": 6169,
      "forum": 6170,
      "interaction": 6171,
      "ilst": 6172,
      "parad": 6173,
      "beautiful": 6174,
      "relevant": 6175,
      "denmark": 6176,
      "curren": 6177,
      "juan": 6178,
      "fault": 6179,
      "moore": 6180,
      "ucky": 6181,
      "hors": 6182,
      "expo": 6183,
      "mini": 6184,
      "swimming": 6185,
      "assass": 6186,
      "whilst": 6187,
      "dual": 6188,
      "medals": 6189,
      "rolling": 6190,
      "participants": 6191,
      "diam": 6192,
      "opinion": 6193,
      "keeper": 6194,
      "approaches": 6195,
      "hub": 6196,
      "yam": 6197,
      "alber": 6198,
      "shr": 6199,
      "processor": 6200,
      "soil": 6201,
      "nell": 6202,
      "roberts": 6203,
      "transmission": 6204,
      "edia": 6205,
      "acle": 6206,
      "neutr": 6207,
      "tasks": 6208,
      "gordon": 6209,
      "universe": 6210,
      "descend": 6211,
      "commemor": 6212,
      "inton": 6213,
      "fis": 6214,
      "yang": 6215,
      "arest": 6216,
      "hence": 6217,
      "roots": 6218,
      "divor": 6219,
      "experiences": 6220,
      "ration": 6221,
      "governments": 6222,
      "84": 6223,
      "cill": 6224,
      "aj": 6225,
      "1905": 6226,
      "gray": 6227,
      "roger": 6228,
      "issance": 6229,
      "statistical": 6230,
      "serial": 6231,
      "acquisition": 6232,
      "competitive": 6233,
      "recommend": 6234,
      "argentina": 6235,
      "prohib": 6236,
      "iowa": 6237,
      "chip": 6238,
      "foss": 6239,
      "gap": 6240,
      "nett": 6241,
      "dp": 6242,
      "uncle": 6243,
      "interactive": 6244,
      "tack": 6245,
      "participation": 6246,
      "mund": 6247,
      "abad": 6248,
      "client": 6249,
      "wu": 6250,
      "colony": 6251,
      "wides": 6252,
      "females": 6253,
      "astronom": 6254,
      "tig": 6255,
      "effectively": 6256,
      "counties": 6257,
      "cker": 6258,
      "stopped": 6259,
      "facing": 6260,
      "wag": 6261,
      "penins": 6262,
      "blocks": 6263,
      "rounds": 6264,
      "shaw": 6265,
      "pseud": 6266,
      "ista": 6267,
      "links": 6268,
      "voting": 6269,
      "kum": 6270,
      "puerto": 6271,
      "integration": 6272,
      "occupation": 6273,
      "replacing": 6274,
      "ela": 6275,
      "categories": 6276,
      "belgium": 6277,
      "athen": 6278,
      "competing": 6279,
      "grave": 6280,
      "closure": 6281,
      "170": 6282,
      "coverage": 6283,
      "entering": 6284,
      "acks": 6285,
      "inspe": 6286,
      "tered": 6287,
      "characteristics": 6288,
      "facilit": 6289,
      "stick": 6290,
      "sponso": 6291,
      "sponsored": 6292,
      "helping": 6293,
      "robo": 6294,
      "tics": 6295,
      "defensive": 6296,
      "childhood": 6297,
      "knight": 6298,
      "variable": 6299,
      "choose": 6300,
      "twin": 6301,
      "81": 6302,
      "jordan": 6303,
      "mounted": 6304,
      "arrival": 6305,
      "%)": 6306,
      "turns": 6307,
      "retr": 6308,
      "1906": 6309,
      "oriented": 6310,
      "architectural": 6311,
      "13th": 6312,
      "onian": 6313,
      "immun": 6314,
      "tested": 6315,
      "innovation": 6316,
      "anthony": 6317,
      "liverpool": 6318,
      "description": 6319,
      "elig": 6320,
      "kg": 6321,
      "harris": 6322,
      "mississ": 6323,
      "lig": 6324,
      "kentucky": 6325,
      "tenance": 6326,
      "eva": 6327,
      "enforce": 6328,
      "someone": 6329,
      "charts": 6330,
      "alcohol": 6331,
      "portugal": 6332,
      "matthe": 6333,
      "wang": 6334,
      "lawrence": 6335,
      "thirty": 6336,
      "aggreg": 6337,
      "carrying": 6338,
      "bb": 6339,
      "furn": 6340,
      "warri": 6341,
      "trump": 6342,
      "constr": 6343,
      "visitors": 6344,
      "eighth": 6345,
      "120": 6346,
      "stig": 6347,
      "plain": 6348,
      "vector": 6349,
      "97": 6350,
      "judic": 6351,
      "symph": 6352,
      "damaged": 6353,
      "shares": 6354,
      "jin": 6355,
      "suic": 6356,
      "conv": 6357,
      "87": 6358,
      "dragon": 6359,
      "proposal": 6360,
      "abil": 6361,
      "overs": 6362,
      "executed": 6363,
      "agencies": 6364,
      "coastal": 6365,
      "inspir": 6366,
      "complexity": 6367,
      "probability": 6368,
      "1909": 6369,
      "fired": 6370,
      "sleep": 6371,
      "tropical": 6372,
      "animated": 6373,
      "passengers": 6374,
      "escap": 6375,
      "assem": 6376,
      "pitts": 6377,
      "stret": 6378,
      "hungary": 6379,
      "approval": 6380,
      "bris": 6381,
      "motiv": 6382,
      "sharing": 6383,
      "broadway": 6384,
      "congreg": 6385,
      "tamil": 6386,
      "revival": 6387,
      "tip": 6388,
      "stim": 6389,
      "powered": 6390,
      "maintenance": 6391,
      "lac": 6392,
      "sult": 6393,
      "focuses": 6394,
      "exists": 6395,
      "caught": 6396,
      "pher": 6397,
      "branches": 6398,
      "viewed": 6399,
      "sugar": 6400,
      "mble": 6401,
      "gel": 6402,
      "concerned": 6403,
      "imprison": 6404,
      "cooperation": 6405,
      "emerged": 6406,
      "stry": 6407,
      "scholarship": 6408,
      "82": 6409,
      "segment": 6410,
      "encounter": 6411,
      "12th": 6412,
      "md": 6413,
      "existed": 6414,
      "soundtrack": 6415,
      "tape": 6416,
      "absor": 6417,
      "brazilian": 6418,
      "decisions": 6419,
      "blues": 6420,
      "makers": 6421,
      "concern": 6422,
      "posit": 6423,
      "spiritual": 6424,
      "cement": 6425,
      "hatt": 6426,
      "continuous": 6427,
      "pig": 6428,
      "apply": 6429,
      "remember": 6430,
      "recur": 6431,
      "uz": 6432,
      "signing": 6433,
      "jesus": 6434,
      "seeing": 6435,
      "fib": 6436,
      "elementary": 6437,
      "legislature": 6438,
      "equipped": 6439,
      "pread": 6440,
      "aimed": 6441,
      "enterprise": 6442,
      "losses": 6443,
      "licensed": 6444,
      "().": 6445,
      "happy": 6446,
      "loop": 6447,
      "carto": 6448,
      "concepts": 6449,
      "adaptation": 6450,
      "atmo": 6451,
      "kas": 6452,
      "usage": 6453,
      "strongly": 6454,
      "battery": 6455,
      "intention": 6456,
      "austrian": 6457,
      "socialist": 6458,
      "cured": 6459,
      "fs": 6460,
      "dimensional": 6461,
      "cavalry": 6462,
      "indonesia": 6463,
      "rescue": 6464,
      "explos": 6465,
      "fruit": 6466,
      "antonio": 6467,
      "remote": 6468,
      "duties": 6469,
      "shu": 6470,
      "chin": 6471,
      "arct": 6472,
      "poem": 6473,
      "fled": 6474,
      "sisters": 6475,
      "aded": 6476,
      "ardo": 6477,
      "widespread": 6478,
      "phones": 6479,
      "venture": 6480,
      "complic": 6481,
      "nt": 6482,
      "infl": 6483,
      "15th": 6484,
      "resource": 6485,
      "quad": 6486,
      "wounded": 6487,
      "aments": 6488,
      "fict": 6489,
      "corrupt": 6490,
      "progressive": 6491,
      "ryan": 6492,
      "veget": 6493,
      "jection": 6494,
      "10th": 6495,
      "iser": 6496,
      "linux": 6497,
      "colors": 6498,
      "compass": 6499,
      "saturday": 6500,
      "manip": 6501,
      "femin": 6502,
      "holder": 6503,
      "recommended": 6504,
      "sad": 6505,
      "icut": 6506,
      "benefits": 6507,
      "victims": 6508,
      "1907": 6509,
      "movements": 6510,
      "exception": 6511,
      "populations": 6512,
      "ipts": 6513,
      "adults": 6514,
      "pray": 6515,
      "profile": 6516,
      "vienna": 6517,
      "1904": 6518,
      "cription": 6519,
      "tribe": 6520,
      "ao": 6521,
      "andy": 6522,
      "oli": 6523,
      "monument": 6524,
      "movies": 6525,
      "eline": 6526,
      "tens": 6527,
      "supposed": 6528,
      "rebell": 6529,
      "reputation": 6530,
      "ked": 6531,
      "stayed": 6532,
      "acceler": 6533,
      "noble": 6534,
      "raise": 6535,
      "completion": 6536,
      "ais": 6537,
      "targe": 6538,
      "hundreds": 6539,
      "stanford": 6540,
      "horiz": 6541,
      "bai": 6542,
      "peer": 6543,
      "nomination": 6544,
      "resid": 6545,
      ")\"": 6546,
      "peters": 6547,
      "sees": 6548,
      "propag": 6549,
      "nint": 6550,
      "tram": 6551,
      "nazi": 6552,
      "meets": 6553,
      "walker": 6554,
      "specialized": 6555,
      "cow": 6556,
      "occasionally": 6557,
      "istol": 6558,
      "celebrated": 6559,
      "tum": 6560,
      "8th": 6561,
      "rie": 6562,
      "mik": 6563,
      "publicly": 6564,
      "miam": 6565,
      "struction": 6566,
      "ippi": 6567,
      "loyd": 6568,
      "nintendo": 6569,
      "reduction": 6570,
      "meetings": 6571,
      "involvement": 6572,
      "1000": 6573,
      "lib": 6574,
      "diamond": 6575,
      "inction": 6576,
      "variant": 6577,
      "runner": 6578,
      "96": 6579,
      "ulum": 6580,
      "pole": 6581,
      "73": 6582,
      "oklaho": 6583,
      "rag": 6584,
      "newspapers": 6585,
      "continental": 6586,
      "margaret": 6587,
      "revolutionary": 6588,
      "flex": 6589,
      "mates": 6590,
      "expensive": 6591,
      "styles": 6592,
      "bean": 6593,
      "bits": 6594,
      "fantasy": 6595,
      "hed": 6596,
      "acknow": 6597,
      "corresponding": 6598,
      "pix": 6599,
      "wned": 6600,
      "philosoph": 6601,
      "bust": 6602,
      "83": 6603,
      "phill": 6604,
      "iac": 6605,
      "amongst": 6606,
      "seattle": 6607,
      "fundamental": 6608,
      "pregn": 6609,
      "miami": 6610,
      "kelly": 6611,
      "molecular": 6612,
      "malaysia": 6613,
      "android": 6614,
      "tied": 6615,
      "treated": 6616,
      "topics": 6617,
      "atus": 6618,
      "territories": 6619,
      "satisf": 6620,
      "rising": 6621,
      "filmed": 6622,
      "connections": 6623,
      "annually": 6624,
      "14th": 6625,
      "intent": 6626,
      "berry": 6627,
      "lithu": 6628,
      "strict": 6629,
      "sz": 6630,
      "dogs": 6631,
      "ratio": 6632,
      "sv": 6633,
      "huge": 6634,
      "detailed": 6635,
      "opportunities": 6636,
      "portrayed": 6637,
      "normally": 6638,
      "nac": 6639,
      "certific": 6640,
      "jet": 6641,
      "stall": 6642,
      "sic": 6643,
      "chancell": 6644,
      "zi": 6645,
      "azer": 6646,
      "gib": 6647,
      "irs": 6648,
      "declined": 6649,
      "blind": 6650,
      "discrim": 6651,
      "promot": 6652,
      "ott": 6653,
      "frequent": 6654,
      "illegal": 6655,
      "accessible": 6656,
      "oklahoma": 6657,
      "monarch": 6658,
      "singh": 6659,
      "assets": 6660,
      "themes": 6661,
      "unes": 6662,
      "prede": 6663,
      "hindu": 6664,
      "nand": 6665,
      "yout": 6666,
      "morgan": 6667,
      "vast": 6668,
      "managing": 6669,
      "barbar": 6670,
      "gardens": 6671,
      "mechanism": 6672,
      "rhyth": 6673,
      "tus": 6674,
      "considerable": 6675,
      "operator": 6676,
      "shock": 6677,
      "indicated": 6678,
      "principle": 6679,
      "doors": 6680,
      "shield": 6681,
      "predecess": 6682,
      "caf": 6683,
      "gow": 6684,
      "9th": 6685,
      "lia": 6686,
      "stones": 6687,
      "charity": 6688,
      "attributed": 6689,
      "claiming": 6690,
      "louisiana": 6691,
      "anything": 6692,
      "1920s": 6693,
      "locality": 6694,
      "wait": 6695,
      "neither": 6696,
      "guitarist": 6697,
      "shift": 6698,
      "dave": 6699,
      "til": 6700,
      "furthermore": 6701,
      "scand": 6702,
      "proteins": 6703,
      "acre": 6704,
      "stre": 6705,
      "sover": 6706,
      "manif": 6707,
      "retre": 6708,
      "connecticut": 6709,
      "eat": 6710,
      "uma": 6711,
      "statue": 6712,
      "decline": 6713,
      "brew": 6714,
      "detro": 6715,
      "atlanta": 6716,
      "morris": 6717,
      "itals": 6718,
      "pale": 6719,
      "somewhat": 6720,
      "balance": 6721,
      "penalty": 6722,
      "feld": 6723,
      "historically": 6724,
      "christop": 6725,
      "restoration": 6726,
      "oro": 6727,
      "citing": 6728,
      "schedule": 6729,
      "publisher": 6730,
      "mississippi": 6731,
      "sort": 6732,
      "iley": 6733,
      "controversy": 6734,
      "1902": 6735,
      "rena": 6736,
      "dir": 6737,
      "detroit": 6738,
      "tees": 6739,
      "boundary": 6740,
      "wedding": 6741,
      "displayed": 6742,
      "crystal": 6743,
      "rapidly": 6744,
      "rane": 6745,
      "greatly": 6746,
      "udi": 6747,
      "iop": 6748,
      "nbc": 6749,
      "cla": 6750,
      "parent": 6751,
      "fifa": 6752,
      "russell": 6753,
      "scan": 6754,
      "tut": 6755,
      "johann": 6756,
      "releases": 6757,
      "nak": 6758,
      "root": 6759,
      "cognitive": 6760,
      "instrumental": 6761,
      "contribution": 6762,
      "concrete": 6763,
      "sultan": 6764,
      "playstation": 6765,
      "doubles": 6766,
      "conventional": 6767,
      "landscape": 6768,
      "toms": 6769,
      "produces": 6770,
      "donated": 6771,
      "denied": 6772,
      "adventure": 6773,
      "thinking": 6774,
      "thick": 6775,
      "\":": 6776,
      "sample": 6777,
      "maj": 6778,
      "esp": 6779,
      "wet": 6780,
      "peninsula": 6781,
      "eli": 6782,
      "petro": 6783,
      "simpl": 6784,
      "abroad": 6785,
      "gau": 6786,
      "spell": 6787,
      "migrants": 6788,
      "1901": 6789,
      "producers": 6790,
      "chell": 6791,
      "hunting": 6792,
      "eliminated": 6793,
      "lion": 6794,
      "marry": 6795,
      "sudden": 6796,
      "bangladesh": 6797,
      "landing": 6798,
      "romantic": 6799,
      "adjust": 6800,
      "uniform": 6801,
      "exec": 6802,
      "criter": 6803,
      "timore": 6804,
      "finland": 6805,
      "sail": 6806,
      "venez": 6807,
      "developer": 6808,
      "hearing": 6809,
      "trap": 6810,
      "suicide": 6811,
      "yle": 6812,
      "horn": 6813,
      "transform": 6814,
      "scope": 6815,
      "massive": 6816,
      "consistent": 6817,
      "summit": 6818,
      "parks": 6819,
      "lus": 6820,
      "controversial": 6821,
      "tong": 6822,
      "manuel": 6823,
      "dict": 6824,
      "amy": 6825,
      "austin": 6826,
      "pleas": 6827,
      "cra": 6828,
      "grid": 6829,
      "wonder": 6830,
      "drugs": 6831,
      "cbs": 6832,
      "everyone": 6833,
      "curric": 6834,
      "allies": 6835,
      "hunter": 6836,
      "metric": 6837,
      "pron": 6838,
      "tenure": 6839,
      "traditionally": 6840,
      "peaked": 6841,
      "neck": 6842,
      "vik": 6843,
      "assault": 6844,
      "horses": 6845,
      "chal": 6846,
      "ibute": 6847,
      "matters": 6848,
      "signals": 6849,
      "lg": 6850,
      "transit": 6851,
      "seeking": 6852,
      "wrong": 6853,
      "keys": 6854,
      "outer": 6855,
      "hybrid": 6856,
      "abbey": 6857,
      "sper": 6858,
      "rico": 6859,
      "sculpture": 6860,
      "hin": 6861,
      "ova": 6862,
      "leban": 6863,
      "):": 6864,
      "sd": 6865,
      "suitable": 6866,
      "prisoners": 6867,
      "possibility": 6868,
      "options": 6869,
      "poems": 6870,
      "mt": 6871,
      "zam": 6872,
      "crowd": 6873,
      "doctoral": 6874,
      "youtube": 6875,
      "reco": 6876,
      "discussed": 6877,
      "grades": 6878,
      "moves": 6879,
      "beck": 6880,
      "hole": 6881,
      "transmit": 6882,
      "guaran": 6883,
      "maps": 6884,
      "ensu": 6885,
      "dominated": 6886,
      "boats": 6887,
      "warm": 6888,
      "coron": 6889,
      "seek": 6890,
      "1903": 6891,
      "surviving": 6892,
      "absence": 6893,
      "lip": 6894,
      "extreme": 6895,
      "wake": 6896,
      "partial": 6897,
      "noise": 6898,
      "automatic": 6899,
      "dak": 6900,
      "colomb": 6901,
      "iy": 6902,
      "grammar": 6903,
      "prising": 6904,
      "organised": 6905,
      "lang": 6906,
      "worn": 6907,
      "hunt": 6908,
      "costa": 6909,
      "maur": 6910,
      "campbell": 6911,
      "bee": 6912,
      "confeder": 6913,
      "oon": 6914,
      "theoretical": 6915,
      "rons": 6916,
      "mina": 6917,
      "execution": 6918,
      "som": 6919,
      "triple": 6920,
      "kor": 6921,
      "mrs": 6922,
      "oe": 6923,
      "sna": 6924,
      "veland": 6925,
      "grandfather": 6926,
      "bruce": 6927,
      "angle": 6928,
      "delivery": 6929,
      "convers": 6930,
      "handed": 6931,
      "mason": 6932,
      "diverse": 6933,
      "therine": 6934,
      "nit": 6935,
      "objective": 6936,
      "subsidiary": 6937,
      "baltimore": 6938,
      "surrender": 6939,
      "worship": 6940,
      "substantial": 6941,
      "ibn": 6942,
      "density": 6943,
      "athletes": 6944,
      "gradually": 6945,
      "lose": 6946,
      "beet": 6947,
      "regulations": 6948,
      "volumes": 6949,
      "suspended": 6950,
      "advisory": 6951,
      "ruling": 6952,
      "norman": 6953,
      "romanian": 6954,
      "oles": 6955,
      "beam": 6956,
      "guine": 6957,
      "nom": 6958,
      "foster": 6959,
      "mingham": 6960,
      "ninth": 6961,
      "tourism": 6962,
      "derby": 6963,
      "modeling": 6964,
      "wooden": 6965,
      "spoken": 6966,
      "yugo": 6967,
      "kevin": 6968,
      "triang": 6969,
      "preserved": 6970,
      "waste": 6971,
      "aine": 6972,
      "mills": 6973,
      "minority": 6974,
      "tunnel": 6975,
      "demonstrated": 6976,
      "personality": 6977,
      "sounds": 6978,
      "encouraged": 6979,
      "capabilities": 6980,
      "thered": 6981,
      "rin": 6982,
      "hack": 6983,
      "wes": 6984,
      "weapon": 6985,
      "sponsor": 6986,
      "accred": 6987,
      "logo": 6988,
      "ride": 6989,
      "kirk": 6990,
      "fishing": 6991,
      "supporters": 6992,
      "catch": 6993,
      "monast": 6994,
      "descent": 6995,
      "tomb": 6996,
      "flows": 6997,
      "jacob": 6998,
      "guards": 6999,
      "mong": 7000,
      "fictional": 7001,
      "unk": 7002,
      "duo": 7003,
      "marshall": 7004,
      "happened": 7005,
      "gulf": 7006,
      "turning": 7007,
      "radical": 7008,
      "chor": 7009,
      "grace": 7010,
      "cousin": 7011,
      "bears": 7012,
      "establishing": 7013,
      "departure": 7014,
      "experiments": 7015,
      "1898": 7016,
      "uefa": 7017,
      "reportedly": 7018,
      "kay": 7019,
      "pill": 7020,
      "commune": 7021,
      "reno": 7022,
      "sham": 7023,
      "attracted": 7024,
      "clip": 7025,
      "11th": 7026,
      "explicit": 7027,
      "perspective": 7028,
      "nash": 7029,
      "challenges": 7030,
      "dock": 7031,
      "printing": 7032,
      "contested": 7033,
      "butter": 7034,
      "yugoslav": 7035,
      "utah": 7036,
      "baker": 7037,
      "inian": 7038,
      "urers": 7039,
      "destruction": 7040,
      "christopher": 7041,
      "goth": 7042,
      "liquid": 7043,
      "aham": 7044,
      "completing": 7045,
      "lasted": 7046,
      "structural": 7047,
      "cleveland": 7048,
      "chat": 7049,
      "stev": 7050,
      "deem": 7051,
      "fers": 7052,
      "reless": 7053,
      "biography": 7054,
      "assisted": 7055,
      "ager": 7056,
      "92": 7057,
      "illness": 7058,
      "peoples": 7059,
      "ranks": 7060,
      "protests": 7061,
      "generate": 7062,
      "facebook": 7063,
      "viewers": 7064,
      "uct": 7065,
      "borne": 7066,
      "rim": 7067,
      "remainder": 7068,
      "portrait": 7069,
      "holders": 7070,
      "thompson": 7071,
      "periods": 7072,
      "sessions": 7073,
      "nut": 7074,
      "wig": 7075,
      "monte": 7076,
      "anny": 7077,
      "uls": 7078,
      "siege": 7079,
      "enses": 7080,
      "chancellor": 7081,
      "enhan": 7082,
      "arabic": 7083,
      "farmers": 7084,
      "gence": 7085,
      "messages": 7086,
      "songwriter": 7087,
      "drin": 7088,
      "birmingham": 7089,
      "peg": 7090,
      "credits": 7091,
      "trick": 7092,
      "soldier": 7093,
      "threatened": 7094,
      "egyptian": 7095,
      "kap": 7096,
      "repair": 7097,
      "forests": 7098,
      "gart": 7099,
      "pierre": 7100,
      "kab": 7101,
      "bench": 7102,
      "youngest": 7103,
      "dependent": 7104,
      "regime": 7105,
      "romania": 7106,
      "nevertheless": 7107,
      "anyone": 7108,
      "truste": 7109,
      "lined": 7110,
      "fusion": 7111,
      "remove": 7112,
      "characterized": 7113,
      "updated": 7114,
      "kle": 7115,
      "pittsburgh": 7116,
      "ect": 7117,
      "trac": 7118,
      "valent": 7119,
      "cant": 7120,
      "posted": 7121,
      "dil": 7122,
      "lakes": 7123,
      "gle": 7124,
      "compilation": 7125,
      "begun": 7126,
      "sentence": 7127,
      "ideal": 7128,
      "counsel": 7129,
      "aar": 7130,
      "faster": 7131,
      "increases": 7132,
      "belonging": 7133,
      "comprehensive": 7134,
      "quer": 7135,
      "electricity": 7136,
      "mines": 7137,
      "achievement": 7138,
      "extent": 7139,
      "interpretation": 7140,
      "saints": 7141,
      "prefect": 7142,
      "alge": 7143,
      "restricted": 7144,
      "baptist": 7145,
      "maid": 7146,
      "gus": 7147,
      "intermed": 7148,
      "xx": 7149,
      "desert": 7150,
      "inaugural": 7151,
      "controls": 7152,
      "?\"": 7153,
      "usalem": 7154,
      "berke": 7155,
      "evil": 7156,
      "1899": 7157,
      "stewart": 7158,
      "solve": 7159,
      "sevent": 7160,
      "customer": 7161,
      "merger": 7162,
      "serge": 7163,
      "analog": 7164,
      "venue": 7165,
      "photography": 7166,
      "venezuel": 7167,
      "willing": 7168,
      "giant": 7169,
      "sarah": 7170,
      "monastery": 7171,
      "nova": 7172,
      "writes": 7173,
      "democracy": 7174,
      "dore": 7175,
      "provinces": 7176,
      "array": 7177,
      "behalf": 7178,
      "yon": 7179,
      "resem": 7180,
      "stere": 7181,
      "exposed": 7182,
      "depression": 7183,
      "130": 7184,
      "accurate": 7185,
      "configur": 7186,
      "lp": 7187,
      "circumst": 7188,
      "luck": 7189,
      "jerusalem": 7190,
      "flower": 7191,
      "geon": 7192,
      "qualification": 7193,
      "spoke": 7194,
      "peru": 7195,
      "deter": 7196,
      "hara": 7197,
      "rows": 7198,
      "pover": 7199,
      "width": 7200,
      "immediate": 7201,
      "oft": 7202,
      "monthly": 7203,
      "hidden": 7204,
      "gren": 7205,
      "nelson": 7206,
      "hem": 7207,
      "therapy": 7208,
      "ongoing": 7209,
      "91": 7210,
      "pus": 7211,
      "spending": 7212,
      "regulation": 7213,
      "lud": 7214,
      "merchant": 7215,
      "1896": 7216,
      "disput": 7217,
      "attending": 7218,
      "gates": 7219,
      "libraries": 7220,
      "arist": 7221,
      "aceae": 7222,
      "murray": 7223,
      "omin": 7224,
      "strik": 7225,
      "java": 7226,
      "vine": 7227,
      "thanks": 7228,
      "premiere": 7229,
      "discover": 7230,
      "guardian": 7231,
      "cluster": 7232,
      "alfred": 7233,
      "intellectual": 7234,
      "simultaneously": 7235,
      "1890": 7236,
      "evolved": 7237,
      "drafted": 7238,
      "kenned": 7239,
      "oxy": 7240,
      "hism": 7241,
      "rant": 7242,
      "clan": 7243,
      "adams": 7244,
      "olo": 7245,
      "ologists": 7246,
      "embr": 7247,
      "sta": 7248,
      "forth": 7249,
      "excess": 7250,
      "longest": 7251,
      "enson": 7252,
      "rt": 7253,
      "intersection": 7254,
      "patron": 7255,
      "procedure": 7256,
      "berkeley": 7257,
      "browser": 7258,
      "sony": 7259,
      "ghana": 7260,
      "surrounded": 7261,
      "archbishop": 7262,
      "organic": 7263,
      "94": 7264,
      "assessment": 7265,
      "apolis": 7266,
      "occasions": 7267,
      "closing": 7268,
      "inum": 7269,
      "birthday": 7270,
      "throne": 7271,
      "mck": 7272,
      "abuse": 7273,
      "partially": 7274,
      "variables": 7275,
      "%,": 7276,
      "respective": 7277,
      "stamp": 7278,
      "victorian": 7279,
      "nba": 7280,
      "portland": 7281,
      "aes": 7282,
      "desire": 7283,
      "walking": 7284,
      "indicate": 7285,
      ".'": 7286,
      "editions": 7287,
      "muhammad": 7288,
      "ijing": 7289,
      "nucle": 7290,
      "origins": 7291,
      "patri": 7292,
      "madrid": 7293,
      "initiated": 7294,
      "cinem": 7295,
      "deployed": 7296,
      "concerts": 7297,
      "incumb": 7298,
      "jury": 7299,
      "compens": 7300,
      "wants": 7301,
      "wski": 7302,
      "cau": 7303,
      "drivers": 7304,
      "internationally": 7305,
      "intervent": 7306,
      "salv": 7307,
      "cave": 7308,
      "substitute": 7309,
      "autonomous": 7310,
      "exclusively": 7311,
      "yield": 7312,
      "indoor": 7313,
      "suffering": 7314,
      "eligible": 7315,
      "traveled": 7316,
      "tot": 7317,
      "casual": 7318,
      "karl": 7319,
      "robinson": 7320,
      "dallas": 7321,
      "\"'": 7322,
      "zh": 7323,
      "privacy": 7324,
      "franklin": 7325,
      "shin": 7326,
      "mg": 7327,
      "canon": 7328,
      "defending": 7329,
      "unusual": 7330,
      "dod": 7331,
      "improvement": 7332,
      "belgian": 7333,
      "ailand": 7334,
      "iveness": 7335,
      "vacc": 7336,
      "boot": 7337,
      "till": 7338,
      "sentenced": 7339,
      "withdraw": 7340,
      "neural": 7341,
      "punk": 7342,
      "argument": 7343,
      "persian": 7344,
      "endar": 7345,
      "kennedy": 7346,
      "comparison": 7347,
      "fabric": 7348,
      "soph": 7349,
      "kun": 7350,
      "overseas": 7351,
      "node": 7352,
      "earning": 7353,
      "promis": 7354,
      "cultiv": 7355,
      "improvements": 7356,
      "besides": 7357,
      "beijing": 7358,
      "businessman": 7359,
      "trials": 7360,
      "describing": 7361,
      "theories": 7362,
      "diseases": 7363,
      "struggle": 7364,
      "700": 7365,
      "household": 7366,
      "telephone": 7367,
      "vulner": 7368,
      "conven": 7369,
      "villa": 7370,
      "cope": 7371,
      "izz": 7372,
      "civilian": 7373,
      "thereafter": 7374,
      "crypto": 7375,
      "enh": 7376,
      "opponents": 7377,
      "wre": 7378,
      "disk": 7379,
      "org": 7380,
      "relocated": 7381,
      "dangerous": 7382,
      "automatically": 7383,
      "virus": 7384,
      "lots": 7385,
      "recovery": 7386,
      "hey": 7387,
      "delhi": 7388,
      "thailand": 7389,
      "uri": 7390,
      "lete": 7391,
      "environments": 7392,
      "uous": 7393,
      "codes": 7394,
      "nr": 7395,
      "gross": 7396,
      "riding": 7397,
      "radar": 7398,
      "html": 7399,
      "rever": 7400,
      "grim": 7401,
      "signs": 7402,
      "pursue": 7403,
      "injuries": 7404,
      "polar": 7405,
      "maine": 7406,
      "hail": 7407,
      "johnny": 7408,
      "dell": 7409,
      "legs": 7410,
      "wells": 7411,
      "crib": 7412,
      "consolid": 7413,
      "enable": 7414,
      "mono": 7415,
      "zhou": 7416,
      "petition": 7417,
      "copper": 7418,
      "embed": 7419,
      "partly": 7420,
      "1895": 7421,
      "reducing": 7422,
      "ori": 7423,
      "tribes": 7424,
      "carter": 7425,
      "collective": 7426,
      "cass": 7427,
      "membr": 7428,
      "judges": 7429,
      "phar": 7430,
      "deaths": 7431,
      "graham": 7432,
      "alexand": 7433,
      "93": 7434,
      "jump": 7435,
      "itim": 7436,
      "reporting": 7437,
      "lanka": 7438,
      "knew": 7439,
      "narrative": 7440,
      "passage": 7441,
      "behaviour": 7442,
      "ranging": 7443,
      "hier": 7444,
      "icing": 7445,
      "cancelled": 7446,
      "fielder": 7447,
      "21st": 7448,
      "bernard": 7449,
      "theore": 7450,
      "apparently": 7451,
      "ieee": 7452,
      "activist": 7453,
      "morph": 7454,
      "inch": 7455,
      "voc": 7456,
      "crimes": 7457,
      "beauty": 7458,
      "ceased": 7459,
      "compatible": 7460,
      "stanley": 7461,
      "vig": 7462,
      "spa": 7463,
      "exceed": 7464,
      "urally": 7465,
      "pink": 7466,
      "inhib": 7467,
      "serbia": 7468,
      "discussion": 7469,
      "elite": 7470,
      "pioneer": 7471,
      "eno": 7472,
      "dum": 7473,
      "struck": 7474,
      "comfort": 7475,
      "bridges": 7476,
      "boss": 7477,
      "weekend": 7478,
      "absol": 7479,
      "ampl": 7480,
      "iph": 7481,
      "woods": 7482,
      "marath": 7483,
      "enemies": 7484,
      "concentration": 7485,
      "stake": 7486,
      "opponent": 7487,
      "percept": 7488,
      "antine": 7489,
      "olds": 7490,
      "patrio": 7491,
      "exclusive": 7492,
      "looked": 7493,
      "wire": 7494,
      "commons": 7495,
      "hein": 7496,
      "horror": 7497,
      "beta": 7498,
      "rah": 7499,
      "nigeria": 7500,
      "rett": 7501,
      "leans": 7502,
      "helic": 7503,
      "horizon": 7504,
      "nab": 7505,
      "filter": 7506,
      "mainstream": 7507,
      "compression": 7508,
      "matthew": 7509,
      "efficiency": 7510,
      "limits": 7511,
      "1940s": 7512,
      "scores": 7513,
      "specim": 7514,
      "finnish": 7515,
      "rational": 7516,
      "abdul": 7517,
      "dialect": 7518,
      "appre": 7519,
      "iller": 7520,
      "organis": 7521,
      "fon": 7522,
      "rifle": 7523,
      "incumbent": 7524,
      "glasgow": 7525,
      "notice": 7526,
      "telling": 7527,
      "raid": 7528,
      "submitted": 7529,
      "ennial": 7530,
      "secured": 7531,
      "outbreak": 7532,
      "certified": 7533,
      "awareness": 7534,
      "promoting": 7535,
      "dh": 7536,
      "chy": 7537,
      "advice": 7538,
      "billy": 7539,
      "symphony": 7540,
      "faction": 7541,
      "warner": 7542,
      "hull": 7543,
      "amazon": 7544,
      "locally": 7545,
      "enrolled": 7546,
      "ui": 7547,
      "declar": 7548,
      "reviewed": 7549,
      "otic": 7550,
      "2000s": 7551,
      "1897": 7552,
      "nepal": 7553,
      "demolished": 7554,
      "pian": 7555,
      "aims": 7556,
      "sloven": 7557,
      "enz": 7558,
      "disband": 7559,
      "keyboard": 7560,
      "amin": 7561,
      "samples": 7562,
      "battles": 7563,
      "kath": 7564,
      "console": 7565,
      "meter": 7566,
      "ups": 7567,
      "revers": 7568,
      "patrol": 7569,
      "baijan": 7570,
      "recovered": 7571,
      "toy": 7572,
      "wireless": 7573,
      "springs": 7574,
      "eur": 7575,
      "voters": 7576,
      "connecting": 7577,
      "closer": 7578,
      "supplies": 7579,
      "tub": 7580,
      "zim": 7581,
      "azerbaijan": 7582,
      "altar": 7583,
      "lex": 7584,
      "plastic": 7585,
      "examination": 7586,
      "tis": 7587,
      "diver": 7588,
      "simulation": 7589,
      "volunteer": 7590,
      "varian": 7591,
      "falling": 7592,
      "fighters": 7593,
      "neutral": 7594,
      "enabled": 7595,
      "commented": 7596,
      "buffalo": 7597,
      "sweet": 7598,
      "promise": 7599,
      "latest": 7600,
      "exposure": 7601,
      "guid": 7602,
      "ressing": 7603,
      "violent": 7604,
      "hend": 7605,
      "oct": 7606,
      "belt": 7607,
      "prot": 7608,
      "gear": 7609,
      "1893": 7610,
      "transp": 7611,
      "racial": 7612,
      "surviv": 7613,
      "emphasis": 7614,
      "bren": 7615,
      "jimmy": 7616,
      "divis": 7617,
      "pace": 7618,
      "touring": 7619,
      "portray": 7620,
      "iranian": 7621,
      "brooklyn": 7622,
      "cade": 7623,
      "experts": 7624,
      "earthqu": 7625,
      "lun": 7626,
      "rally": 7627,
      "arbit": 7628,
      "erected": 7629,
      "itter": 7630,
      "invented": 7631,
      "speakers": 7632,
      "pling": 7633,
      "conclusion": 7634,
      "detection": 7635,
      "enforcement": 7636,
      "households": 7637,
      "borders": 7638,
      "originated": 7639,
      "endors": 7640,
      "lighting": 7641,
      "apartment": 7642,
      "excav": 7643,
      "kl": 7644,
      "installation": 7645,
      "colleg": 7646,
      "indeed": 7647,
      "alive": 7648,
      "aggress": 7649,
      "exactly": 7650,
      "aba": 7651,
      "throw": 7652,
      "orleans": 7653,
      "collins": 7654,
      "helps": 7655,
      "clearly": 7656,
      "vessels": 7657,
      "lah": 7658,
      "emig": 7659,
      "responded": 7660,
      "lotte": 7661,
      "pruss": 7662,
      "concerning": 7663,
      "cules": 7664,
      "housed": 7665,
      "benjam": 7666,
      "fisher": 7667,
      "tone": 7668,
      "volley": 7669,
      "tul": 7670,
      "heroes": 7671,
      "ministers": 7672,
      "mitchell": 7673,
      "ske": 7674,
      "serbian": 7675,
      "manufacturer": 7676,
      "afghanistan": 7677,
      "das": 7678,
      "debt": 7679,
      "exercise": 7680,
      "conversion": 7681,
      "spar": 7682,
      "iture": 7683,
      "ifies": 7684,
      "gameplay": 7685,
      "bible": 7686,
      "pute": 7687,
      "carib": 7688,
      "alien": 7689,
      "nicholas": 7690,
      "holm": 7691,
      "enjoyed": 7692,
      "desktop": 7693,
      "toured": 7694,
      "spher": 7695,
      "evans": 7696,
      "stroke": 7697,
      "nearest": 7698,
      "replic": 7699,
      "bund": 7700,
      "cz": 7701,
      "ghai": 7702,
      "qualify": 7703,
      "galax": 7704,
      "tribute": 7705,
      "zed": 7706,
      "vor": 7707,
      "assu": 7708,
      "identical": 7709,
      "archaeological": 7710,
      "hook": 7711,
      "sket": 7712,
      "bibl": 7713,
      "filming": 7714,
      "worst": 7715,
      "formula_2": 7716,
      "references": 7717,
      "rip": 7718,
      "asi": 7719,
      "preferred": 7720,
      "wei": 7721,
      "1894": 7722,
      "consequ": 7723,
      "technological": 7724,
      "rell": 7725,
      "pau": 7726,
      "1892": 7727,
      "tale": 7728,
      "graded": 7729,
      "polynom": 7730,
      "ounced": 7731,
      "abu": 7732,
      "reveals": 7733,
      "ultimate": 7734,
      "circumstances": 7735,
      "enix": 7736,
      "kom": 7737,
      "tight": 7738,
      "nodes": 7739,
      "ligh": 7740,
      "1889": 7741,
      "fitz": 7742,
      "lifetime": 7743,
      "nutr": 7744,
      "pound": 7745,
      "prospect": 7746,
      "traditions": 7747,
      "honors": 7748,
      "basin": 7749,
      "guilty": 7750,
      "het": 7751,
      "milan": 7752,
      "couver": 7753,
      "collaborated": 7754,
      "wayne": 7755,
      "viewer": 7756,
      "binary": 7757,
      "earn": 7758,
      "possession": 7759,
      "ibilities": 7760,
      "curriculum": 7761,
      "craf": 7762,
      "tet": 7763,
      "digit": 7764,
      "democrat": 7765,
      "cypr": 7766,
      "algebra": 7767,
      "1885": 7768,
      "update": 7769,
      "ceram": 7770,
      "historians": 7771,
      "kids": 7772,
      "autho": 7773,
      "essentially": 7774,
      "vancouver": 7775,
      "emerging": 7776,
      "nev": 7777,
      "legitim": 7778,
      "benjamin": 7779,
      "thouse": 7780,
      "activated": 7781,
      "ranean": 7782,
      "participating": 7783,
      "punish": 7784,
      "negotiations": 7785,
      "unless": 7786,
      "alice": 7787,
      "posts": 7788,
      "authored": 7789,
      "arrangement": 7790,
      "kne": 7791,
      "strengthen": 7792,
      "drummer": 7793,
      "iner": 7794,
      "healthcare": 7795,
      "tol": 7796,
      "currency": 7797,
      "hom": 7798,
      "optical": 7799,
      "amendment": 7800,
      "harm": 7801,
      "volunteers": 7802,
      "campaigns": 7803,
      "measured": 7804,
      "acu": 7805,
      "persu": 7806,
      "bold": 7807,
      "symptoms": 7808,
      "devoted": 7809,
      "ghost": 7810,
      "logy": 7811,
      "shopping": 7812,
      "indicates": 7813,
      "compiled": 7814,
      "acknowled": 7815,
      "acou": 7816,
      "banned": 7817,
      "corre": 7818,
      "focusing": 7819,
      "timber": 7820,
      "rebuilt": 7821,
      "gif": 7822,
      "polynomial": 7823,
      "ww": 7824,
      "worker": 7825,
      "deemed": 7826,
      "lowest": 7827,
      "dramatic": 7828,
      "define": 7829,
      "prestig": 7830,
      "package": 7831,
      "picked": 7832,
      "requested": 7833,
      "corruption": 7834,
      "align": 7835,
      "dismissed": 7836,
      "eller": 7837,
      "programmes": 7838,
      "jail": 7839,
      "manhatt": 7840,
      "collegiate": 7841,
      "magazines": 7842,
      "sequel": 7843,
      "interactions": 7844,
      "wildlife": 7845,
      "hak": 7846,
      "vy": 7847,
      "luther": 7848,
      "festivals": 7849,
      "familiar": 7850,
      "manufacturers": 7851,
      "rarely": 7852,
      "displays": 7853,
      "charlie": 7854,
      "tanks": 7855,
      "withdrew": 7856,
      "hampshire": 7857,
      "acres": 7858,
      "difficulty": 7859,
      "raph": 7860,
      "ampton": 7861,
      "authen": 7862,
      "orous": 7863,
      "capit": 7864,
      "trinity": 7865,
      "carlos": 7866,
      "aman": 7867,
      "homel": 7868,
      "cutting": 7869,
      "milk": 7870,
      "manhattan": 7871,
      "psychological": 7872,
      "inspiration": 7873,
      "bloom": 7874,
      "equation": 7875,
      "asks": 7876,
      "rust": 7877,
      "anglo": 7878,
      "decides": 7879,
      "ules": 7880,
      "adequ": 7881,
      "arctic": 7882,
      "ois": 7883,
      "commanded": 7884,
      "fraud": 7885,
      "doesn": 7886,
      "actively": 7887,
      "oke": 7888,
      "certificate": 7889,
      "harbor": 7890,
      "insect": 7891,
      "presid": 7892,
      "encourage": 7893,
      "endor": 7894,
      "manufactured": 7895,
      "richmond": 7896,
      "oto": 7897,
      "binding": 7898,
      "coaching": 7899,
      "kitch": 7900,
      "eldest": 7901,
      "jak": 7902,
      "arus": 7903,
      "immigrants": 7904,
      "iti": 7905,
      "convic": 7906,
      "abor": 7907,
      "helicop": 7908,
      "impossible": 7909,
      "diversity": 7910,
      "shadow": 7911,
      "encry": 7912,
      "wider": 7913,
      "contributing": 7914,
      "impress": 7915,
      "valuable": 7916,
      "bristol": 7917,
      "poverty": 7918,
      "fortress": 7919,
      "hir": 7920,
      "jess": 7921,
      "clothing": 7922,
      "specified": 7923,
      "pd": 7924,
      "exhibited": 7925,
      "enhance": 7926,
      "enzy": 7927,
      "honours": 7928,
      "sacred": 7929,
      "prices": 7930,
      "distinction": 7931,
      "journ": 7932,
      "\"\",": 7933,
      "bengal": 7934,
      "shanghai": 7935,
      "handle": 7936,
      "glen": 7937,
      "payment": 7938,
      "ican": 7939,
      "banking": 7940,
      "helm": 7941,
      "grove": 7942,
      "tournaments": 7943,
      "immigration": 7944,
      "lak": 7945,
      "advisor": 7946,
      "bane": 7947,
      "motors": 7948,
      "sak": 7949,
      "barry": 7950,
      "clients": 7951,
      "emotional": 7952,
      "delta": 7953,
      "supervis": 7954,
      "habitat": 7955,
      "coat": 7956,
      "consumption": 7957,
      "scout": 7958,
      "itarian": 7959,
      "prosecut": 7960,
      "elsewhere": 7961,
      "chu": 7962,
      "convin": 7963,
      "sap": 7964,
      "survive": 7965,
      "smooth": 7966,
      "boundaries": 7967,
      "mits": 7968,
      "magnetic": 7969,
      "forcing": 7970,
      "ifier": 7971,
      "reporter": 7972,
      "manifest": 7973,
      "chick": 7974,
      "sharp": 7975,
      "oa": 7976,
      "diplomatic": 7977,
      "vil": 7978,
      "flights": 7979,
      "branded": 7980,
      "ayan": 7981,
      "fined": 7982,
      "grif": 7983,
      "confess": 7984,
      "extensively": 7985,
      "permission": 7986,
      "unsuccessful": 7987,
      "1888": 7988,
      "isolated": 7989,
      "blan": 7990,
      "alternat": 7991,
      "bby": 7992,
      "beating": 7993,
      "hua": 7994,
      "believes": 7995,
      "authentic": 7996,
      "parker": 7997,
      "evangel": 7998,
      "warren": 7999,
      "coup": 8000,
      "sustainable": 8001,
      "thunder": 8002,
      "elic": 8003,
      "documented": 8004,
      "uding": 8005,
      "outdoor": 8006,
      "agonist": 8007,
      "manor": 8008,
      "jama": 8009,
      "raising": 8010,
      "1864": 8011,
      "1891": 8012,
      "intr": 8013,
      "truck": 8014,
      "deriv": 8015,
      "voiv": 8016,
      "paired": 8017,
      "fifteen": 8018,
      "editorial": 8019,
      "photographs": 8020,
      "understood": 8021,
      "uncertain": 8022,
      "adesh": 8023,
      "nhl": 8024,
      "ote": 8025,
      "instructions": 8026,
      "independently": 8027,
      "charlotte": 8028,
      "simul": 8029,
      "presentation": 8030,
      "zon": 8031,
      "theorem": 8032,
      "jason": 8033,
      "situations": 8034,
      "amb": 8035,
      "noon": 8036,
      "coffee": 8037,
      "passion": 8038,
      "cats": 8039,
      "mediter": 8040,
      "scat": 8041,
      "kilome": 8042,
      "blow": 8043,
      "informed": 8044,
      "idge": 8045,
      "depos": 8046,
      "loaded": 8047,
      "kok": 8048,
      "gov": 8049,
      "reads": 8050,
      "anes": 8051,
      "belonged": 8052,
      "inaugur": 8053,
      "vlad": 8054,
      "mario": 8055,
      "embar": 8056,
      "muslims": 8057,
      "riers": 8058,
      "professionals": 8059,
      "nc": 8060,
      "beer": 8061,
      "mechanics": 8062,
      "rocks": 8063,
      "fortun": 8064,
      "alberta": 8065,
      "intern": 8066,
      "spectrum": 8067,
      "rebellion": 8068,
      "abra": 8069,
      "dispute": 8070,
      "yorkshire": 8071,
      "frances": 8072,
      "mature": 8073,
      "alternate": 8074,
      "rna": 8075,
      "1861": 8076,
      "lington": 8077,
      "variation": 8078,
      "predecessor": 8079,
      "airlines": 8080,
      "recognised": 8081,
      "phenomen": 8082,
      "izer": 8083,
      "exhibitions": 8084,
      "parameters": 8085,
      "admiral": 8086,
      "aming": 8087,
      "--": 8088,
      "xbox": 8089,
      "legacy": 8090,
      "predominant": 8091,
      "extend": 8092,
      "numer": 8093,
      "monitoring": 8094,
      "volleyball": 8095,
      "yuan": 8096,
      "dess": 8097,
      "characteristic": 8098,
      "phrase": 8099,
      "synthesis": 8100,
      "meat": 8101,
      "guild": 8102,
      "hospitals": 8103,
      "influences": 8104,
      "fus": 8105,
      "fellowship": 8106,
      "archives": 8107,
      "wearing": 8108,
      "cotton": 8109,
      "decide": 8110,
      "excellence": 8111,
      "flee": 8112,
      "hawa": 8113,
      "paint": 8114,
      "feeling": 8115,
      "doctorate": 8116,
      "copyright": 8117,
      "1887": 8118,
      "playoffs": 8119,
      "lil": 8120,
      "waves": 8121,
      "boom": 8122,
      "seman": 8123,
      "aber": 8124,
      "mars": 8125,
      "requiring": 8126,
      "eb": 8127,
      "anime": 8128,
      "globe": 8129,
      "founders": 8130,
      "prec": 8131,
      "1880": 8132,
      "1865": 8133,
      "witch": 8134,
      "identification": 8135,
      "germans": 8136,
      "explain": 8137,
      "hul": 8138,
      "iceland": 8139,
      "chase": 8140,
      "researcher": 8141,
      "illustrated": 8142,
      "inducted": 8143,
      "attempting": 8144,
      "variations": 8145,
      "metr": 8146,
      "ife": 8147,
      "pressing": 8148,
      "topic": 8149,
      "namely": 8150,
      "bent": 8151,
      "saved": 8152,
      "supplement": 8153,
      "welfare": 8154,
      "promised": 8155,
      "percentage": 8156,
      "intelligent": 8157,
      "evaluation": 8158,
      "nets": 8159,
      "preparation": 8160,
      "barbara": 8161,
      "hebrew": 8162,
      "fate": 8163,
      "significance": 8164,
      "choir": 8165,
      "coaches": 8166,
      "gaming": 8167,
      "graduation": 8168,
      "munich": 8169,
      "pont": 8170,
      "innings": 8171,
      "funeral": 8172,
      "cardinal": 8173,
      "loose": 8174,
      "midfielder": 8175,
      "anthropol": 8176,
      "jacqu": 8177,
      "mediterranean": 8178,
      "dancing": 8179,
      "trigger": 8180,
      "bourg": 8181,
      "infer": 8182,
      "lions": 8183,
      "semif": 8184,
      "pradesh": 8185,
      "tort": 8186,
      "haven": 8187,
      "glac": 8188,
      "drums": 8189,
      "spat": 8190,
      "transformation": 8191,
      "dez": 8192,
      "vet": 8193,
      "aza": 8194,
      "1862": 8195,
      "targets": 8196,
      "syria": 8197,
      "yale": 8198,
      "pow": 8199,
      "societies": 8200,
      "metre": 8201,
      "140": 8202,
      "potentially": 8203,
      "fract": 8204,
      "torn": 8205,
      "asser": 8206,
      "vertical": 8207,
      "lords": 8208,
      "1870": 8209,
      "manual": 8210,
      "argues": 8211,
      "diame": 8212,
      "looks": 8213,
      "buddhist": 8214,
      "cox": 8215,
      "restrictions": 8216,
      "amounts": 8217,
      "abel": 8218,
      "numbered": 8219,
      "journalism": 8220,
      "intermediate": 8221,
      "deck": 8222,
      "phal": 8223,
      "travelled": 8224,
      "adela": 8225,
      "calendar": 8226,
      "stack": 8227,
      "athens": 8228,
      "physician": 8229,
      "reverse": 8230,
      "barn": 8231,
      "drome": 8232,
      "ferry": 8233,
      "quot": 8234,
      "gaining": 8235,
      "relay": 8236,
      "harbour": 8237,
      "macy": 8238,
      "switched": 8239,
      "resignation": 8240,
      "liberation": 8241,
      "eign": 8242,
      "consort": 8243,
      "clif": 8244,
      "anglic": 8245,
      "plas": 8246,
      "madison": 8247,
      "atories": 8248,
      "removal": 8249,
      "1886": 8250,
      "waiting": 8251,
      "cultures": 8252,
      "tours": 8253,
      "reservo": 8254,
      "discontinued": 8255,
      "discipline": 8256,
      "inherited": 8257,
      "sovereign": 8258,
      "unity": 8259,
      "lett": 8260,
      "nephe": 8261,
      "backs": 8262,
      "holiday": 8263,
      "1884": 8264,
      "igo": 8265,
      "criteria": 8266,
      "explan": 8267,
      "retro": 8268,
      "cket": 8269,
      "readers": 8270,
      "hawaii": 8271,
      "resort": 8272,
      "mortal": 8273,
      "philippine": 8274,
      "iya": 8275,
      "difficulties": 8276,
      "mish": 8277,
      "marvel": 8278,
      "entity": 8279,
      "disaster": 8280,
      "ballet": 8281,
      "sight": 8282,
      "encompass": 8283,
      "friday": 8284,
      "guinea": 8285,
      "thel": 8286,
      "yar": 8287,
      "architects": 8288,
      "ensemble": 8289,
      "filip": 8290,
      "spend": 8291,
      "ym": 8292,
      "dialogue": 8293,
      "edges": 8294,
      "110": 8295,
      "accum": 8296,
      "bott": 8297,
      "blast": 8298,
      "christians": 8299,
      "firms": 8300,
      "recipient": 8301,
      "ingly": 8302,
      "axis": 8303,
      "export": 8304,
      "depicted": 8305,
      "tenth": 8306,
      "reception": 8307,
      "inge": 8308,
      "handling": 8309,
      "asking": 8310,
      "itis": 8311,
      "anni": 8312,
      "exhibit": 8313,
      "voivodes": 8314,
      "iny": 8315,
      "1863": 8316,
      "ifer": 8317,
      "cuts": 8318,
      "dynamics": 8319,
      "oo": 8320,
      "wealthy": 8321,
      "excellent": 8322,
      "asa": 8323,
      "emiss": 8324,
      "forty": 8325,
      "boxing": 8326,
      "columns": 8327,
      "ivo": 8328,
      "mirror": 8329,
      "cen": 8330,
      "journals": 8331,
      "rook": 8332,
      "memo": 8333,
      "phosp": 8334,
      "optimal": 8335,
      "turing": 8336,
      "blu": 8337,
      "josh": 8338,
      "judicial": 8339,
      "perceived": 8340,
      "bn": 8341,
      "atar": 8342,
      "interviews": 8343,
      "carrier": 8344,
      "improving": 8345,
      "neil": 8346,
      "umn": 8347,
      "soap": 8348,
      "clinton": 8349,
      "voivodeship": 8350,
      "graphs": 8351,
      "delayed": 8352,
      "barcel": 8353,
      "buses": 8354,
      "variants": 8355,
      "beaten": 8356,
      "delay": 8357,
      "operators": 8358,
      "oliver": 8359,
      "gmina": 8360,
      "coin": 8361,
      "democrats": 8362,
      "affair": 8363,
      "colleagues": 8364,
      "stereo": 8365,
      "cattle": 8366,
      "slave": 8367,
      "signature": 8368,
      "creates": 8369,
      "shall": 8370,
      "elli": 8371,
      "headquarter": 8372,
      "developments": 8373,
      "regardless": 8374,
      "guests": 8375,
      "pret": 8376,
      "cycling": 8377,
      "mh": 8378,
      "placement": 8379,
      "sitting": 8380,
      "nun": 8381,
      "scenario": 8382,
      "procedures": 8383,
      "xy": 8384,
      "sheet": 8385,
      "proprie": 8386,
      "silent": 8387,
      "alam": 8388,
      "lodge": 8389,
      "tigers": 8390,
      "wool": 8391,
      "spider": 8392,
      "railways": 8393,
      "oblast": 8394,
      "dollars": 8395,
      "marit": 8396,
      "craig": 8397,
      "conferences": 8398,
      "bills": 8399,
      "teries": 8400,
      "reader": 8401,
      "grandson": 8402,
      "byz": 8403,
      "arkansas": 8404,
      "discrimination": 8405,
      "doctr": 8406,
      "trio": 8407,
      "palm": 8408,
      "mutual": 8409,
      "bally": 8410,
      "ethiop": 8411,
      "employee": 8412,
      "illo": 8413,
      "1881": 8414,
      "gb": 8415,
      "workshop": 8416,
      "slovak": 8417,
      "contracts": 8418,
      "acon": 8419,
      "jonathan": 8420,
      "protestant": 8421,
      "lem": 8422,
      "radiation": 8423,
      "emen": 8424,
      "stol": 8425,
      "bam": 8426,
      "interchange": 8427,
      "advocate": 8428,
      "nasa": 8429,
      "enthus": 8430,
      "volt": 8431,
      "vr": 8432,
      "helen": 8433,
      "annex": 8434,
      "adelaide": 8435,
      "volcan": 8436,
      "iko": 8437,
      "settlements": 8438,
      "grows": 8439,
      "crack": 8440,
      "encer": 8441,
      "renaissance": 8442,
      "rams": 8443,
      "defended": 8444,
      "leton": 8445,
      "sterdam": 8446,
      "empty": 8447,
      "sensitive": 8448,
      "contribute": 8449,
      "jurisdiction": 8450,
      "convicted": 8451,
      "ortion": 8452,
      "ffield": 8453,
      "petr": 8454,
      "orbit": 8455,
      "underlying": 8456,
      "mechanisms": 8457,
      "flav": 8458,
      "temporarily": 8459,
      "mim": 8460,
      "turner": 8461,
      "thereby": 8462,
      "writings": 8463,
      "embass": 8464,
      "somal": 8465,
      "detach": 8466,
      "missile": 8467,
      "maced": 8468,
      "abstract": 8469,
      "sant": 8470,
      "theology": 8471,
      "rach": 8472,
      "vincent": 8473,
      "sized": 8474,
      "assists": 8475,
      "editing": 8476,
      "tables": 8477,
      "visits": 8478,
      "panic": 8479,
      "defic": 8480,
      "modu": 8481,
      "bare": 8482,
      "boe": 8483,
      "prototype": 8484,
      "bankrupt": 8485,
      "watson": 8486,
      "twitter": 8487,
      "graduates": 8488,
      "diet": 8489,
      "alger": 8490,
      "stri": 8491,
      "collapse": 8492,
      "finger": 8493,
      "amsterdam": 8494,
      "loyal": 8495,
      "targeted": 8496,
      "favorite": 8497,
      "alumni": 8498,
      "uro": 8499,
      "considering": 8500,
      "remin": 8501,
      "farming": 8502,
      "exit": 8503,
      "saudi": 8504,
      "sier": 8505,
      "processors": 8506,
      "counts": 8507,
      "sporting": 8508,
      "moroc": 8509,
      "depict": 8510,
      "rupted": 8511,
      "rhe": 8512,
      "epic": 8513,
      "navigation": 8514,
      "oulder": 8515,
      "caribbean": 8516,
      "barcelona": 8517,
      "strategies": 8518,
      "distinguish": 8519,
      "marc": 8520,
      "indicating": 8521,
      "kiss": 8522,
      "christianity": 8523,
      "lloyd": 8524,
      "tok": 8525,
      "fewer": 8526,
      "legally": 8527,
      "toler": 8528,
      "casting": 8529,
      "cliff": 8530,
      "dong": 8531,
      "dakota": 8532,
      "leeds": 8533,
      "sau": 8534,
      "eda": 8535,
      "botan": 8536,
      "stown": 8537,
      "terminus": 8538,
      "liberty": 8539,
      "1882": 8540,
      "herbert": 8541,
      "desired": 8542,
      "rog": 8543,
      "canton": 8544,
      "paraly": 8545,
      "portions": 8546,
      "maintaining": 8547,
      "diameter": 8548,
      "agreements": 8549,
      "eggs": 8550,
      "northwestern": 8551,
      "cun": 8552,
      "sick": 8553,
      "roe": 8554,
      "kash": 8555,
      "organisations": 8556,
      "nebr": 8557,
      "defender": 8558,
      "endemic": 8559,
      "ahl": 8560,
      "burial": 8561,
      "automated": 8562,
      "catherine": 8563,
      "iki": 8564,
      "manga": 8565,
      "ethics": 8566,
      "rangers": 8567,
      "bulgar": 8568,
      "statements": 8569,
      "receives": 8570,
      "reward": 8571,
      "mouse": 8572,
      "steven": 8573,
      "franco": 8574,
      "privile": 8575,
      "chev": 8576,
      "pond": 8577,
      "bug": 8578,
      "exem": 8579,
      "hurric": 8580,
      "territorial": 8581,
      "imaging": 8582,
      "easier": 8583,
      "suburb": 8584,
      "artif": 8585,
      "authorized": 8586,
      "tube": 8587,
      "referring": 8588,
      "beetle": 8589,
      "rescu": 8590,
      "lich": 8591,
      "aser": 8592,
      "spel": 8593,
      "estr": 8594,
      "bars": 8595,
      "cf": 8596,
      "recognize": 8597,
      "tissue": 8598,
      "suite": 8599,
      "tea": 8600,
      ".\",": 8601,
      "specialist": 8602,
      "slowly": 8603,
      "accompany": 8604,
      "survival": 8605,
      "minimal": 8606,
      "crossed": 8607,
      "gothic": 8608,
      "romanized": 8609,
      "announcement": 8610,
      "inhab": 8611,
      "ulus": 8612,
      "hagen": 8613,
      "lecturer": 8614,
      "elong": 8615,
      "instant": 8616,
      "hp": 8617,
      "solving": 8618,
      "relating": 8619,
      "bias": 8620,
      "marqu": 8621,
      "accuracy": 8622,
      "reforms": 8623,
      "deut": 8624,
      "enroll": 8625,
      "websites": 8626,
      "symbols": 8627,
      "fifty": 8628,
      "gabri": 8629,
      "\"\".": 8630,
      "mons": 8631,
      "addressed": 8632,
      "gerald": 8633,
      "\"(": 8634,
      "ruler": 8635,
      "requirement": 8636,
      "een": 8637,
      "secution": 8638,
      "mented": 8639,
      "borg": 8640,
      "governing": 8641,
      "optimization": 8642,
      "camps": 8643,
      "coded": 8644,
      "talks": 8645,
      "atro": 8646,
      "ffer": 8647,
      "idal": 8648,
      "indonesian": 8649,
      "aero": 8650,
      "belongs": 8651,
      "newcastle": 8652,
      "journalists": 8653,
      "reconstruction": 8654,
      "interesting": 8655,
      "daw": 8656,
      "inno": 8657,
      "proportion": 8658,
      "1883": 8659,
      "breeding": 8660,
      "ticket": 8661,
      "armenian": 8662,
      "appreci": 8663,
      "councill": 8664,
      "indians": 8665,
      "reed": 8666,
      "supplied": 8667,
      "engagement": 8668,
      "layers": 8669,
      "controller": 8670,
      "advertise": 8671,
      "tou": 8672,
      "imir": 8673,
      "hierarch": 8674,
      "decorated": 8675,
      "lov": 8676,
      "craw": 8677,
      "assy": 8678,
      "kernel": 8679,
      "asha": 8680,
      "moreover": 8681,
      "streaming": 8682,
      "velt": 8683,
      "manuscript": 8684,
      "abraham": 8685,
      "luis": 8686,
      "liv": 8687,
      "gift": 8688,
      "implic": 8689,
      "creator": 8690,
      "depends": 8691,
      "anchor": 8692,
      "bounds": 8693,
      "taxes": 8694,
      "cies": 8695,
      "echo": 8696,
      "arsen": 8697,
      "atmosphere": 8698,
      "configuration": 8699,
      "terry": 8700,
      "merit": 8701,
      "martial": 8702,
      "explains": 8703,
      "cribed": 8704,
      "ento": 8705,
      "civic": 8706,
      "item": 8707,
      "approached": 8708,
      "dwell": 8709,
      "bullet": 8710,
      "onymous": 8711,
      "aids": 8712,
      "conspir": 8713,
      "consequently": 8714,
      "rogers": 8715,
      "curve": 8716,
      "breast": 8717,
      "friendship": 8718,
      "grants": 8719,
      "ikh": 8720,
      "preserve": 8721,
      "functionality": 8722,
      "strand": 8723,
      "spur": 8724,
      "paras": 8725,
      "mara": 8726,
      "rocket": 8727,
      "declaration": 8728,
      "cinc": 8729,
      "hate": 8730,
      "sheffield": 8731,
      "kie": 8732,
      "knights": 8733,
      "prelim": 8734,
      "jerry": 8735,
      "atomic": 8736,
      "uki": 8737,
      "mainland": 8738,
      "cartoon": 8739,
      "onaut": 8740,
      "zing": 8741,
      "lawsuit": 8742,
      "preservation": 8743,
      "prev": 8744,
      "maritime": 8745,
      "rankings": 8746,
      "gathered": 8747,
      "minster": 8748,
      "laser": 8749,
      "centres": 8750,
      "liu": 8751,
      "croatian": 8752,
      "=\"": 8753,
      "bod": 8754,
      "evacu": 8755,
      "galaxy": 8756,
      "hide": 8757,
      "aside": 8758,
      "eagle": 8759,
      "permitted": 8760,
      "formats": 8761,
      "suff": 8762,
      "demands": 8763,
      "comments": 8764,
      "eagles": 8765,
      "mour": 8766,
      "revised": 8767,
      "disorder": 8768,
      "syndrome": 8769,
      "bulgarian": 8770,
      "shakespe": 8771,
      "zig": 8772,
      "landed": 8773,
      "argentine": 8774,
      "relegated": 8775,
      "presidency": 8776,
      "labs": 8777,
      "1878": 8778,
      "associations": 8779,
      "physi": 8780,
      "cargo": 8781,
      "athlete": 8782,
      "carries": 8783,
      "restaurants": 8784,
      "disbanded": 8785,
      "errors": 8786,
      "gly": 8787,
      "venice": 8788,
      "sword": 8789,
      "ante": 8790,
      "cht": 8791,
      "guidance": 8792,
      "default": 8793,
      "permit": 8794,
      "dot": 8795,
      "larry": 8796,
      "rut": 8797,
      "punch": 8798,
      "sans": 8799,
      "haus": 8800,
      "brisbane": 8801,
      "congressional": 8802,
      "gis": 8803,
      "vegas": 8804,
      "harrison": 8805,
      "intercept": 8806,
      "luke": 8807,
      "odd": 8808,
      "bases": 8809,
      "comprises": 8810,
      "cure": 8811,
      "arriving": 8812,
      "roose": 8813,
      "caster": 8814,
      "andr": 8815,
      "infection": 8816,
      "gp": 8817,
      "recruited": 8818,
      "rebels": 8819,
      "centered": 8820,
      "autumn": 8821,
      "disciplines": 8822,
      "archive": 8823,
      "uan": 8824,
      "persist": 8825,
      "sanct": 8826,
      "reflected": 8827,
      "butler": 8828,
      "traded": 8829,
      "innat": 8830,
      "apost": 8831,
      "newton": 8832,
      "celebration": 8833,
      "proven": 8834,
      "hudson": 8835,
      "spark": 8836,
      "alaska": 8837,
      "generations": 8838,
      "murdered": 8839,
      "accommod": 8840,
      "stakes": 8841,
      "cricke": 8842,
      "nephew": 8843,
      "cession": 8844,
      "airline": 8845,
      "structured": 8846,
      "intend": 8847,
      "registration": 8848,
      "elevation": 8849,
      "usive": 8850,
      "interpreted": 8851,
      "observation": 8852,
      "headquartered": 8853,
      "somer": 8854,
      "nebraska": 8855,
      "sack": 8856,
      "conse": 8857,
      "warfare": 8858,
      "bene": 8859,
      "dissolved": 8860,
      "suspect": 8861,
      "swan": 8862,
      "qing": 8863,
      "1860": 8864,
      "1876": 8865,
      "nursing": 8866,
      "tribut": 8867,
      "clash": 8868,
      "leo": 8869,
      "michel": 8870,
      "1871": 8871,
      "phoenix": 8872,
      "fernand": 8873,
      "nationalist": 8874,
      "reich": 8875,
      "settings": 8876,
      "oes": 8877,
      "fastest": 8878,
      "intervention": 8879,
      "eve": 8880,
      "administered": 8881,
      "innovative": 8882,
      "sburg": 8883,
      "remark": 8884,
      "mw": 8885,
      "elabor": 8886,
      "redes": 8887,
      "backed": 8888,
      "committees": 8889,
      "resumed": 8890,
      "enos": 8891,
      "slaves": 8892,
      "attendance": 8893,
      "maz": 8894,
      "carneg": 8895,
      "freestyle": 8896,
      "settlers": 8897,
      "dealing": 8898,
      "embedded": 8899,
      "iry": 8900,
      "poster": 8901,
      "cn": 8902,
      "oxygen": 8903,
      "kad": 8904,
      "baronet": 8905,
      "1867": 8906,
      "failing": 8907,
      "carnegie": 8908,
      "ratings": 8909,
      "dles": 8910,
      "kw": 8911,
      "disciplinary": 8912,
      "distinctive": 8913,
      "onym": 8914,
      "leak": 8915,
      "farmer": 8916,
      "pushed": 8917,
      "separation": 8918,
      "anticip": 8919,
      "sending": 8920,
      "warning": 8921,
      "academ": 8922,
      "stuart": 8923,
      "iber": 8924,
      "tiger": 8925,
      "politicians": 8926,
      "seal": 8927,
      "poison": 8928,
      "coins": 8929,
      "cincinnat": 8930,
      "doctors": 8931,
      "spy": 8932,
      "seeds": 8933,
      "tracking": 8934,
      "expanding": 8935,
      "descendants": 8936,
      "widow": 8937,
      "findings": 8938,
      "explorer": 8939,
      "investors": 8940,
      "brus": 8941,
      "consumers": 8942,
      "hypothesis": 8943,
      "1879": 8944,
      "igno": 8945,
      "schem": 8946,
      "violin": 8947,
      "vii": 8948,
      "idad": 8949,
      "uli": 8950,
      "publishers": 8951,
      "lung": 8952,
      "congregation": 8953,
      "tales": 8954,
      "holland": 8955,
      "bros": 8956,
      "municipalities": 8957,
      "condem": 8958,
      "shipping": 8959,
      "hughes": 8960,
      "wellington": 8961,
      "receiver": 8962,
      "croatia": 8963,
      "spokes": 8964,
      "bry": 8965,
      "iah": 8966,
      "reaches": 8967,
      "giants": 8968,
      "petersburg": 8969,
      "affiliate": 8970,
      "romance": 8971,
      "legion": 8972,
      "orchestr": 8973,
      "acoustic": 8974,
      "insist": 8975,
      "arcade": 8976,
      "athy": 8977,
      "spots": 8978,
      "venezuela": 8979,
      "gig": 8980,
      "jas": 8981,
      "fitted": 8982,
      "punjab": 8983,
      "twi": 8984,
      "furt": 8985,
      "peas": 8986,
      "shakespeare": 8987,
      "robots": 8988,
      "vp": 8989,
      "releasing": 8990,
      "leagues": 8991,
      "obvious": 8992,
      "henri": 8993,
      "1874": 8994,
      "colombia": 8995,
      "rowing": 8996,
      "connects": 8997,
      "utility": 8998,
      "rica": 8999,
      "malay": 9000,
      "static": 9001,
      "omon": 9002,
      "consultant": 9003,
      "moor": 9004,
      "stability": 9005,
      "1868": 9006,
      "lift": 9007,
      "360": 9008,
      "commitment": 9009,
      "thirteen": 9010,
      "florence": 9011,
      "isaac": 9012,
      "fortune": 9013,
      "ashi": 9014,
      "wyn": 9015,
      "confidence": 9016,
      "cincinnati": 9017,
      "sely": 9018,
      "pens": 9019,
      "footage": 9020,
      "rodr": 9021,
      "elevated": 9022,
      "bever": 9023,
      "geographic": 9024,
      "reliable": 9025,
      "modes": 9026,
      "denver": 9027,
      "mens": 9028,
      "gonz": 9029,
      "aggregate": 9030,
      "denomin": 9031,
      "worthy": 9032,
      "othy": 9033,
      "athe": 9034,
      "prepare": 9035,
      "fli": 9036,
      "itary": 9037,
      "fen": 9038,
      "warriors": 9039,
      "stron": 9040,
      "boarding": 9041,
      "garrison": 9042,
      "heaven": 9043,
      "photos": 9044,
      "retain": 9045,
      "fluid": 9046,
      "realized": 9047,
      "fallen": 9048,
      "kot": 9049,
      "renowned": 9050,
      "pist": 9051,
      "shifted": 9052,
      "moham": 9053,
      "roosevelt": 9054,
      "cuba": 9055,
      "beliefs": 9056,
      "abolished": 9057,
      "ogical": 9058,
      "mala": 9059,
      "ottawa": 9060,
      "toxic": 9061,
      "gry": 9062,
      "ogen": 9063,
      "olia": 9064,
      "hammer": 9065,
      "shots": 9066,
      "retiring": 9067,
      "apps": 9068,
      "kenya": 9069,
      "bread": 9070,
      "itt": 9071,
      "crus": 9072,
      "earthquake": 9073,
      "isan": 9074,
      "cester": 9075,
      "nomine": 9076,
      "conductor": 9077,
      "lectures": 9078,
      "trim": 9079,
      "gos": 9080,
      "estimate": 9081,
      "honey": 9082,
      "evolutionary": 9083,
      "heter": 9084,
      "ello": 9085,
      "succession": 9086,
      "acquire": 9087,
      "rosen": 9088,
      "prefecture": 9089,
      "wim": 9090,
      "orph": 9091,
      "trouble": 9092,
      "ixon": 9093,
      "quin": 9094,
      "harold": 9095,
      "conducting": 9096,
      "oblig": 9097,
      "parking": 9098,
      "explore": 9099,
      "challenged": 9100,
      "caps": 9101,
      "colonies": 9102,
      "philosophical": 9103,
      "oter": 9104,
      "convict": 9105,
      "runners": 9106,
      "xia": 9107,
      "noting": 9108,
      "ruth": 9109,
      "blog": 9110,
      "preach": 9111,
      "brands": 9112,
      "diploma": 9113,
      "varying": 9114,
      "formula_3": 9115,
      "colored": 9116,
      "amal": 9117,
      "900": 9118,
      "enhanced": 9119,
      "hash": 9120,
      "attacking": 9121,
      "cord": 9122,
      "%),": 9123,
      "frey": 9124,
      "theatrical": 9125,
      "necessarily": 9126,
      "agers": 9127,
      "hod": 9128,
      "destination": 9129,
      "molecules": 9130,
      "utical": 9131,
      "feelings": 9132,
      "tical": 9133,
      "tourist": 9134,
      "mare": 9135,
      "roster": 9136,
      "chlor": 9137,
      "\"[": 9138,
      "ulating": 9139,
      "intense": 9140,
      "ambig": 9141,
      "thum": 9142,
      "sten": 9143,
      "thai": 9144,
      "imposed": 9145,
      "humanity": 9146,
      "maintains": 9147,
      "dubbed": 9148,
      "delaware": 9149,
      "unve": 9150,
      "surveill": 9151,
      "kre": 9152,
      "exploration": 9153,
      "veterans": 9154,
      "khar": 9155,
      "vocalist": 9156,
      "ensus": 9157,
      "humanities": 9158,
      "administrator": 9159,
      "adventures": 9160,
      "interim": 9161,
      "frames": 9162,
      "zhang": 9163,
      "navig": 9164,
      "psychiat": 9165,
      "trustees": 9166,
      "traveling": 9167,
      "unions": 9168,
      "recalled": 9169,
      "syrian": 9170,
      "purple": 9171,
      "inver": 9172,
      "mixture": 9173,
      "berger": 9174,
      "prises": 9175,
      "iors": 9176,
      "audiences": 9177,
      "iri": 9178,
      "enda": 9179,
      "sierra": 9180,
      "acht": 9181,
      "irect": 9182,
      "sla": 9183,
      "remix": 9184,
      "wald": 9185,
      "thorn": 9186,
      "mell": 9187,
      "copal": 9188,
      "cology": 9189,
      "endum": 9190,
      "khal": 9191,
      "patch": 9192,
      "hof": 9193,
      "consensus": 9194,
      "gregory": 9195,
      "embassy": 9196,
      "segments": 9197,
      "nevada": 9198,
      "balan": 9199,
      "burned": 9200,
      "convinced": 9201,
      "wik": 9202,
      "ido": 9203,
      "1875": 9204,
      "commenced": 9205,
      "edwards": 9206,
      "confederate": 9207,
      "1866": 9208,
      "bonus": 9209,
      "sels": 9210,
      "iest": 9211,
      "ensis": 9212,
      "mineral": 9213,
      "ulu": 9214,
      "ralph": 9215,
      "plates": 9216,
      "customs": 9217,
      "dictionary": 9218,
      "bau": 9219,
      "mick": 9220,
      "measurement": 9221,
      "ingham": 9222,
      "napole": 9223,
      "hond": 9224,
      "specification": 9225,
      "lgbt": 9226,
      "mystery": 9227,
      "thorough": 9228,
      "worlds": 9229,
      "etr": 9230,
      "pep": 9231,
      "vital": 9232,
      "rhythm": 9233,
      "compositions": 9234,
      "artwork": 9235,
      "designation": 9236,
      "1877": 9237,
      "repeatedly": 9238,
      "veteran": 9239,
      "pedro": 9240,
      "hiv": 9241,
      "provision": 9242,
      "recover": 9243,
      "reserves": 9244,
      "touchdowns": 9245,
      "ea": 9246,
      "surveillance": 9247,
      "decrease": 9248,
      "deser": 9249,
      "companion": 9250,
      "permanently": 9251,
      "threats": 9252,
      "ranges": 9253,
      "sheriff": 9254,
      "entries": 9255,
      "literally": 9256,
      "departed": 9257,
      "nominations": 9258,
      "prints": 9259,
      "agar": 9260,
      "observations": 9261,
      "brevi": 9262,
      "essex": 9263,
      "conjunction": 9264,
      "bald": 9265,
      "genesis": 9266,
      "anglican": 9267,
      "gie": 9268,
      "arte": 9269,
      "transformed": 9270,
      "militia": 9271,
      "cripts": 9272,
      "ativity": 9273,
      "exile": 9274,
      "properly": 9275,
      "kitchen": 9276,
      "module": 9277,
      "seemed": 9278,
      "nashville": 9279,
      "accommo": 9280,
      "lean": 9281,
      "nationwide": 9282,
      "pomer": 9283,
      "networking": 9284,
      "accommodate": 9285,
[...]
